{
  "version": "1.0",
  "truncation": null,
  "padding": null,
  "added_tokens": [
    {
      "id": 0,
      "content": "<unk>",
      "single_word": false,
      "lstrip": false,
      "rstrip": false,
      "normalized": false,
      "special": true
    },
    {
      "id": 1,
      "content": "<s>",
      "single_word": false,
      "lstrip": false,
      "rstrip": false,
      "normalized": false,
      "special": true
    },
    {
      "id": 2,
      "content": "</s>",
      "single_word": false,
      "lstrip": false,
      "rstrip": false,
      "normalized": false,
      "special": true
    },
    {
      "id": 3,
      "content": "<pad>",
      "single_word": false,
      "lstrip": false,
      "rstrip": false,
      "normalized": false,
      "special": true
    },
    {
      "id": 4,
      "content": "<mask>",
      "single_word": false,
      "lstrip": false,
      "rstrip": false,
      "normalized": false,
      "special": true
    },
    {
      "id": 5,
      "content": "<|fim_prefix|>",
      "single_word": false,
      "lstrip": false,
      "rstrip": false,
      "normalized": false,
      "special": true
    },
    {
      "id": 6,
      "content": "<|fim_middle|>",
      "single_word": false,
      "lstrip": false,
      "rstrip": false,
      "normalized": false,
      "special": true
    },
    {
      "id": 7,
      "content": "<|fim_sufix|>",
      "single_word": false,
      "lstrip": false,
      "rstrip": false,
      "normalized": false,
      "special": true
    },
    {
      "id": 8,
      "content": "<|file_separator|>",
      "single_word": false,
      "lstrip": false,
      "rstrip": false,
      "normalized": false,
      "special": true
    },
    {
      "id": 9,
      "content": "<0x00>",
      "single_word": false,
      "lstrip": false,
      "rstrip": false,
      "normalized": false,
      "special": true
    },
    {
      "id": 10,
      "content": "<0x01>",
      "single_word": false,
      "lstrip": false,
      "rstrip": false,
      "normalized": false,
      "special": true
    },
    {
      "id": 11,
      "content": "<0x02>",
      "single_word": false,
      "lstrip": false,
      "rstrip": false,
      "normalized": false,
      "special": true
    },
    {
      "id": 12,
      "content": "<0x03>",
      "single_word": false,
      "lstrip": false,
      "rstrip": false,
      "normalized": false,
      "special": true
    },
    {
      "id": 13,
      "content": "<0x04>",
      "single_word": false,
      "lstrip": false,
      "rstrip": false,
      "normalized": false,
      "special": true
    },
    {
      "id": 14,
      "content": "<0x05>",
      "single_word": false,
      "lstrip": false,
      "rstrip": false,
      "normalized": false,
      "special": true
    },
    {
      "id": 15,
      "content": "<0x06>",
      "single_word": false,
      "lstrip": false,
      "rstrip": false,
      "normalized": false,
      "special": true
    },
    {
      "id": 16,
      "content": "<0x07>",
      "single_word": false,
      "lstrip": false,
      "rstrip": false,
      "normalized": false,
      "special": true
    },
    {
      "id": 17,
      "content": "<0x08>",
      "single_word": false,
      "lstrip": false,
      "rstrip": false,
      "normalized": false,
      "special": true
    },
    {
      "id": 18,
      "content": "<0x09>",
      "single_word": false,
      "lstrip": false,
      "rstrip": false,
      "normalized": false,
      "special": true
    },
    {
      "id": 19,
      "content": "<0x0A>",
      "single_word": false,
      "lstrip": false,
      "rstrip": false,
      "normalized": false,
      "special": true
    },
    {
      "id": 20,
      "content": "<0x0B>",
      "single_word": false,
      "lstrip": false,
      "rstrip": false,
      "normalized": false,
      "special": true
    },
    {
      "id": 21,
      "content": "<0x0C>",
      "single_word": false,
      "lstrip": false,
      "rstrip": false,
      "normalized": false,
      "special": true
    },
    {
      "id": 22,
      "content": "<0x0D>",
      "single_word": false,
      "lstrip": false,
      "rstrip": false,
      "normalized": false,
      "special": true
    },
    {
      "id": 23,
      "content": "<0x0E>",
      "single_word": false,
      "lstrip": false,
      "rstrip": false,
      "normalized": false,
      "special": true
    },
    {
      "id": 24,
      "content": "<0x0F>",
      "single_word": false,
      "lstrip": false,
      "rstrip": false,
      "normalized": false,
      "special": true
    },
    {
      "id": 25,
      "content": "<0x10>",
      "single_word": false,
      "lstrip": false,
      "rstrip": false,
      "normalized": false,
      "special": true
    },
    {
      "id": 26,
      "content": "<0x11>",
      "single_word": false,
      "lstrip": false,
      "rstrip": false,
      "normalized": false,
      "special": true
    },
    {
      "id": 27,
      "content": "<0x12>",
      "single_word": false,
      "lstrip": false,
      "rstrip": false,
      "normalized": false,
      "special": true
    },
    {
      "id": 28,
      "content": "<0x13>",
      "single_word": false,
      "lstrip": false,
      "rstrip": false,
      "normalized": false,
      "special": true
    },
    {
      "id": 29,
      "content": "<0x14>",
      "single_word": false,
      "lstrip": false,
      "rstrip": false,
      "normalized": false,
      "special": true
    },
    {
      "id": 30,
      "content": "<0x15>",
      "single_word": false,
      "lstrip": false,
      "rstrip": false,
      "normalized": false,
      "special": true
    },
    {
      "id": 31,
      "content": "<0x16>",
      "single_word": false,
      "lstrip": false,
      "rstrip": false,
      "normalized": false,
      "special": true
    },
    {
      "id": 32,
      "content": "<0x17>",
      "single_word": false,
      "lstrip": false,
      "rstrip": false,
      "normalized": false,
      "special": true
    },
    {
      "id": 33,
      "content": "<0x18>",
      "single_word": false,
      "lstrip": false,
      "rstrip": false,
      "normalized": false,
      "special": true
    },
    {
      "id": 34,
      "content": "<0x19>",
      "single_word": false,
      "lstrip": false,
      "rstrip": false,
      "normalized": false,
      "special": true
    },
    {
      "id": 35,
      "content": "<0x1A>",
      "single_word": false,
      "lstrip": false,
      "rstrip": false,
      "normalized": false,
      "special": true
    },
    {
      "id": 36,
      "content": "<0x1B>",
      "single_word": false,
      "lstrip": false,
      "rstrip": false,
      "normalized": false,
      "special": true
    },
    {
      "id": 37,
      "content": "<0x1C>",
      "single_word": false,
      "lstrip": false,
      "rstrip": false,
      "normalized": false,
      "special": true
    },
    {
      "id": 38,
      "content": "<0x1D>",
      "single_word": false,
      "lstrip": false,
      "rstrip": false,
      "normalized": false,
      "special": true
    },
    {
      "id": 39,
      "content": "<0x1E>",
      "single_word": false,
      "lstrip": false,
      "rstrip": false,
      "normalized": false,
      "special": true
    },
    {
      "id": 40,
      "content": "<0x1F>",
      "single_word": false,
      "lstrip": false,
      "rstrip": false,
      "normalized": false,
      "special": true
    },
    {
      "id": 41,
      "content": "<0x20>",
      "single_word": false,
      "lstrip": false,
      "rstrip": false,
      "normalized": false,
      "special": true
    },
    {
      "id": 42,
      "content": "<0x21>",
      "single_word": false,
      "lstrip": false,
      "rstrip": false,
      "normalized": false,
      "special": true
    },
    {
      "id": 43,
      "content": "<0x22>",
      "single_word": false,
      "lstrip": false,
      "rstrip": false,
      "normalized": false,
      "special": true
    },
    {
      "id": 44,
      "content": "<0x23>",
      "single_word": false,
      "lstrip": false,
      "rstrip": false,
      "normalized": false,
      "special": true
    },
    {
      "id": 45,
      "content": "<0x24>",
      "single_word": false,
      "lstrip": false,
      "rstrip": false,
      "normalized": false,
      "special": true
    },
    {
      "id": 46,
      "content": "<0x25>",
      "single_word": false,
      "lstrip": false,
      "rstrip": false,
      "normalized": false,
      "special": true
    },
    {
      "id": 47,
      "content": "<0x26>",
      "single_word": false,
      "lstrip": false,
      "rstrip": false,
      "normalized": false,
      "special": true
    },
    {
      "id": 48,
      "content": "<0x27>",
      "single_word": false,
      "lstrip": false,
      "rstrip": false,
      "normalized": false,
      "special": true
    },
    {
      "id": 49,
      "content": "<0x28>",
      "single_word": false,
      "lstrip": false,
      "rstrip": false,
      "normalized": false,
      "special": true
    },
    {
      "id": 50,
      "content": "<0x29>",
      "single_word": false,
      "lstrip": false,
      "rstrip": false,
      "normalized": false,
      "special": true
    },
    {
      "id": 51,
      "content": "<0x2A>",
      "single_word": false,
      "lstrip": false,
      "rstrip": false,
      "normalized": false,
      "special": true
    },
    {
      "id": 52,
      "content": "<0x2B>",
      "single_word": false,
      "lstrip": false,
      "rstrip": false,
      "normalized": false,
      "special": true
    },
    {
      "id": 53,
      "content": "<0x2C>",
      "single_word": false,
      "lstrip": false,
      "rstrip": false,
      "normalized": false,
      "special": true
    },
    {
      "id": 54,
      "content": "<0x2D>",
      "single_word": false,
      "lstrip": false,
      "rstrip": false,
      "normalized": false,
      "special": true
    },
    {
      "id": 55,
      "content": "<0x2E>",
      "single_word": false,
      "lstrip": false,
      "rstrip": false,
      "normalized": false,
      "special": true
    },
    {
      "id": 56,
      "content": "<0x2F>",
      "single_word": false,
      "lstrip": false,
      "rstrip": false,
      "normalized": false,
      "special": true
    },
    {
      "id": 57,
      "content": "<0x30>",
      "single_word": false,
      "lstrip": false,
      "rstrip": false,
      "normalized": false,
      "special": true
    },
    {
      "id": 58,
      "content": "<0x31>",
      "single_word": false,
      "lstrip": false,
      "rstrip": false,
      "normalized": false,
      "special": true
    },
    {
      "id": 59,
      "content": "<0x32>",
      "single_word": false,
      "lstrip": false,
      "rstrip": false,
      "normalized": false,
      "special": true
    },
    {
      "id": 60,
      "content": "<0x33>",
      "single_word": false,
      "lstrip": false,
      "rstrip": false,
      "normalized": false,
      "special": true
    },
    {
      "id": 61,
      "content": "<0x34>",
      "single_word": false,
      "lstrip": false,
      "rstrip": false,
      "normalized": false,
      "special": true
    },
    {
      "id": 62,
      "content": "<0x35>",
      "single_word": false,
      "lstrip": false,
      "rstrip": false,
      "normalized": false,
      "special": true
    },
    {
      "id": 63,
      "content": "<0x36>",
      "single_word": false,
      "lstrip": false,
      "rstrip": false,
      "normalized": false,
      "special": true
    },
    {
      "id": 64,
      "content": "<0x37>",
      "single_word": false,
      "lstrip": false,
      "rstrip": false,
      "normalized": false,
      "special": true
    },
    {
      "id": 65,
      "content": "<0x38>",
      "single_word": false,
      "lstrip": false,
      "rstrip": false,
      "normalized": false,
      "special": true
    },
    {
      "id": 66,
      "content": "<0x39>",
      "single_word": false,
      "lstrip": false,
      "rstrip": false,
      "normalized": false,
      "special": true
    },
    {
      "id": 67,
      "content": "<0x3A>",
      "single_word": false,
      "lstrip": false,
      "rstrip": false,
      "normalized": false,
      "special": true
    },
    {
      "id": 68,
      "content": "<0x3B>",
      "single_word": false,
      "lstrip": false,
      "rstrip": false,
      "normalized": false,
      "special": true
    },
    {
      "id": 69,
      "content": "<0x3C>",
      "single_word": false,
      "lstrip": false,
      "rstrip": false,
      "normalized": false,
      "special": true
    },
    {
      "id": 70,
      "content": "<0x3D>",
      "single_word": false,
      "lstrip": false,
      "rstrip": false,
      "normalized": false,
      "special": true
    },
    {
      "id": 71,
      "content": "<0x3E>",
      "single_word": false,
      "lstrip": false,
      "rstrip": false,
      "normalized": false,
      "special": true
    },
    {
      "id": 72,
      "content": "<0x3F>",
      "single_word": false,
      "lstrip": false,
      "rstrip": false,
      "normalized": false,
      "special": true
    },
    {
      "id": 73,
      "content": "<0x40>",
      "single_word": false,
      "lstrip": false,
      "rstrip": false,
      "normalized": false,
      "special": true
    },
    {
      "id": 74,
      "content": "<0x41>",
      "single_word": false,
      "lstrip": false,
      "rstrip": false,
      "normalized": false,
      "special": true
    },
    {
      "id": 75,
      "content": "<0x42>",
      "single_word": false,
      "lstrip": false,
      "rstrip": false,
      "normalized": false,
      "special": true
    },
    {
      "id": 76,
      "content": "<0x43>",
      "single_word": false,
      "lstrip": false,
      "rstrip": false,
      "normalized": false,
      "special": true
    },
    {
      "id": 77,
      "content": "<0x44>",
      "single_word": false,
      "lstrip": false,
      "rstrip": false,
      "normalized": false,
      "special": true
    },
    {
      "id": 78,
      "content": "<0x45>",
      "single_word": false,
      "lstrip": false,
      "rstrip": false,
      "normalized": false,
      "special": true
    },
    {
      "id": 79,
      "content": "<0x46>",
      "single_word": false,
      "lstrip": false,
      "rstrip": false,
      "normalized": false,
      "special": true
    },
    {
      "id": 80,
      "content": "<0x47>",
      "single_word": false,
      "lstrip": false,
      "rstrip": false,
      "normalized": false,
      "special": true
    },
    {
      "id": 81,
      "content": "<0x48>",
      "single_word": false,
      "lstrip": false,
      "rstrip": false,
      "normalized": false,
      "special": true
    },
    {
      "id": 82,
      "content": "<0x49>",
      "single_word": false,
      "lstrip": false,
      "rstrip": false,
      "normalized": false,
      "special": true
    },
    {
      "id": 83,
      "content": "<0x4A>",
      "single_word": false,
      "lstrip": false,
      "rstrip": false,
      "normalized": false,
      "special": true
    },
    {
      "id": 84,
      "content": "<0x4B>",
      "single_word": false,
      "lstrip": false,
      "rstrip": false,
      "normalized": false,
      "special": true
    },
    {
      "id": 85,
      "content": "<0x4C>",
      "single_word": false,
      "lstrip": false,
      "rstrip": false,
      "normalized": false,
      "special": true
    },
    {
      "id": 86,
      "content": "<0x4D>",
      "single_word": false,
      "lstrip": false,
      "rstrip": false,
      "normalized": false,
      "special": true
    },
    {
      "id": 87,
      "content": "<0x4E>",
      "single_word": false,
      "lstrip": false,
      "rstrip": false,
      "normalized": false,
      "special": true
    },
    {
      "id": 88,
      "content": "<0x4F>",
      "single_word": false,
      "lstrip": false,
      "rstrip": false,
      "normalized": false,
      "special": true
    },
    {
      "id": 89,
      "content": "<0x50>",
      "single_word": false,
      "lstrip": false,
      "rstrip": false,
      "normalized": false,
      "special": true
    },
    {
      "id": 90,
      "content": "<0x51>",
      "single_word": false,
      "lstrip": false,
      "rstrip": false,
      "normalized": false,
      "special": true
    },
    {
      "id": 91,
      "content": "<0x52>",
      "single_word": false,
      "lstrip": false,
      "rstrip": false,
      "normalized": false,
      "special": true
    },
    {
      "id": 92,
      "content": "<0x53>",
      "single_word": false,
      "lstrip": false,
      "rstrip": false,
      "normalized": false,
      "special": true
    },
    {
      "id": 93,
      "content": "<0x54>",
      "single_word": false,
      "lstrip": false,
      "rstrip": false,
      "normalized": false,
      "special": true
    },
    {
      "id": 94,
      "content": "<0x55>",
      "single_word": false,
      "lstrip": false,
      "rstrip": false,
      "normalized": false,
      "special": true
    },
    {
      "id": 95,
      "content": "<0x56>",
      "single_word": false,
      "lstrip": false,
      "rstrip": false,
      "normalized": false,
      "special": true
    },
    {
      "id": 96,
      "content": "<0x57>",
      "single_word": false,
      "lstrip": false,
      "rstrip": false,
      "normalized": false,
      "special": true
    },
    {
      "id": 97,
      "content": "<0x58>",
      "single_word": false,
      "lstrip": false,
      "rstrip": false,
      "normalized": false,
      "special": true
    },
    {
      "id": 98,
      "content": "<0x59>",
      "single_word": false,
      "lstrip": false,
      "rstrip": false,
      "normalized": false,
      "special": true
    },
    {
      "id": 99,
      "content": "<0x5A>",
      "single_word": false,
      "lstrip": false,
      "rstrip": false,
      "normalized": false,
      "special": true
    },
    {
      "id": 100,
      "content": "<0x5B>",
      "single_word": false,
      "lstrip": false,
      "rstrip": false,
      "normalized": false,
      "special": true
    },
    {
      "id": 101,
      "content": "<0x5C>",
      "single_word": false,
      "lstrip": false,
      "rstrip": false,
      "normalized": false,
      "special": true
    },
    {
      "id": 102,
      "content": "<0x5D>",
      "single_word": false,
      "lstrip": false,
      "rstrip": false,
      "normalized": false,
      "special": true
    },
    {
      "id": 103,
      "content": "<0x5E>",
      "single_word": false,
      "lstrip": false,
      "rstrip": false,
      "normalized": false,
      "special": true
    },
    {
      "id": 104,
      "content": "<0x5F>",
      "single_word": false,
      "lstrip": false,
      "rstrip": false,
      "normalized": false,
      "special": true
    },
    {
      "id": 105,
      "content": "<0x60>",
      "single_word": false,
      "lstrip": false,
      "rstrip": false,
      "normalized": false,
      "special": true
    },
    {
      "id": 106,
      "content": "<0x61>",
      "single_word": false,
      "lstrip": false,
      "rstrip": false,
      "normalized": false,
      "special": true
    },
    {
      "id": 107,
      "content": "<0x62>",
      "single_word": false,
      "lstrip": false,
      "rstrip": false,
      "normalized": false,
      "special": true
    },
    {
      "id": 108,
      "content": "<0x63>",
      "single_word": false,
      "lstrip": false,
      "rstrip": false,
      "normalized": false,
      "special": true
    },
    {
      "id": 109,
      "content": "<0x64>",
      "single_word": false,
      "lstrip": false,
      "rstrip": false,
      "normalized": false,
      "special": true
    },
    {
      "id": 110,
      "content": "<0x65>",
      "single_word": false,
      "lstrip": false,
      "rstrip": false,
      "normalized": false,
      "special": true
    },
    {
      "id": 111,
      "content": "<0x66>",
      "single_word": false,
      "lstrip": false,
      "rstrip": false,
      "normalized": false,
      "special": true
    },
    {
      "id": 112,
      "content": "<0x67>",
      "single_word": false,
      "lstrip": false,
      "rstrip": false,
      "normalized": false,
      "special": true
    },
    {
      "id": 113,
      "content": "<0x68>",
      "single_word": false,
      "lstrip": false,
      "rstrip": false,
      "normalized": false,
      "special": true
    },
    {
      "id": 114,
      "content": "<0x69>",
      "single_word": false,
      "lstrip": false,
      "rstrip": false,
      "normalized": false,
      "special": true
    },
    {
      "id": 115,
      "content": "<0x6A>",
      "single_word": false,
      "lstrip": false,
      "rstrip": false,
      "normalized": false,
      "special": true
    },
    {
      "id": 116,
      "content": "<0x6B>",
      "single_word": false,
      "lstrip": false,
      "rstrip": false,
      "normalized": false,
      "special": true
    },
    {
      "id": 117,
      "content": "<0x6C>",
      "single_word": false,
      "lstrip": false,
      "rstrip": false,
      "normalized": false,
      "special": true
    },
    {
      "id": 118,
      "content": "<0x6D>",
      "single_word": false,
      "lstrip": false,
      "rstrip": false,
      "normalized": false,
      "special": true
    },
    {
      "id": 119,
      "content": "<0x6E>",
      "single_word": false,
      "lstrip": false,
      "rstrip": false,
      "normalized": false,
      "special": true
    },
    {
      "id": 120,
      "content": "<0x6F>",
      "single_word": false,
      "lstrip": false,
      "rstrip": false,
      "normalized": false,
      "special": true
    },
    {
      "id": 121,
      "content": "<0x70>",
      "single_word": false,
      "lstrip": false,
      "rstrip": false,
      "normalized": false,
      "special": true
    },
    {
      "id": 122,
      "content": "<0x71>",
      "single_word": false,
      "lstrip": false,
      "rstrip": false,
      "normalized": false,
      "special": true
    },
    {
      "id": 123,
      "content": "<0x72>",
      "single_word": false,
      "lstrip": false,
      "rstrip": false,
      "normalized": false,
      "special": true
    },
    {
      "id": 124,
      "content": "<0x73>",
      "single_word": false,
      "lstrip": false,
      "rstrip": false,
      "normalized": false,
      "special": true
    },
    {
      "id": 125,
      "content": "<0x74>",
      "single_word": false,
      "lstrip": false,
      "rstrip": false,
      "normalized": false,
      "special": true
    },
    {
      "id": 126,
      "content": "<0x75>",
      "single_word": false,
      "lstrip": false,
      "rstrip": false,
      "normalized": false,
      "special": true
    },
    {
      "id": 127,
      "content": "<0x76>",
      "single_word": false,
      "lstrip": false,
      "rstrip": false,
      "normalized": false,
      "special": true
    },
    {
      "id": 128,
      "content": "<0x77>",
      "single_word": false,
      "lstrip": false,
      "rstrip": false,
      "normalized": false,
      "special": true
    },
    {
      "id": 129,
      "content": "<0x78>",
      "single_word": false,
      "lstrip": false,
      "rstrip": false,
      "normalized": false,
      "special": true
    },
    {
      "id": 130,
      "content": "<0x79>",
      "single_word": false,
      "lstrip": false,
      "rstrip": false,
      "normalized": false,
      "special": true
    },
    {
      "id": 131,
      "content": "<0x7A>",
      "single_word": false,
      "lstrip": false,
      "rstrip": false,
      "normalized": false,
      "special": true
    },
    {
      "id": 132,
      "content": "<0x7B>",
      "single_word": false,
      "lstrip": false,
      "rstrip": false,
      "normalized": false,
      "special": true
    },
    {
      "id": 133,
      "content": "<0x7C>",
      "single_word": false,
      "lstrip": false,
      "rstrip": false,
      "normalized": false,
      "special": true
    },
    {
      "id": 134,
      "content": "<0x7D>",
      "single_word": false,
      "lstrip": false,
      "rstrip": false,
      "normalized": false,
      "special": true
    },
    {
      "id": 135,
      "content": "<0x7E>",
      "single_word": false,
      "lstrip": false,
      "rstrip": false,
      "normalized": false,
      "special": true
    },
    {
      "id": 136,
      "content": "<0x7F>",
      "single_word": false,
      "lstrip": false,
      "rstrip": false,
      "normalized": false,
      "special": true
    },
    {
      "id": 137,
      "content": "<0x80>",
      "single_word": false,
      "lstrip": false,
      "rstrip": false,
      "normalized": false,
      "special": true
    },
    {
      "id": 138,
      "content": "<0x81>",
      "single_word": false,
      "lstrip": false,
      "rstrip": false,
      "normalized": false,
      "special": true
    },
    {
      "id": 139,
      "content": "<0x82>",
      "single_word": false,
      "lstrip": false,
      "rstrip": false,
      "normalized": false,
      "special": true
    },
    {
      "id": 140,
      "content": "<0x83>",
      "single_word": false,
      "lstrip": false,
      "rstrip": false,
      "normalized": false,
      "special": true
    },
    {
      "id": 141,
      "content": "<0x84>",
      "single_word": false,
      "lstrip": false,
      "rstrip": false,
      "normalized": false,
      "special": true
    },
    {
      "id": 142,
      "content": "<0x85>",
      "single_word": false,
      "lstrip": false,
      "rstrip": false,
      "normalized": false,
      "special": true
    },
    {
      "id": 143,
      "content": "<0x86>",
      "single_word": false,
      "lstrip": false,
      "rstrip": false,
      "normalized": false,
      "special": true
    },
    {
      "id": 144,
      "content": "<0x87>",
      "single_word": false,
      "lstrip": false,
      "rstrip": false,
      "normalized": false,
      "special": true
    },
    {
      "id": 145,
      "content": "<0x88>",
      "single_word": false,
      "lstrip": false,
      "rstrip": false,
      "normalized": false,
      "special": true
    },
    {
      "id": 146,
      "content": "<0x89>",
      "single_word": false,
      "lstrip": false,
      "rstrip": false,
      "normalized": false,
      "special": true
    },
    {
      "id": 147,
      "content": "<0x8A>",
      "single_word": false,
      "lstrip": false,
      "rstrip": false,
      "normalized": false,
      "special": true
    },
    {
      "id": 148,
      "content": "<0x8B>",
      "single_word": false,
      "lstrip": false,
      "rstrip": false,
      "normalized": false,
      "special": true
    },
    {
      "id": 149,
      "content": "<0x8C>",
      "single_word": false,
      "lstrip": false,
      "rstrip": false,
      "normalized": false,
      "special": true
    },
    {
      "id": 150,
      "content": "<0x8D>",
      "single_word": false,
      "lstrip": false,
      "rstrip": false,
      "normalized": false,
      "special": true
    },
    {
      "id": 151,
      "content": "<0x8E>",
      "single_word": false,
      "lstrip": false,
      "rstrip": false,
      "normalized": false,
      "special": true
    },
    {
      "id": 152,
      "content": "<0x8F>",
      "single_word": false,
      "lstrip": false,
      "rstrip": false,
      "normalized": false,
      "special": true
    },
    {
      "id": 153,
      "content": "<0x90>",
      "single_word": false,
      "lstrip": false,
      "rstrip": false,
      "normalized": false,
      "special": true
    },
    {
      "id": 154,
      "content": "<0x91>",
      "single_word": false,
      "lstrip": false,
      "rstrip": false,
      "normalized": false,
      "special": true
    },
    {
      "id": 155,
      "content": "<0x92>",
      "single_word": false,
      "lstrip": false,
      "rstrip": false,
      "normalized": false,
      "special": true
    },
    {
      "id": 156,
      "content": "<0x93>",
      "single_word": false,
      "lstrip": false,
      "rstrip": false,
      "normalized": false,
      "special": true
    },
    {
      "id": 157,
      "content": "<0x94>",
      "single_word": false,
      "lstrip": false,
      "rstrip": false,
      "normalized": false,
      "special": true
    },
    {
      "id": 158,
      "content": "<0x95>",
      "single_word": false,
      "lstrip": false,
      "rstrip": false,
      "normalized": false,
      "special": true
    },
    {
      "id": 159,
      "content": "<0x96>",
      "single_word": false,
      "lstrip": false,
      "rstrip": false,
      "normalized": false,
      "special": true
    },
    {
      "id": 160,
      "content": "<0x97>",
      "single_word": false,
      "lstrip": false,
      "rstrip": false,
      "normalized": false,
      "special": true
    },
    {
      "id": 161,
      "content": "<0x98>",
      "single_word": false,
      "lstrip": false,
      "rstrip": false,
      "normalized": false,
      "special": true
    },
    {
      "id": 162,
      "content": "<0x99>",
      "single_word": false,
      "lstrip": false,
      "rstrip": false,
      "normalized": false,
      "special": true
    },
    {
      "id": 163,
      "content": "<0x9A>",
      "single_word": false,
      "lstrip": false,
      "rstrip": false,
      "normalized": false,
      "special": true
    },
    {
      "id": 164,
      "content": "<0x9B>",
      "single_word": false,
      "lstrip": false,
      "rstrip": false,
      "normalized": false,
      "special": true
    },
    {
      "id": 165,
      "content": "<0x9C>",
      "single_word": false,
      "lstrip": false,
      "rstrip": false,
      "normalized": false,
      "special": true
    },
    {
      "id": 166,
      "content": "<0x9D>",
      "single_word": false,
      "lstrip": false,
      "rstrip": false,
      "normalized": false,
      "special": true
    },
    {
      "id": 167,
      "content": "<0x9E>",
      "single_word": false,
      "lstrip": false,
      "rstrip": false,
      "normalized": false,
      "special": true
    },
    {
      "id": 168,
      "content": "<0x9F>",
      "single_word": false,
      "lstrip": false,
      "rstrip": false,
      "normalized": false,
      "special": true
    },
    {
      "id": 169,
      "content": "<0xA0>",
      "single_word": false,
      "lstrip": false,
      "rstrip": false,
      "normalized": false,
      "special": true
    },
    {
      "id": 170,
      "content": "<0xA1>",
      "single_word": false,
      "lstrip": false,
      "rstrip": false,
      "normalized": false,
      "special": true
    },
    {
      "id": 171,
      "content": "<0xA2>",
      "single_word": false,
      "lstrip": false,
      "rstrip": false,
      "normalized": false,
      "special": true
    },
    {
      "id": 172,
      "content": "<0xA3>",
      "single_word": false,
      "lstrip": false,
      "rstrip": false,
      "normalized": false,
      "special": true
    },
    {
      "id": 173,
      "content": "<0xA4>",
      "single_word": false,
      "lstrip": false,
      "rstrip": false,
      "normalized": false,
      "special": true
    },
    {
      "id": 174,
      "content": "<0xA5>",
      "single_word": false,
      "lstrip": false,
      "rstrip": false,
      "normalized": false,
      "special": true
    },
    {
      "id": 175,
      "content": "<0xA6>",
      "single_word": false,
      "lstrip": false,
      "rstrip": false,
      "normalized": false,
      "special": true
    },
    {
      "id": 176,
      "content": "<0xA7>",
      "single_word": false,
      "lstrip": false,
      "rstrip": false,
      "normalized": false,
      "special": true
    },
    {
      "id": 177,
      "content": "<0xA8>",
      "single_word": false,
      "lstrip": false,
      "rstrip": false,
      "normalized": false,
      "special": true
    },
    {
      "id": 178,
      "content": "<0xA9>",
      "single_word": false,
      "lstrip": false,
      "rstrip": false,
      "normalized": false,
      "special": true
    },
    {
      "id": 179,
      "content": "<0xAA>",
      "single_word": false,
      "lstrip": false,
      "rstrip": false,
      "normalized": false,
      "special": true
    },
    {
      "id": 180,
      "content": "<0xAB>",
      "single_word": false,
      "lstrip": false,
      "rstrip": false,
      "normalized": false,
      "special": true
    },
    {
      "id": 181,
      "content": "<0xAC>",
      "single_word": false,
      "lstrip": false,
      "rstrip": false,
      "normalized": false,
      "special": true
    },
    {
      "id": 182,
      "content": "<0xAD>",
      "single_word": false,
      "lstrip": false,
      "rstrip": false,
      "normalized": false,
      "special": true
    },
    {
      "id": 183,
      "content": "<0xAE>",
      "single_word": false,
      "lstrip": false,
      "rstrip": false,
      "normalized": false,
      "special": true
    },
    {
      "id": 184,
      "content": "<0xAF>",
      "single_word": false,
      "lstrip": false,
      "rstrip": false,
      "normalized": false,
      "special": true
    },
    {
      "id": 185,
      "content": "<0xB0>",
      "single_word": false,
      "lstrip": false,
      "rstrip": false,
      "normalized": false,
      "special": true
    },
    {
      "id": 186,
      "content": "<0xB1>",
      "single_word": false,
      "lstrip": false,
      "rstrip": false,
      "normalized": false,
      "special": true
    },
    {
      "id": 187,
      "content": "<0xB2>",
      "single_word": false,
      "lstrip": false,
      "rstrip": false,
      "normalized": false,
      "special": true
    },
    {
      "id": 188,
      "content": "<0xB3>",
      "single_word": false,
      "lstrip": false,
      "rstrip": false,
      "normalized": false,
      "special": true
    },
    {
      "id": 189,
      "content": "<0xB4>",
      "single_word": false,
      "lstrip": false,
      "rstrip": false,
      "normalized": false,
      "special": true
    },
    {
      "id": 190,
      "content": "<0xB5>",
      "single_word": false,
      "lstrip": false,
      "rstrip": false,
      "normalized": false,
      "special": true
    },
    {
      "id": 191,
      "content": "<0xB6>",
      "single_word": false,
      "lstrip": false,
      "rstrip": false,
      "normalized": false,
      "special": true
    },
    {
      "id": 192,
      "content": "<0xB7>",
      "single_word": false,
      "lstrip": false,
      "rstrip": false,
      "normalized": false,
      "special": true
    },
    {
      "id": 193,
      "content": "<0xB8>",
      "single_word": false,
      "lstrip": false,
      "rstrip": false,
      "normalized": false,
      "special": true
    },
    {
      "id": 194,
      "content": "<0xB9>",
      "single_word": false,
      "lstrip": false,
      "rstrip": false,
      "normalized": false,
      "special": true
    },
    {
      "id": 195,
      "content": "<0xBA>",
      "single_word": false,
      "lstrip": false,
      "rstrip": false,
      "normalized": false,
      "special": true
    },
    {
      "id": 196,
      "content": "<0xBB>",
      "single_word": false,
      "lstrip": false,
      "rstrip": false,
      "normalized": false,
      "special": true
    },
    {
      "id": 197,
      "content": "<0xBC>",
      "single_word": false,
      "lstrip": false,
      "rstrip": false,
      "normalized": false,
      "special": true
    },
    {
      "id": 198,
      "content": "<0xBD>",
      "single_word": false,
      "lstrip": false,
      "rstrip": false,
      "normalized": false,
      "special": true
    },
    {
      "id": 199,
      "content": "<0xBE>",
      "single_word": false,
      "lstrip": false,
      "rstrip": false,
      "normalized": false,
      "special": true
    },
    {
      "id": 200,
      "content": "<0xBF>",
      "single_word": false,
      "lstrip": false,
      "rstrip": false,
      "normalized": false,
      "special": true
    },
    {
      "id": 201,
      "content": "<0xC0>",
      "single_word": false,
      "lstrip": false,
      "rstrip": false,
      "normalized": false,
      "special": true
    },
    {
      "id": 202,
      "content": "<0xC1>",
      "single_word": false,
      "lstrip": false,
      "rstrip": false,
      "normalized": false,
      "special": true
    },
    {
      "id": 203,
      "content": "<0xC2>",
      "single_word": false,
      "lstrip": false,
      "rstrip": false,
      "normalized": false,
      "special": true
    },
    {
      "id": 204,
      "content": "<0xC3>",
      "single_word": false,
      "lstrip": false,
      "rstrip": false,
      "normalized": false,
      "special": true
    },
    {
      "id": 205,
      "content": "<0xC4>",
      "single_word": false,
      "lstrip": false,
      "rstrip": false,
      "normalized": false,
      "special": true
    },
    {
      "id": 206,
      "content": "<0xC5>",
      "single_word": false,
      "lstrip": false,
      "rstrip": false,
      "normalized": false,
      "special": true
    },
    {
      "id": 207,
      "content": "<0xC6>",
      "single_word": false,
      "lstrip": false,
      "rstrip": false,
      "normalized": false,
      "special": true
    },
    {
      "id": 208,
      "content": "<0xC7>",
      "single_word": false,
      "lstrip": false,
      "rstrip": false,
      "normalized": false,
      "special": true
    },
    {
      "id": 209,
      "content": "<0xC8>",
      "single_word": false,
      "lstrip": false,
      "rstrip": false,
      "normalized": false,
      "special": true
    },
    {
      "id": 210,
      "content": "<0xC9>",
      "single_word": false,
      "lstrip": false,
      "rstrip": false,
      "normalized": false,
      "special": true
    },
    {
      "id": 211,
      "content": "<0xCA>",
      "single_word": false,
      "lstrip": false,
      "rstrip": false,
      "normalized": false,
      "special": true
    },
    {
      "id": 212,
      "content": "<0xCB>",
      "single_word": false,
      "lstrip": false,
      "rstrip": false,
      "normalized": false,
      "special": true
    },
    {
      "id": 213,
      "content": "<0xCC>",
      "single_word": false,
      "lstrip": false,
      "rstrip": false,
      "normalized": false,
      "special": true
    },
    {
      "id": 214,
      "content": "<0xCD>",
      "single_word": false,
      "lstrip": false,
      "rstrip": false,
      "normalized": false,
      "special": true
    },
    {
      "id": 215,
      "content": "<0xCE>",
      "single_word": false,
      "lstrip": false,
      "rstrip": false,
      "normalized": false,
      "special": true
    },
    {
      "id": 216,
      "content": "<0xCF>",
      "single_word": false,
      "lstrip": false,
      "rstrip": false,
      "normalized": false,
      "special": true
    },
    {
      "id": 217,
      "content": "<0xD0>",
      "single_word": false,
      "lstrip": false,
      "rstrip": false,
      "normalized": false,
      "special": true
    },
    {
      "id": 218,
      "content": "<0xD1>",
      "single_word": false,
      "lstrip": false,
      "rstrip": false,
      "normalized": false,
      "special": true
    },
    {
      "id": 219,
      "content": "<0xD2>",
      "single_word": false,
      "lstrip": false,
      "rstrip": false,
      "normalized": false,
      "special": true
    },
    {
      "id": 220,
      "content": "<0xD3>",
      "single_word": false,
      "lstrip": false,
      "rstrip": false,
      "normalized": false,
      "special": true
    },
    {
      "id": 221,
      "content": "<0xD4>",
      "single_word": false,
      "lstrip": false,
      "rstrip": false,
      "normalized": false,
      "special": true
    },
    {
      "id": 222,
      "content": "<0xD5>",
      "single_word": false,
      "lstrip": false,
      "rstrip": false,
      "normalized": false,
      "special": true
    },
    {
      "id": 223,
      "content": "<0xD6>",
      "single_word": false,
      "lstrip": false,
      "rstrip": false,
      "normalized": false,
      "special": true
    },
    {
      "id": 224,
      "content": "<0xD7>",
      "single_word": false,
      "lstrip": false,
      "rstrip": false,
      "normalized": false,
      "special": true
    },
    {
      "id": 225,
      "content": "<0xD8>",
      "single_word": false,
      "lstrip": false,
      "rstrip": false,
      "normalized": false,
      "special": true
    },
    {
      "id": 226,
      "content": "<0xD9>",
      "single_word": false,
      "lstrip": false,
      "rstrip": false,
      "normalized": false,
      "special": true
    },
    {
      "id": 227,
      "content": "<0xDA>",
      "single_word": false,
      "lstrip": false,
      "rstrip": false,
      "normalized": false,
      "special": true
    },
    {
      "id": 228,
      "content": "<0xDB>",
      "single_word": false,
      "lstrip": false,
      "rstrip": false,
      "normalized": false,
      "special": true
    },
    {
      "id": 229,
      "content": "<0xDC>",
      "single_word": false,
      "lstrip": false,
      "rstrip": false,
      "normalized": false,
      "special": true
    },
    {
      "id": 230,
      "content": "<0xDD>",
      "single_word": false,
      "lstrip": false,
      "rstrip": false,
      "normalized": false,
      "special": true
    },
    {
      "id": 231,
      "content": "<0xDE>",
      "single_word": false,
      "lstrip": false,
      "rstrip": false,
      "normalized": false,
      "special": true
    },
    {
      "id": 232,
      "content": "<0xDF>",
      "single_word": false,
      "lstrip": false,
      "rstrip": false,
      "normalized": false,
      "special": true
    },
    {
      "id": 233,
      "content": "<0xE0>",
      "single_word": false,
      "lstrip": false,
      "rstrip": false,
      "normalized": false,
      "special": true
    },
    {
      "id": 234,
      "content": "<0xE1>",
      "single_word": false,
      "lstrip": false,
      "rstrip": false,
      "normalized": false,
      "special": true
    },
    {
      "id": 235,
      "content": "<0xE2>",
      "single_word": false,
      "lstrip": false,
      "rstrip": false,
      "normalized": false,
      "special": true
    },
    {
      "id": 236,
      "content": "<0xE3>",
      "single_word": false,
      "lstrip": false,
      "rstrip": false,
      "normalized": false,
      "special": true
    },
    {
      "id": 237,
      "content": "<0xE4>",
      "single_word": false,
      "lstrip": false,
      "rstrip": false,
      "normalized": false,
      "special": true
    },
    {
      "id": 238,
      "content": "<0xE5>",
      "single_word": false,
      "lstrip": false,
      "rstrip": false,
      "normalized": false,
      "special": true
    },
    {
      "id": 239,
      "content": "<0xE6>",
      "single_word": false,
      "lstrip": false,
      "rstrip": false,
      "normalized": false,
      "special": true
    },
    {
      "id": 240,
      "content": "<0xE7>",
      "single_word": false,
      "lstrip": false,
      "rstrip": false,
      "normalized": false,
      "special": true
    },
    {
      "id": 241,
      "content": "<0xE8>",
      "single_word": false,
      "lstrip": false,
      "rstrip": false,
      "normalized": false,
      "special": true
    },
    {
      "id": 242,
      "content": "<0xE9>",
      "single_word": false,
      "lstrip": false,
      "rstrip": false,
      "normalized": false,
      "special": true
    },
    {
      "id": 243,
      "content": "<0xEA>",
      "single_word": false,
      "lstrip": false,
      "rstrip": false,
      "normalized": false,
      "special": true
    },
    {
      "id": 244,
      "content": "<0xEB>",
      "single_word": false,
      "lstrip": false,
      "rstrip": false,
      "normalized": false,
      "special": true
    },
    {
      "id": 245,
      "content": "<0xEC>",
      "single_word": false,
      "lstrip": false,
      "rstrip": false,
      "normalized": false,
      "special": true
    },
    {
      "id": 246,
      "content": "<0xED>",
      "single_word": false,
      "lstrip": false,
      "rstrip": false,
      "normalized": false,
      "special": true
    },
    {
      "id": 247,
      "content": "<0xEE>",
      "single_word": false,
      "lstrip": false,
      "rstrip": false,
      "normalized": false,
      "special": true
    },
    {
      "id": 248,
      "content": "<0xEF>",
      "single_word": false,
      "lstrip": false,
      "rstrip": false,
      "normalized": false,
      "special": true
    },
    {
      "id": 249,
      "content": "<0xF0>",
      "single_word": false,
      "lstrip": false,
      "rstrip": false,
      "normalized": false,
      "special": true
    },
    {
      "id": 250,
      "content": "<0xF1>",
      "single_word": false,
      "lstrip": false,
      "rstrip": false,
      "normalized": false,
      "special": true
    },
    {
      "id": 251,
      "content": "<0xF2>",
      "single_word": false,
      "lstrip": false,
      "rstrip": false,
      "normalized": false,
      "special": true
    },
    {
      "id": 252,
      "content": "<0xF3>",
      "single_word": false,
      "lstrip": false,
      "rstrip": false,
      "normalized": false,
      "special": true
    },
    {
      "id": 253,
      "content": "<0xF4>",
      "single_word": false,
      "lstrip": false,
      "rstrip": false,
      "normalized": false,
      "special": true
    },
    {
      "id": 254,
      "content": "<0xF5>",
      "single_word": false,
      "lstrip": false,
      "rstrip": false,
      "normalized": false,
      "special": true
    },
    {
      "id": 255,
      "content": "<0xF6>",
      "single_word": false,
      "lstrip": false,
      "rstrip": false,
      "normalized": false,
      "special": true
    },
    {
      "id": 256,
      "content": "<0xF7>",
      "single_word": false,
      "lstrip": false,
      "rstrip": false,
      "normalized": false,
      "special": true
    },
    {
      "id": 257,
      "content": "<0xF8>",
      "single_word": false,
      "lstrip": false,
      "rstrip": false,
      "normalized": false,
      "special": true
    },
    {
      "id": 258,
      "content": "<0xF9>",
      "single_word": false,
      "lstrip": false,
      "rstrip": false,
      "normalized": false,
      "special": true
    },
    {
      "id": 259,
      "content": "<0xFA>",
      "single_word": false,
      "lstrip": false,
      "rstrip": false,
      "normalized": false,
      "special": true
    },
    {
      "id": 260,
      "content": "<0xFB>",
      "single_word": false,
      "lstrip": false,
      "rstrip": false,
      "normalized": false,
      "special": true
    },
    {
      "id": 261,
      "content": "<0xFC>",
      "single_word": false,
      "lstrip": false,
      "rstrip": false,
      "normalized": false,
      "special": true
    },
    {
      "id": 262,
      "content": "<0xFD>",
      "single_word": false,
      "lstrip": false,
      "rstrip": false,
      "normalized": false,
      "special": true
    },
    {
      "id": 263,
      "content": "<0xFE>",
      "single_word": false,
      "lstrip": false,
      "rstrip": false,
      "normalized": false,
      "special": true
    },
    {
      "id": 264,
      "content": "<0xFF>",
      "single_word": false,
      "lstrip": false,
      "rstrip": false,
      "normalized": false,
      "special": true
    }
  ],
  "normalizer": {
    "type": "NFKC"
  },
  "pre_tokenizer": null,
  "post_processor": null,
  "decoder": {
    "type": "Sequence",
    "decoders": [
      {
        "type": "ByteFallback"
      },
      {
        "type": "BPEDecoder",
        "suffix": "</w>"
      }
    ]
  },
  "model": {
    "type": "BPE",
    "dropout": null,
    "unk_token": "<unk>",
    "continuing_subword_prefix": null,
    "end_of_word_suffix": "</w>",
    "fuse_unk": false,
    "byte_fallback": true,
    "ignore_merges": false,
    "vocab": {
      "<unk>": 0,
      "<s>": 1,
      "</s>": 2,
      "<pad>": 3,
      "<mask>": 4,
      "<|fim_prefix|>": 5,
      "<|fim_middle|>": 6,
      "<|fim_sufix|>": 7,
      "<|file_separator|>": 8,
      "<0x00>": 9,
      "<0x01>": 10,
      "<0x02>": 11,
      "<0x03>": 12,
      "<0x04>": 13,
      "<0x05>": 14,
      "<0x06>": 15,
      "<0x07>": 16,
      "<0x08>": 17,
      "<0x09>": 18,
      "<0x0A>": 19,
      "<0x0B>": 20,
      "<0x0C>": 21,
      "<0x0D>": 22,
      "<0x0E>": 23,
      "<0x0F>": 24,
      "<0x10>": 25,
      "<0x11>": 26,
      "<0x12>": 27,
      "<0x13>": 28,
      "<0x14>": 29,
      "<0x15>": 30,
      "<0x16>": 31,
      "<0x17>": 32,
      "<0x18>": 33,
      "<0x19>": 34,
      "<0x1A>": 35,
      "<0x1B>": 36,
      "<0x1C>": 37,
      "<0x1D>": 38,
      "<0x1E>": 39,
      "<0x1F>": 40,
      "<0x20>": 41,
      "<0x21>": 42,
      "<0x22>": 43,
      "<0x23>": 44,
      "<0x24>": 45,
      "<0x25>": 46,
      "<0x26>": 47,
      "<0x27>": 48,
      "<0x28>": 49,
      "<0x29>": 50,
      "<0x2A>": 51,
      "<0x2B>": 52,
      "<0x2C>": 53,
      "<0x2D>": 54,
      "<0x2E>": 55,
      "<0x2F>": 56,
      "<0x30>": 57,
      "<0x31>": 58,
      "<0x32>": 59,
      "<0x33>": 60,
      "<0x34>": 61,
      "<0x35>": 62,
      "<0x36>": 63,
      "<0x37>": 64,
      "<0x38>": 65,
      "<0x39>": 66,
      "<0x3A>": 67,
      "<0x3B>": 68,
      "<0x3C>": 69,
      "<0x3D>": 70,
      "<0x3E>": 71,
      "<0x3F>": 72,
      "<0x40>": 73,
      "<0x41>": 74,
      "<0x42>": 75,
      "<0x43>": 76,
      "<0x44>": 77,
      "<0x45>": 78,
      "<0x46>": 79,
      "<0x47>": 80,
      "<0x48>": 81,
      "<0x49>": 82,
      "<0x4A>": 83,
      "<0x4B>": 84,
      "<0x4C>": 85,
      "<0x4D>": 86,
      "<0x4E>": 87,
      "<0x4F>": 88,
      "<0x50>": 89,
      "<0x51>": 90,
      "<0x52>": 91,
      "<0x53>": 92,
      "<0x54>": 93,
      "<0x55>": 94,
      "<0x56>": 95,
      "<0x57>": 96,
      "<0x58>": 97,
      "<0x59>": 98,
      "<0x5A>": 99,
      "<0x5B>": 100,
      "<0x5C>": 101,
      "<0x5D>": 102,
      "<0x5E>": 103,
      "<0x5F>": 104,
      "<0x60>": 105,
      "<0x61>": 106,
      "<0x62>": 107,
      "<0x63>": 108,
      "<0x64>": 109,
      "<0x65>": 110,
      "<0x66>": 111,
      "<0x67>": 112,
      "<0x68>": 113,
      "<0x69>": 114,
      "<0x6A>": 115,
      "<0x6B>": 116,
      "<0x6C>": 117,
      "<0x6D>": 118,
      "<0x6E>": 119,
      "<0x6F>": 120,
      "<0x70>": 121,
      "<0x71>": 122,
      "<0x72>": 123,
      "<0x73>": 124,
      "<0x74>": 125,
      "<0x75>": 126,
      "<0x76>": 127,
      "<0x77>": 128,
      "<0x78>": 129,
      "<0x79>": 130,
      "<0x7A>": 131,
      "<0x7B>": 132,
      "<0x7C>": 133,
      "<0x7D>": 134,
      "<0x7E>": 135,
      "<0x7F>": 136,
      "<0x80>": 137,
      "<0x81>": 138,
      "<0x82>": 139,
      "<0x83>": 140,
      "<0x84>": 141,
      "<0x85>": 142,
      "<0x86>": 143,
      "<0x87>": 144,
      "<0x88>": 145,
      "<0x89>": 146,
      "<0x8A>": 147,
      "<0x8B>": 148,
      "<0x8C>": 149,
      "<0x8D>": 150,
      "<0x8E>": 151,
      "<0x8F>": 152,
      "<0x90>": 153,
      "<0x91>": 154,
      "<0x92>": 155,
      "<0x93>": 156,
      "<0x94>": 157,
      "<0x95>": 158,
      "<0x96>": 159,
      "<0x97>": 160,
      "<0x98>": 161,
      "<0x99>": 162,
      "<0x9A>": 163,
      "<0x9B>": 164,
      "<0x9C>": 165,
      "<0x9D>": 166,
      "<0x9E>": 167,
      "<0x9F>": 168,
      "<0xA0>": 169,
      "<0xA1>": 170,
      "<0xA2>": 171,
      "<0xA3>": 172,
      "<0xA4>": 173,
      "<0xA5>": 174,
      "<0xA6>": 175,
      "<0xA7>": 176,
      "<0xA8>": 177,
      "<0xA9>": 178,
      "<0xAA>": 179,
      "<0xAB>": 180,
      "<0xAC>": 181,
      "<0xAD>": 182,
      "<0xAE>": 183,
      "<0xAF>": 184,
      "<0xB0>": 185,
      "<0xB1>": 186,
      "<0xB2>": 187,
      "<0xB3>": 188,
      "<0xB4>": 189,
      "<0xB5>": 190,
      "<0xB6>": 191,
      "<0xB7>": 192,
      "<0xB8>": 193,
      "<0xB9>": 194,
      "<0xBA>": 195,
      "<0xBB>": 196,
      "<0xBC>": 197,
      "<0xBD>": 198,
      "<0xBE>": 199,
      "<0xBF>": 200,
      "<0xC0>": 201,
      "<0xC1>": 202,
      "<0xC2>": 203,
      "<0xC3>": 204,
      "<0xC4>": 205,
      "<0xC5>": 206,
      "<0xC6>": 207,
      "<0xC7>": 208,
      "<0xC8>": 209,
      "<0xC9>": 210,
      "<0xCA>": 211,
      "<0xCB>": 212,
      "<0xCC>": 213,
      "<0xCD>": 214,
      "<0xCE>": 215,
      "<0xCF>": 216,
      "<0xD0>": 217,
      "<0xD1>": 218,
      "<0xD2>": 219,
      "<0xD3>": 220,
      "<0xD4>": 221,
      "<0xD5>": 222,
      "<0xD6>": 223,
      "<0xD7>": 224,
      "<0xD8>": 225,
      "<0xD9>": 226,
      "<0xDA>": 227,
      "<0xDB>": 228,
      "<0xDC>": 229,
      "<0xDD>": 230,
      "<0xDE>": 231,
      "<0xDF>": 232,
      "<0xE0>": 233,
      "<0xE1>": 234,
      "<0xE2>": 235,
      "<0xE3>": 236,
      "<0xE4>": 237,
      "<0xE5>": 238,
      "<0xE6>": 239,
      "<0xE7>": 240,
      "<0xE8>": 241,
      "<0xE9>": 242,
      "<0xEA>": 243,
      "<0xEB>": 244,
      "<0xEC>": 245,
      "<0xED>": 246,
      "<0xEE>": 247,
      "<0xEF>": 248,
      "<0xF0>": 249,
      "<0xF1>": 250,
      "<0xF2>": 251,
      "<0xF3>": 252,
      "<0xF4>": 253,
      "<0xF5>": 254,
      "<0xF6>": 255,
      "<0xF7>": 256,
      "<0xF8>": 257,
      "<0xF9>": 258,
      "<0xFA>": 259,
      "<0xFB>": 260,
      "<0xFC>": 261,
      "<0xFD>": 262,
      "<0xFE>": 263,
      "<0xFF>": 264,
      "\t": 265,
      "\n": 266,
      "\r": 267,
      " ": 268,
      "!": 269,
      "\"": 270,
      "#": 271,
      "$": 272,
      "%": 273,
      "&": 274,
      "'": 275,
      "(": 276,
      ")": 277,
      "*": 278,
      "+": 279,
      ",": 280,
      "-": 281,
      ".": 282,
      "/": 283,
      "0": 284,
      "1": 285,
      "2": 286,
      "3": 287,
      "4": 288,
      "5": 289,
      "6": 290,
      "7": 291,
      "8": 292,
      "9": 293,
      ":": 294,
      ";": 295,
      "<": 296,
      "=": 297,
      ">": 298,
      "?": 299,
      "@": 300,
      "A": 301,
      "B": 302,
      "C": 303,
      "D": 304,
      "E": 305,
      "F": 306,
      "G": 307,
      "H": 308,
      "I": 309,
      "J": 310,
      "K": 311,
      "L": 312,
      "M": 313,
      "N": 314,
      "O": 315,
      "P": 316,
      "Q": 317,
      "R": 318,
      "S": 319,
      "T": 320,
      "U": 321,
      "V": 322,
      "W": 323,
      "X": 324,
      "Y": 325,
      "Z": 326,
      "[": 327,
      "\\": 328,
      "]": 329,
      "^": 330,
      "_": 331,
      "`": 332,
      "a": 333,
      "b": 334,
      "c": 335,
      "d": 336,
      "e": 337,
      "f": 338,
      "g": 339,
      "h": 340,
      "i": 341,
      "j": 342,
      "k": 343,
      "l": 344,
      "m": 345,
      "n": 346,
      "o": 347,
      "p": 348,
      "q": 349,
      "r": 350,
      "s": 351,
      "t": 352,
      "u": 353,
      "v": 354,
      "w": 355,
      "x": 356,
      "y": 357,
      "z": 358,
      "{": 359,
      "|": 360,
      "}": 361,
      "~": 362,
      "¡": 363,
      "¢": 364,
      "£": 365,
      "¤": 366,
      "¥": 367,
      "¦": 368,
      "§": 369,
      "©": 370,
      "«": 371,
      "¬": 372,
      "­": 373,
      "®": 374,
      "°": 375,
      "±": 376,
      "¶": 377,
      "·": 378,
      "»": 379,
      "¿": 380,
      "À": 381,
      "Á": 382,
      "Â": 383,
      "Ã": 384,
      "Ä": 385,
      "Å": 386,
      "Æ": 387,
      "Ç": 388,
      "È": 389,
      "É": 390,
      "Ê": 391,
      "Ë": 392,
      "Ì": 393,
      "Í": 394,
      "Î": 395,
      "Ï": 396,
      "Ð": 397,
      "Ñ": 398,
      "Ò": 399,
      "Ó": 400,
      "Ô": 401,
      "Õ": 402,
      "Ö": 403,
      "×": 404,
      "Ø": 405,
      "Ù": 406,
      "Ú": 407,
      "Û": 408,
      "Ü": 409,
      "Ý": 410,
      "Þ": 411,
      "ß": 412,
      "à": 413,
      "á": 414,
      "â": 415,
      "ã": 416,
      "ä": 417,
      "å": 418,
      "æ": 419,
      "ç": 420,
      "è": 421,
      "é": 422,
      "ê": 423,
      "ë": 424,
      "ì": 425,
      "í": 426,
      "î": 427,
      "ï": 428,
      "ð": 429,
      "ñ": 430,
      "ò": 431,
      "ó": 432,
      "ô": 433,
      "õ": 434,
      "ö": 435,
      "÷": 436,
      "ø": 437,
      "ù": 438,
      "ú": 439,
      "û": 440,
      "ü": 441,
      "ý": 442,
      "þ": 443,
      "ÿ": 444,
      "Ā": 445,
      "ā": 446,
      "Ă": 447,
      "ă": 448,
      "ą": 449,
      "Ć": 450,
      "ć": 451,
      "Č": 452,
      "č": 453,
      "Ď": 454,
      "ď": 455,
      "Đ": 456,
      "đ": 457,
      "Ē": 458,
      "ē": 459,
      "ĕ": 460,
      "Ė": 461,
      "ė": 462,
      "ę": 463,
      "Ě": 464,
      "ě": 465,
      "Ğ": 466,
      "ğ": 467,
      "ħ": 468,
      "Ī": 469,
      "ī": 470,
      "ĭ": 471,
      "İ": 472,
      "ı": 473,
      "ķ": 474,
      "ľ": 475,
      "Ł": 476,
      "ł": 477,
      "ń": 478,
      "ņ": 479,
      "ň": 480,
      "ŋ": 481,
      "Ō": 482,
      "ō": 483,
      "ŏ": 484,
      "ő": 485,
      "Œ": 486,
      "œ": 487,
      "ř": 488,
      "Ś": 489,
      "ś": 490,
      "Ş": 491,
      "ş": 492,
      "Š": 493,
      "š": 494,
      "ţ": 495,
      "ť": 496,
      "ũ": 497,
      "Ū": 498,
      "ū": 499,
      "ŭ": 500,
      "ů": 501,
      "ű": 502,
      "ų": 503,
      "Ÿ": 504,
      "ź": 505,
      "Ż": 506,
      "ż": 507,
      "Ž": 508,
      "ž": 509,
      "ƒ": 510,
      "ơ": 511,
      "Ư": 512,
      "ư": 513,
      "ǎ": 514,
      "ǐ": 515,
      "ǒ": 516,
      "ǔ": 517,
      "ș": 518,
      "ț": 519,
      "ɐ": 520,
      "ɑ": 521,
      "ɒ": 522,
      "ɔ": 523,
      "ə": 524,
      "ɛ": 525,
      "ɡ": 526,
      "ɪ": 527,
      "ʁ": 528,
      "ʃ": 529,
      "ʊ": 530,
      "ʏ": 531,
      "ʒ": 532,
      "ʕ": 533,
      "ʹ": 534,
      "ʺ": 535,
      "ʻ": 536,
      "ʼ": 537,
      "ʾ": 538,
      "ʿ": 539,
      "ˆ": 540,
      "ˇ": 541,
      "ˈ": 542,
      "ˌ": 543,
      "ː": 544,
      "̀": 545,
      "́": 546,
      "̃": 547,
      "̄": 548,
      "̅": 549,
      "̆": 550,
      "̇": 551,
      "̈": 552,
      "̊": 553,
      "̋": 554,
      "̧": 555,
      "̲": 556,
      "̶": 557,
      "͠": 558,
      "Α": 559,
      "Β": 560,
      "Γ": 561,
      "Δ": 562,
      "Ε": 563,
      "Η": 564,
      "Θ": 565,
      "Ι": 566,
      "Κ": 567,
      "Λ": 568,
      "Μ": 569,
      "Ν": 570,
      "Ο": 571,
      "Π": 572,
      "Ρ": 573,
      "Σ": 574,
      "Τ": 575,
      "Υ": 576,
      "Φ": 577,
      "Χ": 578,
      "Ω": 579,
      "ά": 580,
      "έ": 581,
      "ή": 582,
      "ί": 583,
      "α": 584,
      "β": 585,
      "γ": 586,
      "δ": 587,
      "ε": 588,
      "ζ": 589,
      "η": 590,
      "θ": 591,
      "ι": 592,
      "κ": 593,
      "λ": 594,
      "μ": 595,
      "ν": 596,
      "ξ": 597,
      "ο": 598,
      "π": 599,
      "ρ": 600,
      "ς": 601,
      "σ": 602,
      "τ": 603,
      "υ": 604,
      "φ": 605,
      "χ": 606,
      "ψ": 607,
      "ω": 608,
      "ό": 609,
      "ύ": 610,
      "ώ": 611,
      "Ђ": 612,
      "Ѓ": 613,
      "Ѕ": 614,
      "І": 615,
      "Ј": 616,
      "А": 617,
      "Б": 618,
      "В": 619,
      "Г": 620,
      "Д": 621,
      "Е": 622,
      "Ж": 623,
      "З": 624,
      "И": 625,
      "Й": 626,
      "К": 627,
      "Л": 628,
      "М": 629,
      "Н": 630,
      "О": 631,
      "П": 632,
      "Р": 633,
      "С": 634,
      "Т": 635,
      "У": 636,
      "Ф": 637,
      "Х": 638,
      "Ц": 639,
      "Ч": 640,
      "Ш": 641,
      "Щ": 642,
      "Ы": 643,
      "Ь": 644,
      "Э": 645,
      "Ю": 646,
      "Я": 647,
      "а": 648,
      "б": 649,
      "в": 650,
      "г": 651,
      "д": 652,
      "е": 653,
      "ж": 654,
      "з": 655,
      "и": 656,
      "й": 657,
      "к": 658,
      "л": 659,
      "м": 660,
      "н": 661,
      "о": 662,
      "п": 663,
      "р": 664,
      "с": 665,
      "т": 666,
      "у": 667,
      "ф": 668,
      "х": 669,
      "ц": 670,
      "ч": 671,
      "ш": 672,
      "щ": 673,
      "ъ": 674,
      "ы": 675,
      "ь": 676,
      "э": 677,
      "ю": 678,
      "я": 679,
      "ё": 680,
      "ѓ": 681,
      "є": 682,
      "ѕ": 683,
      "і": 684,
      "ї": 685,
      "ј": 686,
      "њ": 687,
      "ќ": 688,
      "ү": 689,
      "һ": 690,
      "ԁ": 691,
      "ա": 692,
      "ե": 693,
      "ն": 694,
      "ս": 695,
      "օ": 696,
      "ְ": 697,
      "ֲ": 698,
      "ִ": 699,
      "ֵ": 700,
      "ֶ": 701,
      "ַ": 702,
      "ָ": 703,
      "ֹ": 704,
      "ּ": 705,
      "ֽ": 706,
      "־": 707,
      "ׁ": 708,
      "ׂ": 709,
      "א": 710,
      "ב": 711,
      "ג": 712,
      "ד": 713,
      "ה": 714,
      "ו": 715,
      "ז": 716,
      "ח": 717,
      "ט": 718,
      "י": 719,
      "ך": 720,
      "כ": 721,
      "ל": 722,
      "ם": 723,
      "מ": 724,
      "ן": 725,
      "נ": 726,
      "ס": 727,
      "ע": 728,
      "ף": 729,
      "פ": 730,
      "צ": 731,
      "ק": 732,
      "ר": 733,
      "ש": 734,
      "ת": 735,
      "،": 736,
      "ء": 737,
      "آ": 738,
      "أ": 739,
      "ؤ": 740,
      "إ": 741,
      "ئ": 742,
      "ا": 743,
      "ب": 744,
      "ة": 745,
      "ت": 746,
      "ث": 747,
      "ج": 748,
      "ح": 749,
      "خ": 750,
      "د": 751,
      "ذ": 752,
      "ر": 753,
      "ز": 754,
      "س": 755,
      "ش": 756,
      "ص": 757,
      "ض": 758,
      "ط": 759,
      "ظ": 760,
      "ع": 761,
      "غ": 762,
      "ـ": 763,
      "ف": 764,
      "ق": 765,
      "ك": 766,
      "ل": 767,
      "م": 768,
      "ن": 769,
      "ه": 770,
      "و": 771,
      "ى": 772,
      "ي": 773,
      "ً": 774,
      "ٌ": 775,
      "ٍ": 776,
      "َ": 777,
      "ُ": 778,
      "ِ": 779,
      "ّ": 780,
      "ْ": 781,
      "ٰ": 782,
      "ٹ": 783,
      "پ": 784,
      "چ": 785,
      "ک": 786,
      "گ": 787,
      "ں": 788,
      "ھ": 789,
      "ہ": 790,
      "ی": 791,
      "ے": 792,
      "ߋ": 793,
      "ं": 794,
      "ः": 795,
      "अ": 796,
      "आ": 797,
      "इ": 798,
      "ई": 799,
      "उ": 800,
      "ए": 801,
      "औ": 802,
      "क": 803,
      "ख": 804,
      "ग": 805,
      "च": 806,
      "छ": 807,
      "ज": 808,
      "ट": 809,
      "ठ": 810,
      "ड": 811,
      "ण": 812,
      "त": 813,
      "थ": 814,
      "द": 815,
      "ध": 816,
      "न": 817,
      "प": 818,
      "फ": 819,
      "ब": 820,
      "भ": 821,
      "म": 822,
      "य": 823,
      "र": 824,
      "ल": 825,
      "व": 826,
      "श": 827,
      "ष": 828,
      "स": 829,
      "ह": 830,
      "़": 831,
      "ा": 832,
      "ि": 833,
      "ी": 834,
      "ु": 835,
      "ू": 836,
      "ृ": 837,
      "े": 838,
      "ै": 839,
      "ो": 840,
      "ौ": 841,
      "्": 842,
      "।": 843,
      "॥": 844,
      "আ": 845,
      "ই": 846,
      "ক": 847,
      "গ": 848,
      "ছ": 849,
      "জ": 850,
      "ত": 851,
      "দ": 852,
      "ন": 853,
      "প": 854,
      "ব": 855,
      "ম": 856,
      "য": 857,
      "র": 858,
      "ল": 859,
      "শ": 860,
      "স": 861,
      "হ": 862,
      "়": 863,
      "া": 864,
      "ি": 865,
      "ু": 866,
      "ে": 867,
      "ো": 868,
      "্": 869,
      "ਆ": 870,
      "ਕ": 871,
      "ਖ": 872,
      "ਜ": 873,
      "ਤ": 874,
      "ਨ": 875,
      "ਪ": 876,
      "ਮ": 877,
      "ਰ": 878,
      "ਲ": 879,
      "ਵ": 880,
      "ਸ": 881,
      "ਹ": 882,
      "ਾ": 883,
      "ਿ": 884,
      "ੀ": 885,
      "ੁ": 886,
      "ੇ": 887,
      "ੰ": 888,
      "ક": 889,
      "ન": 890,
      "ફ": 891,
      "મ": 892,
      "ર": 893,
      "લ": 894,
      "વ": 895,
      "ા": 896,
      "િ": 897,
      "ી": 898,
      "ુ": 899,
      "ે": 900,
      "ો": 901,
      "્": 902,
      "କ": 903,
      "ପ": 904,
      "ବ": 905,
      "ର": 906,
      "ା": 907,
      "ି": 908,
      "େ": 909,
      "୍": 910,
      "க": 911,
      "ச": 912,
      "ட": 913,
      "த": 914,
      "ன": 915,
      "ப": 916,
      "ம": 917,
      "ர": 918,
      "ல": 919,
      "ா": 920,
      "ி": 921,
      "ு": 922,
      "ை": 923,
      "்": 924,
      "ం": 925,
      "అ": 926,
      "ఇ": 927,
      "క": 928,
      "గ": 929,
      "చ": 930,
      "జ": 931,
      "ట": 932,
      "డ": 933,
      "ణ": 934,
      "త": 935,
      "ద": 936,
      "న": 937,
      "ప": 938,
      "బ": 939,
      "మ": 940,
      "య": 941,
      "ర": 942,
      "ల": 943,
      "వ": 944,
      "ష": 945,
      "స": 946,
      "హ": 947,
      "ా": 948,
      "ి": 949,
      "ీ": 950,
      "ు": 951,
      "ూ": 952,
      "ె": 953,
      "ే": 954,
      "ో": 955,
      "్": 956,
      "ಾ": 957,
      "ಿ": 958,
      "್": 959,
      "ം": 960,
      "ക": 961,
      "ട": 962,
      "ത": 963,
      "ന": 964,
      "പ": 965,
      "മ": 966,
      "യ": 967,
      "ര": 968,
      "റ": 969,
      "ല": 970,
      "ള": 971,
      "വ": 972,
      "സ": 973,
      "ാ": 974,
      "ി": 975,
      "ു": 976,
      "െ": 977,
      "്": 978,
      "ක": 979,
      "ය": 980,
      "ස": 981,
      "්": 982,
      "ි": 983,
      "ก": 984,
      "ข": 985,
      "ค": 986,
      "ง": 987,
      "จ": 988,
      "ช": 989,
      "ด": 990,
      "ต": 991,
      "ถ": 992,
      "ท": 993,
      "น": 994,
      "บ": 995,
      "ป": 996,
      "ผ": 997,
      "พ": 998,
      "ฟ": 999,
      "ภ": 1000,
      "ม": 1001,
      "ย": 1002,
      "ร": 1003,
      "ล": 1004,
      "ว": 1005,
      "ษ": 1006,
      "ส": 1007,
      "ห": 1008,
      "อ": 1009,
      "ะ": 1010,
      "ั": 1011,
      "า": 1012,
      "ิ": 1013,
      "ี": 1014,
      "ื": 1015,
      "ุ": 1016,
      "ู": 1017,
      "เ": 1018,
      "แ": 1019,
      "โ": 1020,
      "ใ": 1021,
      "ไ": 1022,
      "็": 1023,
      "่": 1024,
      "้": 1025,
      "์": 1026,
      "ํ": 1027,
      "་": 1028,
      "က": 1029,
      "င": 1030,
      "တ": 1031,
      "န": 1032,
      "ပ": 1033,
      "မ": 1034,
      "သ": 1035,
      "ာ": 1036,
      "ိ": 1037,
      "ု": 1038,
      "ေ": 1039,
      "း": 1040,
      "္": 1041,
      "်": 1042,
      "ျ": 1043,
      "ა": 1044,
      "ბ": 1045,
      "გ": 1046,
      "დ": 1047,
      "ე": 1048,
      "ვ": 1049,
      "თ": 1050,
      "ი": 1051,
      "ლ": 1052,
      "მ": 1053,
      "ნ": 1054,
      "ო": 1055,
      "რ": 1056,
      "ს": 1057,
      "ᄏ": 1058,
      "ᅲ": 1059,
      "Ꭰ": 1060,
      "Ꭲ": 1061,
      "Ꭴ": 1062,
      "Ꭹ": 1063,
      "Ꮎ": 1064,
      "Ꮒ": 1065,
      "Ꮝ": 1066,
      "Ꮣ": 1067,
      "Ꮧ": 1068,
      "ᐈ": 1069,
      "᧐": 1070,
      "ḍ": 1071,
      "Ḥ": 1072,
      "ḥ": 1073,
      "ḳ": 1074,
      "ṁ": 1075,
      "ṃ": 1076,
      "ṅ": 1077,
      "ṇ": 1078,
      "ṛ": 1079,
      "Ṣ": 1080,
      "ṣ": 1081,
      "Ṭ": 1082,
      "ṭ": 1083,
      "ẓ": 1084,
      "ạ": 1085,
      "ả": 1086,
      "ấ": 1087,
      "ầ": 1088,
      "ậ": 1089,
      "ắ": 1090,
      "ặ": 1091,
      "ẹ": 1092,
      "ế": 1093,
      "ề": 1094,
      "ể": 1095,
      "ễ": 1096,
      "ệ": 1097,
      "ị": 1098,
      "ọ": 1099,
      "ố": 1100,
      "ồ": 1101,
      "ổ": 1102,
      "ộ": 1103,
      "ớ": 1104,
      "ờ": 1105,
      "ở": 1106,
      "ợ": 1107,
      "ụ": 1108,
      "ủ": 1109,
      "ứ": 1110,
      "ừ": 1111,
      "ử": 1112,
      "ữ": 1113,
      "ự": 1114,
      "ἀ": 1115,
      "ἄ": 1116,
      "ἐ": 1117,
      "ἔ": 1118,
      "ἡ": 1119,
      "ἰ": 1120,
      "ἱ": 1121,
      "ὁ": 1122,
      "ὐ": 1123,
      "ὑ": 1124,
      "ὰ": 1125,
      "ὲ": 1126,
      "ὴ": 1127,
      "ὶ": 1128,
      "ὸ": 1129,
      "ῆ": 1130,
      "ῖ": 1131,
      "ῦ": 1132,
      "ῶ": 1133,
      "ῷ": 1134,
      "‐": 1135,
      "‒": 1136,
      "–": 1137,
      "—": 1138,
      "―": 1139,
      "‖": 1140,
      "‘": 1141,
      "’": 1142,
      "‚": 1143,
      "“": 1144,
      "”": 1145,
      "„": 1146,
      "‟": 1147,
      "†": 1148,
      "‡": 1149,
      "•": 1150,
      "‣": 1151,
      "‧": 1152,
      "‰": 1153,
      "′": 1154,
      "‹": 1155,
      "›": 1156,
      "※": 1157,
      "⁄": 1158,
      "₤": 1159,
      "₦": 1160,
      "₪": 1161,
      "€": 1162,
      "₱": 1163,
      "₹": 1164,
      "⃣": 1165,
      "℥": 1166,
      "←": 1167,
      "↑": 1168,
      "→": 1169,
      "↓": 1170,
      "↔": 1171,
      "↩": 1172,
      "↵": 1173,
      "⇒": 1174,
      "⇓": 1175,
      "∂": 1176,
      "∆": 1177,
      "∈": 1178,
      "∑": 1179,
      "−": 1180,
      "∗": 1181,
      "∙": 1182,
      "√": 1183,
      "∞": 1184,
      "∠": 1185,
      "∣": 1186,
      "∨": 1187,
      "∶": 1188,
      "∼": 1189,
      "≈": 1190,
      "≠": 1191,
      "≡": 1192,
      "≤": 1193,
      "≥": 1194,
      "≦": 1195,
      "⋅": 1196,
      "⌘": 1197,
      "─": 1198,
      "│": 1199,
      "└": 1200,
      "├": 1201,
      "┬": 1202,
      "┼": 1203,
      "═": 1204,
      "║": 1205,
      "╬": 1206,
      "▀": 1207,
      "▃": 1208,
      "▄": 1209,
      "█": 1210,
      "░": 1211,
      "▒": 1212,
      "■": 1213,
      "□": 1214,
      "▪": 1215,
      "▫": 1216,
      "▬": 1217,
      "▲": 1218,
      "▶": 1219,
      "▸": 1220,
      "►": 1221,
      "▻": 1222,
      "▼": 1223,
      "▾": 1224,
      "◆": 1225,
      "◇": 1226,
      "◉": 1227,
      "◊": 1228,
      "○": 1229,
      "◎": 1230,
      "●": 1231,
      "◙": 1232,
      "◦": 1233,
      "◾": 1234,
      "☀": 1235,
      "★": 1236,
      "☆": 1237,
      "☎": 1238,
      "☐": 1239,
      "☑": 1240,
      "☞": 1241,
      "☴": 1242,
      "☺": 1243,
      "♀": 1244,
      "♂": 1245,
      "♠": 1246,
      "♡": 1247,
      "♣": 1248,
      "♥": 1249,
      "♦": 1250,
      "♪": 1251,
      "♫": 1252,
      "♬": 1253,
      "♭": 1254,
      "⚠": 1255,
      "⚡": 1256,
      "✅": 1257,
      "✈": 1258,
      "✌": 1259,
      "✍": 1260,
      "✏": 1261,
      "✓": 1262,
      "✔": 1263,
      "✖": 1264,
      "✘": 1265,
      "✤": 1266,
      "✦": 1267,
      "✨": 1268,
      "✪": 1269,
      "✭": 1270,
      "✮": 1271,
      "✰": 1272,
      "✿": 1273,
      "❄": 1274,
      "❌": 1275,
      "❗": 1276,
      "❤": 1277,
      "❶": 1278,
      "➜": 1279,
      "➡": 1280,
      "➢": 1281,
      "➤": 1282,
      "⠀": 1283,
      "⦁": 1284,
      "⭐": 1285,
      "ⲛ": 1286,
      "ⲟ": 1287,
      "、": 1288,
      "。": 1289,
      "《": 1290,
      "》": 1291,
      "「": 1292,
      "」": 1293,
      "『": 1294,
      "』": 1295,
      "【": 1296,
      "】": 1297,
      "〞": 1298,
      "あ": 1299,
      "い": 1300,
      "う": 1301,
      "え": 1302,
      "お": 1303,
      "か": 1304,
      "が": 1305,
      "き": 1306,
      "く": 1307,
      "け": 1308,
      "こ": 1309,
      "ご": 1310,
      "さ": 1311,
      "し": 1312,
      "じ": 1313,
      "す": 1314,
      "せ": 1315,
      "そ": 1316,
      "た": 1317,
      "だ": 1318,
      "ち": 1319,
      "っ": 1320,
      "つ": 1321,
      "て": 1322,
      "で": 1323,
      "と": 1324,
      "ど": 1325,
      "な": 1326,
      "に": 1327,
      "ね": 1328,
      "の": 1329,
      "は": 1330,
      "ば": 1331,
      "ひ": 1332,
      "び": 1333,
      "ぶ": 1334,
      "べ": 1335,
      "ま": 1336,
      "み": 1337,
      "め": 1338,
      "も": 1339,
      "ゃ": 1340,
      "や": 1341,
      "ょ": 1342,
      "よ": 1343,
      "ら": 1344,
      "り": 1345,
      "る": 1346,
      "れ": 1347,
      "ろ": 1348,
      "わ": 1349,
      "を": 1350,
      "ん": 1351,
      "ァ": 1352,
      "ア": 1353,
      "ィ": 1354,
      "イ": 1355,
      "ウ": 1356,
      "ェ": 1357,
      "エ": 1358,
      "ォ": 1359,
      "オ": 1360,
      "カ": 1361,
      "ガ": 1362,
      "キ": 1363,
      "ク": 1364,
      "グ": 1365,
      "ケ": 1366,
      "コ": 1367,
      "サ": 1368,
      "ザ": 1369,
      "シ": 1370,
      "ジ": 1371,
      "ス": 1372,
      "ズ": 1373,
      "セ": 1374,
      "タ": 1375,
      "ダ": 1376,
      "チ": 1377,
      "ッ": 1378,
      "ツ": 1379,
      "テ": 1380,
      "デ": 1381,
      "ト": 1382,
      "ド": 1383,
      "ナ": 1384,
      "ニ": 1385,
      "ネ": 1386,
      "ノ": 1387,
      "ハ": 1388,
      "バ": 1389,
      "パ": 1390,
      "ビ": 1391,
      "ピ": 1392,
      "フ": 1393,
      "ブ": 1394,
      "プ": 1395,
      "ペ": 1396,
      "ボ": 1397,
      "ポ": 1398,
      "マ": 1399,
      "ミ": 1400,
      "ム": 1401,
      "メ": 1402,
      "モ": 1403,
      "ャ": 1404,
      "ュ": 1405,
      "ョ": 1406,
      "ヨ": 1407,
      "ラ": 1408,
      "リ": 1409,
      "ル": 1410,
      "レ": 1411,
      "ロ": 1412,
      "ン": 1413,
      "・": 1414,
      "ー": 1415,
      "一": 1416,
      "万": 1417,
      "三": 1418,
      "上": 1419,
      "下": 1420,
      "不": 1421,
      "与": 1422,
      "且": 1423,
      "世": 1424,
      "业": 1425,
      "东": 1426,
      "两": 1427,
      "个": 1428,
      "中": 1429,
      "为": 1430,
      "主": 1431,
      "么": 1432,
      "义": 1433,
      "之": 1434,
      "乐": 1435,
      "也": 1436,
      "了": 1437,
      "事": 1438,
      "二": 1439,
      "于": 1440,
      "互": 1441,
      "五": 1442,
      "亚": 1443,
      "些": 1444,
      "交": 1445,
      "产": 1446,
      "享": 1447,
      "京": 1448,
      "人": 1449,
      "什": 1450,
      "今": 1451,
      "介": 1452,
      "从": 1453,
      "他": 1454,
      "代": 1455,
      "以": 1456,
      "们": 1457,
      "件": 1458,
      "任": 1459,
      "份": 1460,
      "企": 1461,
      "会": 1462,
      "传": 1463,
      "但": 1464,
      "位": 1465,
      "住": 1466,
      "体": 1467,
      "何": 1468,
      "作": 1469,
      "你": 1470,
      "使": 1471,
      "來": 1472,
      "例": 1473,
      "供": 1474,
      "便": 1475,
      "保": 1476,
      "信": 1477,
      "修": 1478,
      "個": 1479,
      "們": 1480,
      "候": 1481,
      "值": 1482,
      "做": 1483,
      "健": 1484,
      "像": 1485,
      "價": 1486,
      "元": 1487,
      "先": 1488,
      "光": 1489,
      "克": 1490,
      "免": 1491,
      "入": 1492,
      "全": 1493,
      "公": 1494,
      "兰": 1495,
      "共": 1496,
      "关": 1497,
      "其": 1498,
      "具": 1499,
      "典": 1500,
      "内": 1501,
      "円": 1502,
      "再": 1503,
      "写": 1504,
      "况": 1505,
      "准": 1506,
      "凤": 1507,
      "出": 1508,
      "函": 1509,
      "分": 1510,
      "切": 1511,
      "列": 1512,
      "则": 1513,
      "创": 1514,
      "初": 1515,
      "删": 1516,
      "判": 1517,
      "別": 1518,
      "利": 1519,
      "到": 1520,
      "制": 1521,
      "券": 1522,
      "前": 1523,
      "力": 1524,
      "功": 1525,
      "加": 1526,
      "务": 1527,
      "动": 1528,
      "助": 1529,
      "势": 1530,
      "動": 1531,
      "務": 1532,
      "募": 1533,
      "包": 1534,
      "化": 1535,
      "北": 1536,
      "区": 1537,
      "十": 1538,
      "千": 1539,
      "午": 1540,
      "华": 1541,
      "单": 1542,
      "南": 1543,
      "博": 1544,
      "即": 1545,
      "原": 1546,
      "去": 1547,
      "参": 1548,
      "及": 1549,
      "友": 1550,
      "反": 1551,
      "发": 1552,
      "取": 1553,
      "受": 1554,
      "变": 1555,
      "口": 1556,
      "古": 1557,
      "句": 1558,
      "只": 1559,
      "可": 1560,
      "台": 1561,
      "右": 1562,
      "号": 1563,
      "司": 1564,
      "各": 1565,
      "合": 1566,
      "同": 1567,
      "名": 1568,
      "后": 1569,
      "向": 1570,
      "否": 1571,
      "告": 1572,
      "员": 1573,
      "周": 1574,
      "味": 1575,
      "和": 1576,
      "品": 1577,
      "商": 1578,
      "問": 1579,
      "器": 1580,
      "四": 1581,
      "回": 1582,
      "因": 1583,
      "团": 1584,
      "围": 1585,
      "国": 1586,
      "图": 1587,
      "國": 1588,
      "土": 1589,
      "在": 1590,
      "地": 1591,
      "场": 1592,
      "坛": 1593,
      "型": 1594,
      "城": 1595,
      "域": 1596,
      "基": 1597,
      "報": 1598,
      "場": 1599,
      "境": 1600,
      "增": 1601,
      "士": 1602,
      "声": 1603,
      "处": 1604,
      "备": 1605,
      "変": 1606,
      "复": 1607,
      "外": 1608,
      "多": 1609,
      "夜": 1610,
      "大": 1611,
      "天": 1612,
      "太": 1613,
      "央": 1614,
      "失": 1615,
      "头": 1616,
      "奇": 1617,
      "女": 1618,
      "她": 1619,
      "好": 1620,
      "如": 1621,
      "始": 1622,
      "娱": 1623,
      "子": 1624,
      "字": 1625,
      "存": 1626,
      "学": 1627,
      "學": 1628,
      "它": 1629,
      "安": 1630,
      "完": 1631,
      "官": 1632,
      "定": 1633,
      "宝": 1634,
      "实": 1635,
      "客": 1636,
      "室": 1637,
      "家": 1638,
      "容": 1639,
      "實": 1640,
      "对": 1641,
      "导": 1642,
      "将": 1643,
      "對": 1644,
      "小": 1645,
      "少": 1646,
      "尔": 1647,
      "就": 1648,
      "尼": 1649,
      "局": 1650,
      "屋": 1651,
      "展": 1652,
      "属": 1653,
      "山": 1654,
      "島": 1655,
      "州": 1656,
      "工": 1657,
      "左": 1658,
      "差": 1659,
      "己": 1660,
      "已": 1661,
      "市": 1662,
      "布": 1663,
      "師": 1664,
      "常": 1665,
      "平": 1666,
      "年": 1667,
      "并": 1668,
      "序": 1669,
      "应": 1670,
      "店": 1671,
      "度": 1672,
      "康": 1673,
      "建": 1674,
      "开": 1675,
      "异": 1676,
      "式": 1677,
      "引": 1678,
      "強": 1679,
      "当": 1680,
      "形": 1681,
      "影": 1682,
      "很": 1683,
      "律": 1684,
      "後": 1685,
      "得": 1686,
      "微": 1687,
      "德": 1688,
      "心": 1689,
      "必": 1690,
      "志": 1691,
      "快": 1692,
      "思": 1693,
      "性": 1694,
      "总": 1695,
      "息": 1696,
      "您": 1697,
      "情": 1698,
      "想": 1699,
      "意": 1700,
      "愛": 1701,
      "感": 1702,
      "成": 1703,
      "我": 1704,
      "或": 1705,
      "戦": 1706,
      "户": 1707,
      "所": 1708,
      "手": 1709,
      "才": 1710,
      "打": 1711,
      "执": 1712,
      "批": 1713,
      "找": 1714,
      "技": 1715,
      "把": 1716,
      "投": 1717,
      "折": 1718,
      "报": 1719,
      "拉": 1720,
      "括": 1721,
      "持": 1722,
      "指": 1723,
      "换": 1724,
      "据": 1725,
      "授": 1726,
      "排": 1727,
      "探": 1728,
      "接": 1729,
      "控": 1730,
      "推": 1731,
      "描": 1732,
      "提": 1733,
      "播": 1734,
      "操": 1735,
      "支": 1736,
      "收": 1737,
      "改": 1738,
      "放": 1739,
      "政": 1740,
      "教": 1741,
      "数": 1742,
      "整": 1743,
      "文": 1744,
      "料": 1745,
      "断": 1746,
      "斯": 1747,
      "新": 1748,
      "方": 1749,
      "於": 1750,
      "旅": 1751,
      "族": 1752,
      "无": 1753,
      "日": 1754,
      "时": 1755,
      "明": 1756,
      "易": 1757,
      "星": 1758,
      "是": 1759,
      "時": 1760,
      "景": 1761,
      "更": 1762,
      "書": 1763,
      "最": 1764,
      "會": 1765,
      "月": 1766,
      "有": 1767,
      "服": 1768,
      "朝": 1769,
      "期": 1770,
      "木": 1771,
      "未": 1772,
      "本": 1773,
      "术": 1774,
      "机": 1775,
      "杂": 1776,
      "权": 1777,
      "李": 1778,
      "村": 1779,
      "来": 1780,
      "東": 1781,
      "松": 1782,
      "构": 1783,
      "析": 1784,
      "林": 1785,
      "果": 1786,
      "查": 1787,
      "标": 1788,
      "校": 1789,
      "样": 1790,
      "核": 1791,
      "根": 1792,
      "格": 1793,
      "案": 1794,
      "業": 1795,
      "模": 1796,
      "機": 1797,
      "次": 1798,
      "款": 1799,
      "歌": 1800,
      "正": 1801,
      "此": 1802,
      "步": 1803,
      "段": 1804,
      "每": 1805,
      "比": 1806,
      "毛": 1807,
      "民": 1808,
      "气": 1809,
      "水": 1810,
      "求": 1811,
      "江": 1812,
      "没": 1813,
      "河": 1814,
      "治": 1815,
      "法": 1816,
      "波": 1817,
      "注": 1818,
      "洲": 1819,
      "活": 1820,
      "流": 1821,
      "海": 1822,
      "消": 1823,
      "深": 1824,
      "清": 1825,
      "港": 1826,
      "源": 1827,
      "灣": 1828,
      "火": 1829,
      "点": 1830,
      "為": 1831,
      "無": 1832,
      "然": 1833,
      "照": 1834,
      "爱": 1835,
      "版": 1836,
      "牌": 1837,
      "物": 1838,
      "特": 1839,
      "状": 1840,
      "王": 1841,
      "玩": 1842,
      "环": 1843,
      "现": 1844,
      "球": 1845,
      "理": 1846,
      "生": 1847,
      "用": 1848,
      "田": 1849,
      "由": 1850,
      "申": 1851,
      "电": 1852,
      "画": 1853,
      "界": 1854,
      "留": 1855,
      "登": 1856,
      "白": 1857,
      "百": 1858,
      "的": 1859,
      "益": 1860,
      "目": 1861,
      "直": 1862,
      "相": 1863,
      "看": 1864,
      "真": 1865,
      "着": 1866,
      "知": 1867,
      "石": 1868,
      "码": 1869,
      "研": 1870,
      "确": 1871,
      "示": 1872,
      "社": 1873,
      "神": 1874,
      "福": 1875,
      "私": 1876,
      "种": 1877,
      "科": 1878,
      "移": 1879,
      "程": 1880,
      "種": 1881,
      "究": 1882,
      "空": 1883,
      "立": 1884,
      "站": 1885,
      "章": 1886,
      "符": 1887,
      "第": 1888,
      "等": 1889,
      "策": 1890,
      "简": 1891,
      "算": 1892,
      "管": 1893,
      "米": 1894,
      "类": 1895,
      "精": 1896,
      "系": 1897,
      "素": 1898,
      "經": 1899,
      "網": 1900,
      "線": 1901,
      "线": 1902,
      "组": 1903,
      "经": 1904,
      "结": 1905,
      "给": 1906,
      "统": 1907,
      "续": 1908,
      "网": 1909,
      "置": 1910,
      "美": 1911,
      "翻": 1912,
      "考": 1913,
      "者": 1914,
      "而": 1915,
      "联": 1916,
      "聖": 1917,
      "股": 1918,
      "育": 1919,
      "能": 1920,
      "自": 1921,
      "至": 1922,
      "與": 1923,
      "色": 1924,
      "节": 1925,
      "花": 1926,
      "英": 1927,
      "范": 1928,
      "获": 1929,
      "華": 1930,
      "菲": 1931,
      "行": 1932,
      "術": 1933,
      "表": 1934,
      "被": 1935,
      "西": 1936,
      "要": 1937,
      "見": 1938,
      "见": 1939,
      "视": 1940,
      "角": 1941,
      "解": 1942,
      "言": 1943,
      "計": 1944,
      "記": 1945,
      "設": 1946,
      "訳": 1947,
      "評": 1948,
      "話": 1949,
      "語": 1950,
      "說": 1951,
      "読": 1952,
      "請": 1953,
      "論": 1954,
      "计": 1955,
      "认": 1956,
      "记": 1957,
      "论": 1958,
      "设": 1959,
      "证": 1960,
      "词": 1961,
      "话": 1962,
      "该": 1963,
      "语": 1964,
      "说": 1965,
      "请": 1966,
      "调": 1967,
      "象": 1968,
      "費": 1969,
      "資": 1970,
      "賓": 1971,
      "贝": 1972,
      "货": 1973,
      "贵": 1974,
      "资": 1975,
      "走": 1976,
      "起": 1977,
      "超": 1978,
      "足": 1979,
      "路": 1980,
      "身": 1981,
      "載": 1982,
      "车": 1983,
      "转": 1984,
      "输": 1985,
      "辦": 1986,
      "边": 1987,
      "过": 1988,
      "运": 1989,
      "近": 1990,
      "返": 1991,
      "还": 1992,
      "这": 1993,
      "进": 1994,
      "连": 1995,
      "述": 1996,
      "选": 1997,
      "這": 1998,
      "通": 1999,
      "造": 2000,
      "遊": 2001,
      "過": 2002,
      "道": 2003,
      "那": 2004,
      "部": 2005,
      "都": 2006,
      "配": 2007,
      "酒": 2008,
      "里": 2009,
      "重": 2010,
      "野": 2011,
      "量": 2012,
      "金": 2013,
      "長": 2014,
      "长": 2015,
      "門": 2016,
      "開": 2017,
      "間": 2018,
      "関": 2019,
      "關": 2020,
      "问": 2021,
      "间": 2022,
      "队": 2023,
      "限": 2024,
      "院": 2025,
      "除": 2026,
      "陳": 2027,
      "集": 2028,
      "雷": 2029,
      "電": 2030,
      "需": 2031,
      "非": 2032,
      "面": 2033,
      "音": 2034,
      "題": 2035,
      "项": 2036,
      "题": 2037,
      "風": 2038,
      "食": 2039,
      "首": 2040,
      "香": 2041,
      "馬": 2042,
      "马": 2043,
      "體": 2044,
      "高": 2045,
      "點": 2046,
      "龙": 2047,
      "가": 2048,
      "간": 2049,
      "강": 2050,
      "같": 2051,
      "거": 2052,
      "건": 2053,
      "검": 2054,
      "것": 2055,
      "게": 2056,
      "계": 2057,
      "고": 2058,
      "공": 2059,
      "과": 2060,
      "관": 2061,
      "구": 2062,
      "국": 2063,
      "그": 2064,
      "금": 2065,
      "기": 2066,
      "김": 2067,
      "까": 2068,
      "나": 2069,
      "남": 2070,
      "내": 2071,
      "너": 2072,
      "년": 2073,
      "노": 2074,
      "놀": 2075,
      "는": 2076,
      "니": 2077,
      "다": 2078,
      "대": 2079,
      "데": 2080,
      "도": 2081,
      "동": 2082,
      "드": 2083,
      "들": 2084,
      "라": 2085,
      "래": 2086,
      "레": 2087,
      "로": 2088,
      "를": 2089,
      "리": 2090,
      "마": 2091,
      "만": 2092,
      "말": 2093,
      "먹": 2094,
      "메": 2095,
      "면": 2096,
      "명": 2097,
      "모": 2098,
      "무": 2099,
      "문": 2100,
      "물": 2101,
      "미": 2102,
      "바": 2103,
      "배": 2104,
      "버": 2105,
      "보": 2106,
      "부": 2107,
      "비": 2108,
      "사": 2109,
      "상": 2110,
      "생": 2111,
      "서": 2112,
      "선": 2113,
      "성": 2114,
      "세": 2115,
      "소": 2116,
      "수": 2117,
      "스": 2118,
      "습": 2119,
      "시": 2120,
      "신": 2121,
      "아": 2122,
      "안": 2123,
      "야": 2124,
      "어": 2125,
      "었": 2126,
      "에": 2127,
      "여": 2128,
      "연": 2129,
      "영": 2130,
      "오": 2131,
      "와": 2132,
      "외": 2133,
      "요": 2134,
      "용": 2135,
      "우": 2136,
      "운": 2137,
      "원": 2138,
      "월": 2139,
      "유": 2140,
      "으": 2141,
      "은": 2142,
      "을": 2143,
      "음": 2144,
      "의": 2145,
      "이": 2146,
      "인": 2147,
      "일": 2148,
      "임": 2149,
      "입": 2150,
      "있": 2151,
      "자": 2152,
      "작": 2153,
      "장": 2154,
      "재": 2155,
      "저": 2156,
      "전": 2157,
      "정": 2158,
      "제": 2159,
      "조": 2160,
      "좋": 2161,
      "주": 2162,
      "중": 2163,
      "증": 2164,
      "지": 2165,
      "출": 2166,
      "치": 2167,
      "카": 2168,
      "코": 2169,
      "타": 2170,
      "터": 2171,
      "토": 2172,
      "튀": 2173,
      "트": 2174,
      "포": 2175,
      "피": 2176,
      "하": 2177,
      "학": 2178,
      "한": 2179,
      "함": 2180,
      "합": 2181,
      "해": 2182,
      "했": 2183,
      "호": 2184,
      "화": 2185,
      "회": 2186,
      "︎": 2187,
      "️": 2188,
      "﻿": 2189,
      "￼": 2190,
      "�": 2191,
      "🇦": 2192,
      "🇧": 2193,
      "🇬": 2194,
      "🇷": 2195,
      "🇸": 2196,
      "🇺": 2197,
      "🌎": 2198,
      "🌟": 2199,
      "🌱": 2200,
      "🌸": 2201,
      "🌹": 2202,
      "🎁": 2203,
      "🎉": 2204,
      "🏆": 2205,
      "🏻": 2206,
      "🏼": 2207,
      "🏽": 2208,
      "🏾": 2209,
      "👀": 2210,
      "👇": 2211,
      "👉": 2212,
      "👌": 2213,
      "👍": 2214,
      "👏": 2215,
      "💋": 2216,
      "💎": 2217,
      "💕": 2218,
      "💖": 2219,
      "💗": 2220,
      "💙": 2221,
      "💚": 2222,
      "💛": 2223,
      "💜": 2224,
      "💥": 2225,
      "💪": 2226,
      "💯": 2227,
      "💰": 2228,
      "📌": 2229,
      "📒": 2230,
      "🔥": 2231,
      "🖤": 2232,
      "🗞": 2233,
      "😀": 2234,
      "😁": 2235,
      "😂": 2236,
      "😃": 2237,
      "😄": 2238,
      "😅": 2239,
      "😆": 2240,
      "😉": 2241,
      "😊": 2242,
      "😋": 2243,
      "😍": 2244,
      "😎": 2245,
      "😘": 2246,
      "😛": 2247,
      "😜": 2248,
      "😦": 2249,
      "😭": 2250,
      "😳": 2251,
      "🙁": 2252,
      "🙂": 2253,
      "🙄": 2254,
      "🙌": 2255,
      "🙏": 2256,
      "🚀": 2257,
      "🚨": 2258,
      "🚴": 2259,
      "🤔": 2260,
      "🤗": 2261,
      "🤣": 2262,
      "🤷": 2263,
      "🥰": 2264,
      "n</w>": 2265,
      ".</w>": 2266,
      "1</w>": 2267,
      "t</w>": 2268,
      "y</w>": 2269,
      ")</w>": 2270,
      "2</w>": 2271,
      "]</w>": 2272,
      "e</w>": 2273,
      "6</w>": 2274,
      "”</w>": 2275,
      "s</w>": 2276,
      "k</w>": 2277,
      "?</w>": 2278,
      "!</w>": 2279,
      "0</w>": 2280,
      "S</w>": 2281,
      ":</w>": 2282,
      "P</w>": 2283,
      "\"</w>": 2284,
      "w</w>": 2285,
      "r</w>": 2286,
      "m</w>": 2287,
      "4</w>": 2288,
      "d</w>": 2289,
      "g</w>": 2290,
      "é</w>": 2291,
      "3</w>": 2292,
      "5</w>": 2293,
      "E</w>": 2294,
      "p</w>": 2295,
      "}</w>": 2296,
      "\n</w>": 2297,
      "🙂</w>": 2298,
      "u</w>": 2299,
      "x</w>": 2300,
      "|</w>": 2301,
      "a</w>": 2302,
      "l</w>": 2303,
      "f</w>": 2304,
      "V</w>": 2305,
      "C</w>": 2306,
      "G</w>": 2307,
      "o</w>": 2308,
      "></w>": 2309,
      "i</w>": 2310,
      ",</w>": 2311,
      "%</w>": 2312,
      "8</w>": 2313,
      "7</w>": 2314,
      "W</w>": 2315,
      "»</w>": 2316,
      "“</w>": 2317,
      "L</w>": 2318,
      "/</w>": 2319,
      "R</w>": 2320,
      "→</w>": 2321,
      "*</w>": 2322,
      "-</w>": 2323,
      "9</w>": 2324,
      ";</w>": 2325,
      "�</w>": 2326,
      "A</w>": 2327,
      "h</w>": 2328,
      "–</w>": 2329,
      "^</w>": 2330,
      "c</w>": 2331,
      "(</w>": 2332,
      "♥</w>": 2333,
      "X</w>": 2334,
      "D</w>": 2335,
      "’</w>": 2336,
      "b</w>": 2337,
      "J</w>": 2338,
      "Y</w>": 2339,
      "M</w>": 2340,
      "K</w>": 2341,
      "~</w>": 2342,
      "v</w>": 2343,
      "'</w>": 2344,
      "O</w>": 2345,
      "❤</w>": 2346,
      "z</w>": 2347,
      "B</w>": 2348,
      "`</w>": 2349,
      "ة</w>": 2350,
      "H</w>": 2351,
      "+</w>": 2352,
      "😉</w>": 2353,
      "😀</w>": 2354,
      "I</w>": 2355,
      "›</w>": 2356,
      "↩</w>": 2357,
      "•</w>": 2358,
      "=</w>": 2359,
      "̄</w>": 2360,
      "T</w>": 2361,
      "#</w>": 2362,
      "€</w>": 2363,
      "N</w>": 2364,
      "♦</w>": 2365,
      "×</w>": 2366,
      "Q</w>": 2367,
      "F</w>": 2368,
      "Â</w>": 2369,
      "Z</w>": 2370,
      "®</w>": 2371,
      "©</w>": 2372,
      "用</w>": 2373,
      "●</w>": 2374,
      "U</w>": 2375,
      "\r</w>": 2376,
      "j</w>": 2377,
      "💖</w>": 2378,
      "@</w>": 2379,
      "_</w>": 2380,
      "。</w>": 2381,
      "️</w>": 2382,
      "и</w>": 2383,
      "🏾</w>": 2384,
      "💕</w>": 2385,
      "ア</w>": 2386,
      "】</w>": 2387,
      "Ü</w>": 2388,
      "版</w>": 2389,
      "😊</w>": 2390,
      "😁</w>": 2391,
      "q</w>": 2392,
      "♬</w>": 2393,
      "ử</w>": 2394,
      "多</w>": 2395,
      "«</w>": 2396,
      "✓</w>": 2397,
      "😍</w>": 2398,
      "策</w>": 2399,
      "â</w>": 2400,
      "—</w>": 2401,
      "︎</w>": 2402,
      "➤</w>": 2403,
      "$</w>": 2404,
      "ø</w>": 2405,
      "✨</w>": 2406,
      "ы</w>": 2407,
      "👇</w>": 2408,
      "в</w>": 2409,
      "■</w>": 2410,
      "<</w>": 2411,
      "ô</w>": 2412,
      "↵</w>": 2413,
      "│</w>": 2414,
      "🌱</w>": 2415,
      "′</w>": 2416,
      "间</w>": 2417,
      "⇒</w>": 2418,
      "♡</w>": 2419,
      "島</w>": 2420,
      "↑</w>": 2421,
      "Ē</w>": 2422,
      "다</w>": 2423,
      "ò</w>": 2424,
      "ر</w>": 2425,
      "น</w>": 2426,
      "·</w>": 2427,
      "█</w>": 2428,
      "에</w>": 2429,
      "‘</w>": 2430,
      "á</w>": 2431,
      "☆</w>": 2432,
      "а</w>": 2433,
      "е</w>": 2434,
      "😂</w>": 2435,
      "😄</w>": 2436,
      "°</w>": 2437,
      "א</w>": 2438,
      " </w>": 2439,
      "ť</w>": 2440,
      "😛</w>": 2441,
      "☺</w>": 2442,
      "所</w>": 2443,
      "号</w>": 2444,
      "▲</w>": 2445,
      "↓</w>": 2446,
      "ć</w>": 2447,
      "ę</w>": 2448,
      "ù</w>": 2449,
      "́</w>": 2450,
      "💋</w>": 2451,
      "目</w>": 2452,
      "&</w>": 2453,
      "ド</w>": 2454,
      "▸</w>": 2455,
      "➡</w>": 2456,
      "\\</w>": 2457,
      "话</w>": 2458,
      "ي</w>": 2459,
      "ن</w>": 2460,
      "🙁</w>": 2461,
      "स</w>": 2462,
      "к</w>": 2463,
      "事</w>": 2464,
      "[</w>": 2465,
      "♫</w>": 2466,
      "プ</w>": 2467,
      "場</w>": 2468,
      "🤗</w>": 2469,
      "í</w>": 2470,
      "ف</w>": 2471,
      "Š</w>": 2472,
      "у</w>": 2473,
      "司</w>": 2474,
      "х</w>": 2475,
      "😃</w>": 2476,
      "Ć</w>": 2477,
      "👍</w>": 2478,
      "😭</w>": 2479,
      "ю</w>": 2480,
      "க</w>": 2481,
      "✔</w>": 2482,
      "►</w>": 2483,
      "⭐</w>": 2484,
      "》</w>": 2485,
      "ス</w>": 2486,
      "▼</w>": 2487,
      "💛</w>": 2488,
      "¢</w>": 2489,
      "🏻</w>": 2490,
      "🤔</w>": 2491,
      "😦</w>": 2492,
      "□</w>": 2493,
      "و</w>": 2494,
      "¤</w>": 2495,
      "А</w>": 2496,
      "💚</w>": 2497,
      "市</w>": 2498,
      "¦</w>": 2499,
      "♀</w>": 2500,
      "🚴</w>": 2501,
      "د</w>": 2502,
      "♪</w>": 2503,
      "̈</w>": 2504,
      "Ê</w>": 2505,
      "Ж</w>": 2506,
      "★</w>": 2507,
      "🙏</w>": 2508,
      "†</w>": 2509,
      "ی</w>": 2510,
      "▪</w>": 2511,
      "🚀</w>": 2512,
      "Å</w>": 2513,
      "文</w>": 2514,
      "è</w>": 2515,
      "🥰</w>": 2516,
      "Ђ</w>": 2517,
      "✅</w>": 2518,
      "±</w>": 2519,
      "🎉</w>": 2520,
      "ä</w>": 2521,
      "ं</w>": 2522,
      "Ω</w>": 2523,
      "Æ</w>": 2524,
      "ō</w>": 2525,
      "т</w>": 2526,
      "😘</w>": 2527,
      "트</w>": 2528,
      "🏽</w>": 2529,
      "̶</w>": 2530,
      "😜</w>": 2531,
      "💪</w>": 2532,
      "🖤</w>": 2533,
      "造</w>": 2534,
      "🌸</w>": 2535,
      "ी</w>": 2536,
      "👏</w>": 2537,
      "💗</w>": 2538,
      "料</w>": 2539,
      "ᄏ</w>": 2540,
      "д</w>": 2541,
      "🏼</w>": 2542,
      "∼</w>": 2543,
      "😎</w>": 2544,
      "💜</w>": 2545,
      "格</w>": 2546,
      "😆</w>": 2547,
      "г</w>": 2548,
      "य</w>": 2549,
      "¶</w>": 2550,
      "统</w>": 2551,
      "č</w>": 2552,
      "£</w>": 2553,
      "▶</w>": 2554,
      "的</w>": 2555,
      "‟</w>": 2556,
      "м</w>": 2557,
      "‐</w>": 2558,
      "∞</w>": 2559,
      "я</w>": 2560,
      "ï</w>": 2561,
      "、</w>": 2562,
      "◦</w>": 2563,
      "å</w>": 2564,
      "問</w>": 2565,
      "集</w>": 2566,
      "😋</w>": 2567,
      "י</w>": 2568,
      "🏆</w>": 2569,
      "ट</w>": 2570,
      "î</w>": 2571,
      "✌</w>": 2572,
      "े</w>": 2573,
      "р</w>": 2574,
      "с</w>": 2575,
      "🌟</w>": 2576,
      "￼</w>": 2577,
      "ー</w>": 2578,
      "ư</w>": 2579,
      "起</w>": 2580,
      "院</w>": 2581,
      "о</w>": 2582,
      "◆</w>": 2583,
      "✪</w>": 2584,
      "首</w>": 2585,
      "ė</w>": 2586,
      "¬</w>": 2587,
      "ł</w>": 2588,
      "件</w>": 2589,
      "👌</w>": 2590,
      "Ã</w>": 2591,
      "지</w>": 2592,
      "◉</w>": 2593,
      "م</w>": 2594,
      "ם</w>": 2595,
      "ノ</w>": 2596,
      "\t</w>": 2597,
      "ب</w>": 2598,
      "ا</w>": 2599,
      "語</w>": 2600,
      "析</w>": 2601,
      "์</w>": 2602,
      "∂</w>": 2603,
      "真</w>": 2604,
      "ќ</w>": 2605,
      "어</w>": 2606,
      "💙</w>": 2607,
      "‚</w>": 2608,
      "Φ</w>": 2609,
      "ó</w>": 2610,
      "В</w>": 2611,
      "국</w>": 2612,
      "ツ</w>": 2613,
      "◙</w>": 2614,
      "⃣</w>": 2615,
      "募</w>": 2616,
      "à</w>": 2617,
      "ι</w>": 2618,
      "日</w>": 2619,
      "ă</w>": 2620,
      "̃</w>": 2621,
      "州</w>": 2622,
      "ü</w>": 2623,
      "ь</w>": 2624,
      "ـ</w>": 2625,
      "⚡</w>": 2626,
      "й</w>": 2627,
      "🔥</w>": 2628,
      "制</w>": 2629,
      "Ě</w>": 2630,
      "ן</w>": 2631,
      "서</w>": 2632,
      "μ</w>": 2633,
      "ى</w>": 2634,
      "제</w>": 2635,
      "▾</w>": 2636,
      "ү</w>": 2637,
      "🙌</w>": 2638,
      "ν</w>": 2639,
      "¡</w>": 2640,
      "📌</w>": 2641,
      "人</w>": 2642,
      "η</w>": 2643,
      "🇸</w>": 2644,
      "∆</w>": 2645,
      "ه</w>": 2646,
      "▬</w>": 2647,
      "🌎</w>": 2648,
      "Ö</w>": 2649,
      "§</w>": 2650,
      "✤</w>": 2651,
      "용</w>": 2652,
      "」</w>": 2653,
      "ะ</w>": 2654,
      "도</w>": 2655,
      "修</w>": 2656,
      "义</w>": 2657,
      "✖</w>": 2658,
      "ך</w>": 2659,
      "明</w>": 2660,
      "̋</w>": 2661,
      "声</w>": 2662,
      "⠀</w>": 2663,
      "信</w>": 2664,
      "Ô</w>": 2665,
      "і</w>": 2666,
      "物</w>": 2667,
      "论</w>": 2668,
      "デ</w>": 2669,
      "φ</w>": 2670,
      "品</w>": 2671,
      "语</w>": 2672,
      "Þ</w>": 2673,
      "🤣</w>": 2674,
      "Я</w>": 2675,
      "α</w>": 2676,
      "e ": 2677,
      " t": 2678,
      "s ": 2679,
      "in": 2680,
      "er": 2681,
      "an": 2682,
      "t ": 2683,
      " th": 2684,
      "d ": 2685,
      "on": 2686,
      "or": 2687,
      "en": 2688,
      ", ": 2689,
      "y ": 2690,
      "ou": 2691,
      " the ": 2692,
      "ar": 2693,
      "at": 2694,
      "al": 2695,
      "o ": 2696,
      "re": 2697,
      "ing": 2698,
      "it": 2699,
      ". ": 2700,
      "st": 2701,
      "  ": 2702,
      "of": 2703,
      "a ": 2704,
      "and ": 2705,
      "ic": 2706,
      "ing ": 2707,
      "es": 2708,
      "om": 2709,
      "ion": 2710,
      "th": 2711,
      "ed ": 2712,
      "il": 2713,
      "er ": 2714,
      " to ": 2715,
      "el": 2716,
      "is ": 2717,
      "of ": 2718,
      "ac": 2719,
      "h ": 2720,
      "for": 2721,
      "as": 2722,
      ".\n": 2723,
      "is": 2724,
      "ro": 2725,
      "es ": 2726,
      "ed": 2727,
      "at ": 2728,
      "ec": 2729,
      "in ": 2730,
      "l ": 2731,
      "ow": 2732,
      "    ": 2733,
      "you": 2734,
      "as ": 2735,
      "ent": 2736,
      "am": 2737,
      "an ": 2738,
      "al ": 2739,
      "ur": 2740,
      "Th": 2741,
      "et": 2742,
      "ol": 2743,
      "ve ": 2744,
      "pl": 2745,
      "us": 2746,
      "em": 2747,
      "im": 2748,
      "ig": 2749,
      "wh": 2750,
      "id": 2751,
      "r ": 2752,
      "ad": 2753,
      "ch": 2754,
      "ation": 2755,
      "ab": 2756,
      "un": 2757,
      "en ": 2758,
      "wit": 2759,
      "ly ": 2760,
      "ag": 2761,
      "k ": 2762,
      "ver": 2763,
      "le": 2764,
      "ha": 2765,
      "for ": 2766,
      "os": 2767,
      "on ": 2768,
      "and": 2769,
      "or ": 2770,
      "e th": 2771,
      "oo": 2772,
      "ex": 2773,
      "pro": 2774,
      "com": 2775,
      "con": 2776,
      "if": 2777,
      "ay": 2778,
      "I ": 2779,
      "e t": 2780,
      "sh": 2781,
      "ul": 2782,
      " that ": 2783,
      "ent ": 2784,
      "it ": 2785,
      "ir": 2786,
      "op": 2787,
      "ut": 2788,
      "are ": 2789,
      "res": 2790,
      "The ": 2791,
      "ri": 2792,
      "you ": 2793,
      "ap": 2794,
      "with ": 2795,
      "uc": 2796,
      "of the ": 2797,
      "s, ": 2798,
      "ear": 2799,
      "n ": 2800,
      "int": 2801,
      "ot": 2802,
      "e, ": 2803,
      "ak": 2804,
      "fr": 2805,
      "be": 2806,
      "be ": 2807,
      "ion ": 2808,
      "up": 2809,
      "li": 2810,
      "ev": 2811,
      "oun": 2812,
      "igh": 2813,
      "um": 2814,
      "ew": 2815,
      "le ": 2816,
      "ect": 2817,
      "oc": 2818,
      "ay ": 2819,
      "qu": 2820,
      "se": 2821,
      "ot ": 2822,
      " the": 2823,
      " to": 2824,
      "per": 2825,
      "all": 2826,
      "- ": 2827,
      "ill ": 2828,
      "ere ": 2829,
      "have ": 2830,
      "in the ": 2831,
      "from": 2832,
      "ation ": 2833,
      "est": 2834,
      "was ": 2835,
      "        ": 2836,
      "cl": 2837,
      "sp": 2838,
      "di": 2839,
      "ep": 2840,
      "wor": 2841,
      "’s ": 2842,
      "s. ": 2843,
      "your ": 2844,
      ": ": 2845,
      "ers ": 2846,
      "act": 2847,
      "ce ": 2848,
      "e. ": 2849,
      "20": 2850,
      "art": 2851,
      "oth": 2852,
      "ic ": 2853,
      "oul": 2854,
      "bu": 2855,
      "out ": 2856,
      "ant": 2857,
      "ow ": 2858,
      "ess": 2859,
      "iv": 2860,
      "str": 2861,
      "e to ": 2862,
      "will ": 2863,
      " this ": 2864,
      "ate ": 2865,
      "bl": 2866,
      "pr": 2867,
      "ive ": 2868,
      "od": 2869,
      "one ": 2870,
      "gr": 2871,
      "end": 2872,
      ") ": 2873,
      "not ": 2874,
      "et ": 2875,
      "by ": 2876,
      "ain": 2877,
      "all ": 2878,
      "s and ": 2879,
      "so ": 2880,
      "e the ": 2881,
      "we": 2882,
      "can ": 2883,
      "ir ": 2884,
      "ould ": 2885,
      "ud": 2886,
      "ef": 2887,
      "ort": 2888,
      "rec": 2889,
      "ov": 2890,
      "our": 2891,
      "oug": 2892,
      "from ": 2893,
      "ity ": 2894,
      " tr": 2895,
      "av": 2896,
      "our ": 2897,
      "mor": 2898,
      "ist": 2899,
      "In": 2900,
      "y, ": 2901,
      "'s ": 2902,
      "ed to ": 2903,
      "St": 2904,
      " and ": 2905,
      "out": 2906,
      "with": 2907,
      "ew ": 2908,
      "ally ": 2909,
      "af": 2910,
      "we ": 2911,
      ";\n": 2912,
      "su": 2913,
      "ter": 2914,
      "iz": 2915,
      "man": 2916,
      "has ": 2917,
      "ip": 2918,
      "f ": 2919,
      "ne": 2920,
      "som": 2921,
      "ill": 2922,
      "ong": 2923,
      "0 ": 2924,
      "e of ": 2925,
      "he ": 2926,
      "og": 2927,
      ", and ": 2928,
      "s of ": 2929,
      "ind": 2930,
      ", the ": 2931,
      "ail": 2932,
      "cont": 2933,
      "est ": 2934,
      "ang": 2935,
      "enc": 2936,
      "form": 2937,
      "ass": 2938,
      "pe": 2939,
      "ob": 2940,
      "he": 2941,
      "aw": 2942,
      "over": 2943,
      "ing the ": 2944,
      ". I": 2945,
      "ard": 2946,
      "ell": 2947,
      "ies ": 2948,
      "my ": 2949,
      "th ": 2950,
      "but ": 2951,
      "ast": 2952,
      "cre": 2953,
      "his ": 2954,
      "anc": 2955,
      "s to ": 2956,
      "ar ": 2957,
      ". Th": 2958,
      "ust ": 2959,
      "..": 2960,
      " to the ": 2961,
      "ight ": 2962,
      " their ": 2963,
      "es, ": 2964,
      "whic": 2965,
      "at the ": 2966,
      "ack": 2967,
      "lik": 2968,
      "Ch": 2969,
      "on the ": 2970,
      "ser": 2971,
      ". A": 2972,
      "ment": 2973,
      "br": 2974,
      "ight": 2975,
      "port": 2976,
      ". The ": 2977,
      "Wh": 2978,
      "pos": 2979,
      "fer": 2980,
      "year": 2981,
      "s.\n": 2982,
      "her ": 2983,
      "mak": 2984,
      "e and ": 2985,
      "e.\n": 2986,
      " they ": 2987,
      "ter ": 2988,
      "der": 2989,
      "par": 2990,
      "--": 2991,
      "duc": 2992,
      "\n- ": 2993,
      "which ": 2994,
      "el ": 2995,
      "dis": 2996,
      "ial ": 2997,
      "me": 2998,
      "do": 2999,
      "other ": 3000,
      "ost ": 3001,
      "kn": 3002,
      "e s": 3003,
      "vi": 3004,
      "ad ": 3005,
      "st ": 3006,
      "lin": 3007,
      "ess ": 3008,
      "m ": 3009,
      "vid": 3010,
      "ever": 3011,
      "ens": 3012,
      "p ": 3013,
      "ated ": 3014,
      "ough": 3015,
      "ult": 3016,
      "fl": 3017,
      "ment ": 3018,
      "who ": 3019,
      "her": 3020,
      "able ": 3021,
      "pre": 3022,
      "po": 3023,
      "201": 3024,
      "if ": 3025,
      " tim": 3026,
      "id ": 3027,
      "ook": 3028,
      "fir": 3029,
      "comm": 3030,
      "also ": 3031,
      "ure": 3032,
      "more ": 3033,
      "pres": 3034,
      "” ": 3035,
      "any ": 3036,
      "ing to ": 3037,
      "ure ": 3038,
      "its ": 3039,
      "am ": 3040,
      "ust": 3041,
      "dr": 3042,
      "ph": 3043,
      "ast ": 3044,
      "sc": 3045,
      "oll": 3046,
      "inter": 3047,
      "ey ": 3048,
      "for the ": 3049,
      "tr": 3050,
      "fe": 3051,
      "comp": 3052,
      "and the ": 3053,
      "work": 3054,
      "//": 3055,
      "ice ": 3056,
      "ch ": 3057,
      "ib": 3058,
      "A ": 3059,
      "about ": 3060,
      "00": 3061,
      "fin": 3062,
      "ical ": 3063,
      "a l": 3064,
      "eg": 3065,
      "age ": 3066,
      "ign": 3067,
      "sel": 3068,
      "i ": 3069,
      "ple ": 3070,
      "hel": 3071,
      "bec": 3072,
      "been ": 3073,
      "day": 3074,
      "min": 3075,
      "acc": 3076,
      "uch ": 3077,
      "em ": 3078,
      "19": 3079,
      "a s": 3080,
      "ant ": 3081,
      "off": 3082,
      ");\n": 3083,
      "’t ": 3084,
      "up ": 3085,
      "ach": 3086,
      "us ": 3087,
      "An": 3088,
      "ain ": 3089,
      "ood ": 3090,
      "ug": 3091,
      "were ": 3092,
      "tion": 3093,
      "ound": 3094,
      "eas": 3095,
      "aus": 3096,
      "would ": 3097,
      "arg": 3098,
      "= ": 3099,
      "way": 3100,
      "ely ": 3101,
      "sa": 3102,
      "own ": 3103,
      "itt": 3104,
      "ly": 3105,
      "ary ": 3106,
      "own": 3107,
      "ence ": 3108,
      "\" ": 3109,
      "go": 3110,
      "ition": 3111,
      "eth": 3112,
      "ity": 3113,
      "ame ": 3114,
      "clud": 3115,
      "sid": 3116,
      "mon": 3117,
      "ite ": 3118,
      "had ": 3119,
      "de": 3120,
      "; ": 3121,
      "emb": 3122,
      "We ": 3123,
      "att": 3124,
      "ack ": 3125,
      "ese ": 3126,
      "::": 3127,
      "des": 3128,
      "ous ": 3129,
      "row": 3130,
      "peo": 3131,
      "mar": 3132,
      ". S": 3133,
      "ous": 3134,
      "part": 3135,
      "when ": 3136,
      "serv": 3137,
      "just ": 3138,
      "? ": 3139,
      "what ": 3140,
      "2 ": 3141,
      "includ": 3142,
      "ard ": 3143,
      "ish": 3144,
      "cr": 3145,
      "ans": 3146,
      "lo": 3147,
      "ret": 3148,
      "most ": 3149,
      "ick": 3150,
      "ord": 3151,
      "with the ": 3152,
      "ut ": 3153,
      ". H": 3154,
      "do ": 3155,
      "some ": 3156,
      "ents ": 3157,
      "ed the ": 3158,
      "ook ": 3159,
      "get": 3160,
      "new ": 3161,
      "You": 3162,
      "ire": 3163,
      "abl": 3164,
      "a f": 3165,
      "ell ": 3166,
      "gre": 3167,
      "by": 3168,
      "add": 3169,
      "1 ": 3170,
      "co": 3171,
      "ies": 3172,
      "5 ": 3173,
      " that": 3174,
      " tak": 3175,
      "ough ": 3176,
      "\n        ": 3177,
      "ose ": 3178,
      "\n    ": 3179,
      "\t\t": 3180,
      "but": 3181,
      "ing, ": 3182,
      "ile ": 3183,
      "ound ": 3184,
      "ance ": 3185,
      "vers": 3186,
      "sup": 3187,
      "not": 3188,
      "ect ": 3189,
      "Un": 3190,
      "bet": 3191,
      "rem": 3192,
      "read": 3193,
      "er, ": 3194,
      "get ": 3195,
      "produc": 3196,
      "Con": 3197,
      "eng": 3198,
      "bo": 3199,
      "like ": 3200,
      "– ": 3201,
      "very ": 3202,
      "don": 3203,
      "ong ": 3204,
      "ey": 3205,
      "no ": 3206,
      "car": 3207,
      "x ": 3208,
      "ach ": 3209,
      "e that ": 3210,
      "s the ": 3211,
      "is a ": 3212,
      "Al": 3213,
      "reg": 3214,
      "ount": 3215,
      "ed by ": 3216,
      "dat": 3217,
      "e-": 3218,
      "may ": 3219,
      "ed in ": 3220,
      "s are ": 3221,
      "plac": 3222,
      "from the ": 3223,
      "ree ": 3224,
      "ann": 3225,
      "sy": 3226,
      "es and ": 3227,
      "S ": 3228,
      "s in ": 3229,
      "re ": 3230,
      "ort ": 3231,
      "bas": 3232,
      "vis": 3233,
      "dec": 3234,
      "dev": 3235,
      "day ": 3236,
      "Com": 3237,
      "! ": 3238,
      "'t ": 3239,
      " thr": 3240,
      ". B": 3241,
      "mat": 3242,
      "only ": 3243,
      "end ": 3244,
      "ener": 3245,
      "cas": 3246,
      ".\nThe ": 3247,
      "s that ": 3248,
      " there ": 3249,
      "You ": 3250,
      "loc": 3251,
      ". I ": 3252,
      "dif": 3253,
      "old ": 3254,
      "gl": 3255,
      "tion ": 3256,
      "provid": 3257,
      "o the ": 3258,
      "ome ": 3259,
      "son": 3260,
      "mer": 3261,
      "sur": 3262,
      "rel": 3263,
      "wo ": 3264,
      "ing a ": 3265,
      "ship": 3266,
      "wr": 3267,
      "This ": 3268,
      "inv": 3269,
      "ul ": 3270,
      "200": 3271,
      "stor": 3272,
      "ubl": 3273,
      "& ": 3274,
      "want": 3275,
      "10": 3276,
      "ial": 3277,
      "play": 3278,
      "a, ": 3279,
      "ert": 3280,
      "him": 3281,
      "3 ": 3282,
      "oy": 3283,
      "ine ": 3284,
      "ood": 3285,
      "pp": 3286,
      "ed, ": 3287,
      "ever ": 3288,
      "ia ": 3289,
      "gu": 3290,
      "il ": 3291,
      "urn": 3292,
      "om ": 3293,
      "compl": 3294,
      "yp": 3295,
      "lif": 3296,
      "any": 3297,
      "ext": 3298,
      "into ": 3299,
      "||": 3300,
      "t of ": 3301,
      "first ": 3302,
      "4 ": 3303,
      "**": 3304,
      "med": 3305,
      "peri": 3306,
      "sec": 3307,
      "ade ": 3308,
      "so": 3309,
      "requ": 3310,
      "people ": 3311,
      "ing and ": 3312,
      "many ": 3313,
      "was": 3314,
      "becaus": 3315,
      "fun": 3316,
      "over ": 3317,
      "ek": 3318,
      "cur": 3319,
      "op ": 3320,
      "----": 3321,
      "fac": 3322,
      "?\n": 3323,
      "work ": 3324,
      "umb": 3325,
      "under": 3326,
      "Fr": 3327,
      "ech": 3328,
      "En": 3329,
      "olog": 3330,
      "ma": 3331,
      "ub": 3332,
      "is the ": 3333,
      "old": 3334,
      "could ": 3335,
      "stat": 3336,
      "org": 3337,
      "inc": 3338,
      "ari": 3339,
      "), ": 3340,
      " te": 3341,
      "app": 3342,
      "chang": 3343,
      "Tr": 3344,
      "wat": 3345,
      "On": 3346,
      "ath": 3347,
      "will be ": 3348,
      "spec": 3349,
      "bus": 3350,
      "ings ": 3351,
      "even ": 3352,
      "iss": 3353,
      "ement ": 3354,
      "riv": 3355,
      "ual ": 3356,
      "she ": 3357,
      "leg": 3358,
      "how ": 3359,
      "a c": 3360,
      "sub": 3361,
      "inn": 3362,
      "E ": 3363,
      "Ar": 3364,
      "y to ": 3365,
      "inform": 3366,
      "ue ": 3367,
      "Pro": 3368,
      "ful": 3369,
      "bel": 3370,
      "ement": 3371,
      "back": 3372,
      "mark": 3373,
      "def": 3374,
      "s for ": 3375,
      "to ": 3376,
      "should ": 3377,
      "au": 3378,
      ")\n": 3379,
      "pol": 3380,
      "by the ": 3381,
      " them": 3382,
      "can": 3383,
      "make ": 3384,
      "ational ": 3385,
      "tim": 3386,
      "ject": 3387,
      "um ": 3388,
      " these ": 3389,
      "ere": 3390,
      "exp": 3391,
      "sch": 3392,
      ". M": 3393,
      "befor": 3394,
      "!\n": 3395,
      "fect": 3396,
      "differ": 3397,
      "sl": 3398,
      "ions ": 3399,
      "rat": 3400,
      "the ": 3401,
      "es of ": 3402,
      "a b": 3403,
      " thin": 3404,
      "lear": 3405,
      "ist ": 3406,
      "y and ": 3407,
      "amil": 3408,
      "nam": 3409,
      "ank": 3410,
      "worl": 3411,
      "proc": 3412,
      "stud": 3413,
      "ers": 3414,
      "ost": 3415,
      "ific": 3416,
      "about": 3417,
      ".\n- ": 3418,
      "look": 3419,
      ". It ": 3420,
      "such ": 3421,
      "ond": 3422,
      "Mar": 3423,
      "resp": 3424,
      "aut": 3425,
      "ish ": 3426,
      "val": 3427,
      "air": 3428,
      "es to ": 3429,
      "ll ": 3430,
      "e\n": 3431,
      "D ": 3432,
      "ations ": 3433,
      "mod": 3434,
      "sol": 3435,
      "sm": 3436,
      "where ": 3437,
      "ock": 3438,
      "ep ": 3439,
      "e.": 3440,
      "It ": 3441,
      "6 ": 3442,
      "me ": 3443,
      "how": 3444,
      "ool ": 3445,
      "elop": 3446,
      "eb": 3447,
      "ative ": 3448,
      "8 ": 3449,
      "In ": 3450,
      "busin": 3451,
      "ating ": 3452,
      "well ": 3453,
      "sit": 3454,
      "cor": 3455,
      "sk": 3456,
      "ild": 3457,
      "az": 3458,
      "T ": 3459,
      ", but ": 3460,
      "ett": 3461,
      "ict": 3462,
      "fil": 3463,
      "col": 3464,
      "are": 3465,
      "->": 3466,
      "amp": 3467,
      "much ": 3468,
      "good ": 3469,
      "say": 3470,
      "se ": 3471,
      "Cl": 3472,
      "publ": 3473,
      "ick ": 3474,
      "Ex": 3475,
      "ke": 3476,
      "start": 3477,
      "Br": 3478,
      ". This ": 3479,
      "fact": 3480,
      "inst": 3481,
      "after ": 3482,
      " them ": 3483,
      "in a ": 3484,
      "high": 3485,
      "cour": 3486,
      "det": 3487,
      "n’t ": 3488,
      "ory ": 3489,
      "know": 3490,
      "ian ": 3491,
      " two ": 3492,
      "said": 3493,
      "stand": 3494,
      "s\n": 3495,
      "oft": 3496,
      " that the ": 3497,
      ":\n": 3498,
      "ER": 3499,
      "ros": 3500,
      "need": 3501,
      "ors ": 3502,
      "cent": 3503,
      "line ": 3504,
      "Re": 3505,
      "struc": 3506,
      "ase ": 3507,
      " then ": 3508,
      "a t": 3509,
      " than ": 3510,
      "”\n": 3511,
      "Sh": 3512,
      "experi": 3513,
      "with a ": 3514,
      "7 ": 3515,
      "run": 3516,
      "er of ": 3517,
      "ff": 3518,
      "., ": 3519,
      "en the ": 3520,
      "Pr": 3521,
      "C ": 3522,
      "echn": 3523,
      "again": 3524,
      "see ": 3525,
      "lev": 3526,
      "each ": 3527,
      "being ": 3528,
      "abil": 3529,
      "appl": 3530,
      " time ": 3531,
      "lat": 3532,
      "ans ": 3533,
      "now ": 3534,
      "unt": 3535,
      "rect": 3536,
      "as a ": 3537,
      "down": 3538,
      "IN": 3539,
      "s, and ": 3540,
      "bre": 3541,
      "Ad": 3542,
      "hand": 3543,
      "foll": 3544,
      "ition ": 3545,
      "pat": 3546,
      "mov": 3547,
      "every": 3548,
      "hear": 3549,
      "act ": 3550,
      "tern": 3551,
      "can be ": 3552,
      "ik": 3553,
      "If ": 3554,
      "best ": 3555,
      ". F": 3556,
      "help ": 3557,
      "del": 3558,
      "Ac": 3559,
      "hom": 3560,
      "other": 3561,
      "prof": 3562,
      "pt": 3563,
      "use ": 3564,
      "ok": 3565,
      "exc": 3566,
      "as the ": 3567,
      "er and ": 3568,
      "back ": 3569,
      "ities ": 3570,
      "impl": 3571,
      "ash": 3572,
      "new": 3573,
      "sib": 3574,
      "ually ": 3575,
      "famil": 3576,
      "person": 3577,
      "you can ": 3578,
      "syst": 3579,
      "fi": 3580,
      "develop": 3581,
      "really ": 3582,
      "Gr": 3583,
      "atur": 3584,
      "es.\n": 3585,
      "view": 3586,
      "commun": 3587,
      "it is ": 3588,
      "pur": 3589,
      "heal": 3590,
      "I’": 3591,
      "disc": 3592,
      "both": 3593,
      "dep": 3594,
      "call": 3595,
      "ed and ": 3596,
      "pow": 3597,
      "servic": 3598,
      "err": 3599,
      "point": 3600,
      "son ": 3601,
      "ident": 3602,
      "betwe": 3603,
      "und": 3604,
      "able": 3605,
      "int ": 3606,
      "numb": 3607,
      "made ": 3608,
      "gam": 3609,
      " take ": 3610,
      "tt": 3611,
      "know ": 3612,
      "because ": 3613,
      "ide ": 3614,
      "\"\n": 3615,
      "e,": 3616,
      "dur": 3617,
      "port ": 3618,
      "happ": 3619,
      "web": 3620,
      "cons": 3621,
      "It": 3622,
      "art ": 3623,
      " those ": 3624,
      "week": 3625,
      " to be ": 3626,
      "g ": 3627,
      "progr": 3628,
      "giv": 3629,
      "lead": 3630,
      "alk": 3631,
      "ask": 3632,
      "meric": 3633,
      "ave ": 3634,
      "right ": 3635,
      "last ": 3636,
      "ys": 3637,
      "y of ": 3638,
      "soc": 3639,
      "ign ": 3640,
      "still ": 3641,
      "way ": 3642,
      "ection ": 3643,
      "great ": 3644,
      "show": 3645,
      "Americ": 3646,
      "help": 3647,
      "arm": 3648,
      "gener": 3649,
      "cap": 3650,
      "o, ": 3651,
      "ress": 3652,
      "fri": 3653,
      "ide": 3654,
      "ited ": 3655,
      "ise ": 3656,
      "rol": 3657,
      "}\n": 3658,
      "urn ": 3659,
      "erv": 3660,
      ". P": 3661,
      "import": 3662,
      ". W": 3663,
      "es the ": 3664,
      "follow": 3665,
      "issu": 3666,
      "12": 3667,
      "ept": 3668,
      "ful ": 3669,
      "chil": 3670,
      "liv": 3671,
      "qual": 3672,
      "hav": 3673,
      "appro": 3674,
      "’ ": 3675,
      "ular ": 3676,
      "cho": 3677,
      "coun": 3678,
      "ed with ": 3679,
      "ove ": 3680,
      "curr": 3681,
      "igh ": 3682,
      "exam": 3683,
      "beg": 3684,
      "New ": 3685,
      "able to ": 3686,
      "ember ": 3687,
      "ivers": 3688,
      "ra": 3689,
      "ently ": 3690,
      "overn": 3691,
      "said ": 3692,
      "ustr": 3693,
      "while ": 3694,
      "miss": 3695,
      "avail": 3696,
      "incre": 3697,
      ". Wh": 3698,
      "fre": 3699,
      "put": 3700,
      "adv": 3701,
      "18": 3702,
      "// ": 3703,
      "ext ": 3704,
      "reat": 3705,
      "for a ": 3706,
      "contin": 3707,
      ". We ": 3708,
      "ation, ": 3709,
      "()": 3710,
      "ason": 3711,
      "Jo": 3712,
      "every ": 3713,
      "Ph": 3714,
      "arr": 3715,
      "man ": 3716,
      ".\nS": 3717,
      "ittle ": 3718,
      "quest": 3719,
      "ici": 3720,
      "sign": 3721,
      ". D": 3722,
      "prot": 3723,
      "has been ": 3724,
      "empl": 3725,
      "now": 3726,
      "right": 3727,
      "pert": 3728,
      "ustom": 3729,
      "9 ": 3730,
      "ation of ": 3731,
      "ind ": 3732,
      "mus": 3733,
      "ott": 3734,
      "ed a ": 3735,
      " through ": 3736,
      "partic": 3737,
      "ia": 3738,
      "ON": 3739,
      "someth": 3740,
      "ed on ": 3741,
      "ould": 3742,
      ",” ": 3743,
      "ways ": 3744,
      "ting ": 3745,
      "...": 3746,
      "ear ": 3747,
      "’re ": 3748,
      "manag": 3749,
      "* ": 3750,
      "self": 3751,
      "grou": 3752,
      "|\n": 3753,
      "e: ": 3754,
      "per ": 3755,
      "both ": 3756,
      "als ": 3757,
      "ern": 3758,
      ". An": 3759,
      "vari": 3760,
      "ire ": 3761,
      "wom": 3762,
      "complet": 3763,
      "Sp": 3764,
      "organ": 3765,
      "jo": 3766,
      " this": 3767,
      " through": 3768,
      "ie ": 3769,
      "ail ": 3770,
      "information ": 3771,
      "it’s ": 3772,
      "siz": 3773,
      "vir": 3774,
      ". N": 3775,
      "Bl": 3776,
      "find ": 3777,
      "e tr": 3778,
      "before ": 3779,
      "earch ": 3780,
      "ates ": 3781,
      "go ": 3782,
      "Pl": 3783,
      "11": 3784,
      "==": 3785,
      "come ": 3786,
      "He": 3787,
      "grow": 3788,
      "ally": 3789,
      "e, and ": 3790,
      ". O": 3791,
      "ond ": 3792,
      "well": 3793,
      "% ": 3794,
      "conc": 3795,
      "' ": 3796,
      "list": 3797,
      "RE": 3798,
      "writ": 3799,
      "n't ": 3800,
      "To ": 3801,
      "ed for ": 3802,
      "ace ": 3803,
      "As": 3804,
      "fort": 3805,
      "year ": 3806,
      "product": 3807,
      "s.": 3808,
      "rece": 3809,
      "clos": 3810,
      "did ": 3811,
      "need to ": 3812,
      "AN": 3813,
      "coll": 3814,
      "ern ": 3815,
      "less ": 3816,
      "ional ": 3817,
      "ity of ": 3818,
      "design": 3819,
      "Res": 3820,
      "es in ": 3821,
      "50": 3822,
      "peopl": 3823,
      ", I ": 3824,
      "different ": 3825,
      "press": 3826,
      "have been ": 3827,
      "For": 3828,
      "I'": 3829,
      "did": 3830,
      "ucc": 3831,
      "Par": 3832,
      "ship ": 3833,
      "ning ": 3834,
      "must ": 3835,
      "law": 3836,
      "want to ": 3837,
      "ers, ": 3838,
      "spe": 3839,
      "ince ": 3840,
      "and t": 3841,
      "sal": 3842,
      "expl": 3843,
      "ww": 3844,
      "aph": 3845,
      "ig ": 3846,
      "Col": 3847,
      "istr": 3848,
      "set": 3849,
      "ur ": 3850,
      "ric": 3851,
      "y.\n": 3852,
      ". L": 3853,
      "month": 3854,
      "30": 3855,
      "probl": 3856,
      "ing in ": 3857,
      "ifi": 3858,
      "world": 3859,
      "look ": 3860,
      "pass": 3861,
      "rist": 3862,
      "ass ": 3863,
      "might ": 3864,
      "years ": 3865,
      "L ": 3866,
      "ake ": 3867,
      "s,": 3868,
      "iqu": 3869,
      "oper": 3870,
      "pa": 3871,
      "Sc": 3872,
      "e_": 3873,
      "all the ": 3874,
      "OR": 3875,
      "ax": 3876,
      "friend": 3877,
      "US": 3878,
      "post": 3879,
      "long": 3880,
      "e than ": 3881,
      "you are ": 3882,
      "him ": 3883,
      "your": 3884,
      "larg": 3885,
      "into the ": 3886,
      "ribut": 3887,
      ". He ": 3888,
      "por": 3889,
      " think ": 3890,
      "love ": 3891,
      "P ": 3892,
      "activ": 3893,
      "my": 3894,
      "custom": 3895,
      "beli": 3896,
      "Wor": 3897,
      "es are ": 3898,
      "always ": 3899,
      "without ": 3900,
      ", 201": 3901,
      "aim": 3902,
      "continu": 3903,
      "ed.\n": 3904,
      "ool": 3905,
      "present": 3906,
      "--------": 3907,
      "ith ": 3908,
      "15": 3909,
      "consid": 3910,
      "\n  ": 3911,
      "char": 3912,
      "es that ": 3913,
      "rip": 3914,
      ",00": 3915,
      "side ": 3916,
      "require": 3917,
      "edg": 3918,
      "en, ": 3919,
      "ing for ": 3920,
      "prom": 3921,
      "la": 3922,
      "AR": 3923,
      ".”\n": 3924,
      "M ": 3925,
      "let": 3926,
      "ST": 3927,
      "dem": 3928,
      "cert": 3929,
      "give ": 3930,
      "What ": 3931,
      "dist": 3932,
      "don’t ": 3933,
      "od ": 3934,
      ". In ": 3935,
      "ink": 3936,
      "allow": 3937,
      "For ": 3938,
      " though": 3939,
      "set ": 3940,
      "cle": 3941,
      "O ": 3942,
      "about the ": 3943,
      "off ": 3944,
      "land": 3945,
      "have to ": 3946,
      "order": 3947,
      "lim": 3948,
      "never ": 3949,
      "high ": 3950,
      "hous": 3951,
      "does ": 3952,
      "bod": 3953,
      "ith": 3954,
      " trans": 3955,
      "16": 3956,
      "divid": 3957,
      "ity, ": 3958,
      "a m": 3959,
      "ix": 3960,
      "self ": 3961,
      "offic": 3962,
      "real": 3963,
      "ourc": 3964,
      "****": 3965,
      "down ": 3966,
      "equ": 3967,
      "one of the ": 3968,
      "ris": 3969,
      "if (": 3970,
      "result": 3971,
      "first": 3972,
      "AT": 3973,
      ", which ": 3974,
      "another ": 3975,
      "book": 3976,
      "what": 3977,
      "report": 3978,
      "ah": 3979,
      "effect": 3980,
      ");\n    ": 3981,
      "program": 3982,
      "hist": 3983,
      "possib": 3984,
      "govern": 3985,
      "elect": 3986,
      "head": 3987,
      "pri": 3988,
      "between ": 3989,
      "s. The ": 3990,
      ") {": 3991,
      "hum": 3992,
      "ore ": 3993,
      "s of the ": 3994,
      "invest": 3995,
      "e(": 3996,
      "childr": 3997,
      "chec": 3998,
      "uck": 3999,
      "o-": 4000,
      "eir ": 4001,
      "it was ": 4002,
      "eve ": 4003,
      "same ": 4004,
      "as well ": 4005,
      "ed in the ": 4006,
      "ature": 4007,
      "ing that ": 4008,
      "Qu": 4009,
      ". C": 4010,
      "ther ": 4011,
      "business ": 4012,
      "had": 4013,
      ". You ": 4014,
      "Mon": 4015,
      "pop": 4016,
      "valu": 4017,
      "10 ": 4018,
      "vent": 4019,
      "ion, ": 4020,
      "ed by the ": 4021,
      "just": 4022,
      "echnolog": 4023,
      "ers and ": 4024,
      "ativ": 4025,
      "bro": 4026,
      "market": 4027,
      "direct": 4028,
      "Le": 4029,
      "system": 4030,
      "uss": 4031,
      "job": 4032,
      "rib": 4033,
      "respon": 4034,
      "ank ": 4035,
      "doc": 4036,
      "using ": 4037,
      "ing of ": 4038,
      "e to the ": 4039,
      "sever": 4040,
      "erg": 4041,
      "conn": 4042,
      "mill": 4043,
      "s on ": 4044,
      "ek ": 4045,
      "ically ": 4046,
      "ed that ": 4047,
      "phot": 4048,
      "pract": 4049,
      "ve": 4050,
      "intern": 4051,
      "experienc": 4052,
      "put ": 4053,
      "ward": 4054,
      ". E": 4055,
      "Or": 4056,
      "build": 4057,
      ".\nA": 4058,
      ", M": 4059,
      "have a ": 4060,
      "place ": 4061,
      "14": 4062,
      ". If ": 4063,
      "bor": 4064,
      "going to ": 4065,
      "And ": 4066,
      "prov": 4067,
      "interest": 4068,
      "— ": 4069,
      "war": 4070,
      "ital ": 4071,
      "yst": 4072,
      "TH": 4073,
      "ially ": 4074,
      "next ": 4075,
      "wer": 4076,
      "s a ": 4077,
      "employ": 4078,
      "|\n|": 4079,
      "including ": 4080,
      "include ": 4081,
      "s (": 4082,
      "vide": 4083,
      "count": 4084,
      "home ": 4085,
      "form ": 4086,
      "met": 4087,
      "if you ": 4088,
      "auth": 4089,
      "pleas": 4090,
      "mil": 4091,
      "memb": 4092,
      "on-": 4093,
      "He ": 4094,
      "enn": 4095,
      "lef": 4096,
      "exampl": 4097,
      "ush": 4098,
      "around ": 4099,
      "light": 4100,
      ", t": 4101,
      "pay": 4102,
      "ult ": 4103,
      "There ": 4104,
      "init": 4105,
      "bab": 4106,
      "return ": 4107,
      "ing t": 4108,
      "cat": 4109,
      "Cont": 4110,
      "ious ": 4111,
      "ben": 4112,
      "Man": 4113,
      "over the ": 4114,
      "fiel": 4115,
      "some": 4116,
      "hop": 4117,
      "shar": 4118,
      "room": 4119,
      "site ": 4120,
      "find": 4121,
      "is not ": 4122,
      "            ": 4123,
      "pi": 4124,
      "succ": 4125,
      "ugh": 4126,
      "e this ": 4127,
      "ion of ": 4128,
      "thing ": 4129,
      "199": 4130,
      "graph": 4131,
      "ator": 4132,
      "ether ": 4133,
      "addition": 4134,
      "Univers": 4135,
      "struct": 4136,
      "hal": 4137,
      "educ": 4138,
      "Cent": 4139,
      "hap": 4140,
      "won": 4141,
      "s with ": 4142,
      "here ": 4143,
      "al, ": 4144,
      "vo": 4145,
      "a lot ": 4146,
      "red": 4147,
      "more than ": 4148,
      "esp": 4149,
      "profess": 4150,
      ". R": 4151,
      "e to": 4152,
      "13": 4153,
      "red ": 4154,
      "ly, ": 4155,
      "Di": 4156,
      "Be": 4157,
      "seem": 4158,
      "itut": 4159,
      "ies, ": 4160,
      "ine": 4161,
      "ities": 4162,
      "dition": 4163,
      "s: ": 4164,
      "of this ": 4165,
      "olv": 4166,
      "ry ": 4167,
      "minut": 4168,
      "ump": 4169,
      "17": 4170,
      "play ": 4171,
      "support": 4172,
      "ular": 4173,
      "ounc": 4174,
      "ject ": 4175,
      " three ": 4176,
      "applic": 4177,
      "ime ": 4178,
      "early ": 4179,
      "erc": 4180,
      "hard": 4181,
      " think": 4182,
      "nor": 4183,
      "e. The ": 4184,
      "I was ": 4185,
      "25": 4186,
      "ven": 4187,
      "Nor": 4188,
      "ready ": 4189,
      "part ": 4190,
      "caus": 4191,
      ". “": 4192,
      "oot": 4193,
      "open": 4194,
      ".S": 4195,
      "s in the ": 4196,
      "EN": 4197,
      ". T": 4198,
      "ing.\n": 4199,
      "ee ": 4200,
      "rang": 4201,
      "life ": 4202,
      "__": 4203,
      "low": 4204,
      "> ": 4205,
      "offer": 4206,
      "ebr": 4207,
      "ident ": 4208,
      "/ ": 4209,
      "imag": 4210,
      "on, ": 4211,
      "u ": 4212,
      ". In": 4213,
      "wher": 4214,
      "a few ": 4215,
      "ste": 4216,
      "s t": 4217,
      "word": 4218,
      "fect ": 4219,
      ". They ": 4220,
      "Joh": 4221,
      "out the ": 4222,
      "expect": 4223,
      "used ": 4224,
      "onom": 4225,
      "does": 4226,
      "ient": 4227,
      "world ": 4228,
      "ying ": 4229,
      "plan": 4230,
      ".com": 4231,
      " there": 4232,
      "Car": 4233,
      "stu": 4234,
      "ex ": 4235,
      "Christ": 4236,
      "dro": 4237,
      "igin": 4238,
      "such as ": 4239,
      "net": 4240,
      "ures": 4241,
      "something ": 4242,
      "Pres": 4243,
      "after": 4244,
      "er to ": 4245,
      "] ": 4246,
      "event": 4247,
      "hol": 4248,
      ". It": 4249,
      "ity to ": 4250,
      "e’s ": 4251,
      "got ": 4252,
      "available ": 4253,
      "individ": 4254,
      "earch": 4255,
      "increas": 4256,
      "view ": 4257,
      "organiz": 4258,
      "ation and ": 4259,
      "const ": 4260,
      "yl": 4261,
      "ily ": 4262,
      "hour": 4263,
      "We": 4264,
      "AL": 4265,
      "ull": 4266,
      ",\" ": 4267,
      "oub": 4268,
      "feel": 4269,
      "compan": 4270,
      "solut": 4271,
      "found ": 4272,
      "provide ": 4273,
      " typ": 4274,
      "ics ": 4275,
      "e they ": 4276,
      "buil": 4277,
      "medi": 4278,
      "lov": 4279,
      "of a ": 4280,
      ". A ": 4281,
      "ak ": 4282,
      "consider": 4283,
      "class": 4284,
      "Gre": 4285,
      "working ": 4286,
      "in this ": 4287,
      "aining ": 4288,
      "20 ": 4289,
      "return": 4290,
      "rele": 4291,
      "Dr": 4292,
      "day, ": 4293,
      "online ": 4294,
      "1, ": 4295,
      "foc": 4296,
      "long ": 4297,
      "better ": 4298,
      "great": 4299,
      "simpl": 4300,
      "ner": 4301,
      "erm": 4302,
      "care ": 4303,
      "ale ": 4304,
      "Ap": 4305,
      "state ": 4306,
      "vol": 4307,
      "on a ": 4308,
      "aw ": 4309,
      "When ": 4310,
      ".\n“": 4311,
      ".\nB": 4312,
      "around": 4313,
      "less": 4314,
      "maj": 4315,
      "0.": 4316,
      "health": 4317,
      "Stat": 4318,
      "saf": 4319,
      "os ": 4320,
      "1.": 4321,
      "Y ": 4322,
      "iet": 4323,
      "stre": 4324,
      " too ": 4325,
      "pot": 4326,
      ".\nM": 4327,
      "ap ": 4328,
      "sam": 4329,
      "conf": 4330,
      "cli": 4331,
      "El": 4332,
      "ever, ": 4333,
      "it's ": 4334,
      "problem": 4335,
      "ton ": 4336,
      "ock ": 4337,
      "si": 4338,
      "////": 4339,
      "will": 4340,
      "feel ": 4341,
      "portun": 4342,
      "ason ": 4343,
      "AS": 4344,
      "meet": 4345,
      "iver": 4346,
      "viron": 4347,
      "roll": 4348,
      "nec": 4349,
      "cover": 4350,
      "countr": 4351,
      "ual": 4352,
      "sim": 4353,
      ". But ": 4354,
      "found": 4355,
      "a and ": 4356,
      "Comm": 4357,
      "ed to the ": 4358,
      "es for ": 4359,
      "free ": 4360,
      "option": 4361,
      "sug": 4362,
      "public ": 4363,
      "\n            ": 4364,
      "artic": 4365,
      "fic": 4366,
      "i-": 4367,
      "Sch": 4368,
      "would be ": 4369,
      "benef": 4370,
      "Im": 4371,
      "fron": 4372,
      "company ": 4373,
      "air ": 4374,
      "project": 4375,
      "ely": 4376,
      "good": 4377,
      "access": 4378,
      "+ ": 4379,
      " tog": 4380,
      "og ": 4381,
      ";\n    ": 4382,
      "rest": 4383,
      "itor": 4384,
      "opp": 4385,
      "keep ": 4386,
      "24": 4387,
      "'re ": 4388,
      "charg": 4389,
      ", a ": 4390,
      "uro": 4391,
      "wa": 4392,
      "case ": 4393,
      "appear": 4394,
      "claim": 4395,
      ",000 ": 4396,
      "level": 4397,
      "grad": 4398,
      "nes": 4399,
      "local ": 4400,
      "F ": 4401,
      "I’m ": 4402,
      "opportun": 4403,
      ".\"\n": 4404,
      "charact": 4405,
      "happen": 4406,
      "mater": 4407,
      " to t": 4408,
      "func": 4409,
      "American ": 4410,
      "youn": 4411,
      "pris": 4412,
      "even": 4413,
      "\nThe ": 4414,
      "acros": 4415,
      "anal": 4416,
      "imp": 4417,
      "| ": 4418,
      "pric": 4419,
      "One ": 4420,
      ", S": 4421,
      "... ": 4422,
      "has": 4423,
      "experience ": 4424,
      "since ": 4425,
      "ately ": 4426,
      "Val": 4427,
      "Fl": 4428,
      "mean": 4429,
      "desc": 4430,
      "fut": 4431,
      ",\n": 4432,
      "< ": 4433,
      "often ": 4434,
      "I have ": 4435,
      "ary": 4436,
      "read ": 4437,
      "support ": 4438,
      ".\nH": 4439,
      "detail": 4440,
      "ers. ": 4441,
      "std": 4442,
      "under ": 4443,
      "ins": 4444,
      "don't ": 4445,
      "against ": 4446,
      "alleng": 4447,
      "water ": 4448,
      "Gu": 4449,
      "forc": 4450,
      "break": 4451,
      "ific ": 4452,
      "du": 4453,
      "te": 4454,
      "I am ": 4455,
      "pag": 4456,
      "les ": 4457,
      "ermin": 4458,
      "los": 4459,
      "ection": 4460,
      "let ": 4461,
      "sum": 4462,
      "data ": 4463,
      "ct": 4464,
      "process": 4465,
      "based ": 4466,
      "augh": 4467,
      "idd": 4468,
      "already ": 4469,
      "Med": 4470,
      "may be ": 4471,
      "beaut": 4472,
      "e, the ": 4473,
      "They ": 4474,
      "ity and ": 4475,
      "econom": 4476,
      "cam": 4477,
      "mult": 4478,
      "fav": 4479,
      "CO": 4480,
      "30 ": 4481,
      "00 ": 4482,
      "ending ": 4483,
      "sing": 4484,
      "contr": 4485,
      "U.S": 4486,
      "s or ": 4487,
      "making ": 4488,
      "B ": 4489,
      "’ll ": 4490,
      "receiv": 4491,
      "Bu": 4492,
      "is an ": 4493,
      "head ": 4494,
      "bin": 4495,
      "Rep": 4496,
      "Dec": 4497,
      "it, ": 4498,
      "real ": 4499,
      "\n      ": 4500,
      "reason": 4501,
      "G ": 4502,
      "Your ": 4503,
      ". And ": 4504,
      "bar": 4505,
      "polic": 4506,
      "away ": 4507,
      "several ": 4508,
      "Sou": 4509,
      "Co": 4510,
      "ency ": 4511,
      "as well as ": 4512,
      "bur": 4513,
      "forman": 4514,
      "game ": 4515,
      "whol": 4516,
      "Serv": 4517,
      " they": 4518,
      "\r\n": 4519,
      "natur": 4520,
      "full ": 4521,
      "is to ": 4522,
      "origin": 4523,
      "itch": 4524,
      "cost": 4525,
      "std::": 4526,
      "become ": 4527,
      "ism": 4528,
      "number of ": 4529,
      "group": 4530,
      "compet": 4531,
      "priv": 4532,
      "propert": 4533,
      "actually ": 4534,
      " trad": 4535,
      "vert": 4536,
      "z ": 4537,
      "Mic": 4538,
      "Intern": 4539,
      "dom": 4540,
      "why ": 4541,
      "iter": 4542,
      "polit": 4543,
      "live ": 4544,
      "ature ": 4545,
      "reduc": 4546,
      "s from ": 4547,
      "ali": 4548,
      "ather": 4549,
      ") and ": 4550,
      "32": 4551,
      "t and ": 4552,
      "you have ": 4553,
      "book ": 4554,
      "ef ": 4555,
      "fund": 4556,
      "ized ": 4557,
      ", they ": 4558,
      "EC": 4559,
      "ograph": 4560,
      "room ": 4561,
      "out of ": 4562,
      "need ": 4563,
      "camp": 4564,
      "bi": 4565,
      "ress ": 4566,
      "start ": 4567,
      ");\n  ": 4568,
      "ype": 4569,
      "ated": 4570,
      "until ": 4571,
      "0x": 4572,
      "itive ": 4573,
      "-t": 4574,
      "ron": 4575,
      ", or ": 4576,
      "ired ": 4577,
      "ible ": 4578,
      "igg": 4579,
      "extr": 4580,
      "V ": 4581,
      "keep": 4582,
      "Bo": 4583,
      "R ": 4584,
      "action": 4585,
      "’ve ": 4586,
      "up to ": 4587,
      "was the ": 4588,
      "AC": 4589,
      " tru": 4590,
      " ther": 4591,
      "of t": 4592,
      "Cor": 4593,
      "adi": 4594,
      ", we ": 4595,
      "joy": 4596,
      "hold": 4597,
      "time ": 4598,
      "show ": 4599,
      "pack": 4600,
      "Jun": 4601,
      "aff": 4602,
      "22": 4603,
      "service ": 4604,
      "of their ": 4605,
      "ber": 4606,
      "100": 4607,
      "whil": 4608,
      "environ": 4609,
      "IT": 4610,
      "refer": 4611,
      ". G": 4612,
      "he was ": 4613,
      "pap": 4614,
      "ior ": 4615,
      "relation": 4616,
      "financ": 4617,
      "Per": 4618,
      "Is": 4619,
      "four ": 4620,
      "Cr": 4621,
      "gen": 4622,
      "sw": 4623,
      "driv": 4624,
      "ge ": 4625,
      "ument": 4626,
      "ential ": 4627,
      "Op": 4628,
      "meth": 4629,
      "important ": 4630,
      "piec": 4631,
      "strat": 4632,
      "hon": 4633,
      "ledg": 4634,
      ". \"": 4635,
      "fur": 4636,
      "cop": 4637,
      "eit": 4638,
      "United ": 4639,
      "change ": 4640,
      "cal": 4641,
      "school ": 4642,
      "challeng": 4643,
      "ID": 4644,
      "fter ": 4645,
      "ount ": 4646,
      "second ": 4647,
      "Dis": 4648,
      "osp": 4649,
      "LE": 4650,
      "spir": 4651,
      "ery ": 4652,
      "known ": 4653,
      "const": 4654,
      "mad": 4655,
      "power": 4656,
      "Can": 4657,
      "(\"": 4658,
      "suppl": 4659,
      "you to ": 4660,
      "purch": 4661,
      "Sup": 4662,
      "should be ": 4663,
      "New": 4664,
      "create ": 4665,
      "sens": 4666,
      "land ": 4667,
      "eat": 4668,
      "le, ": 4669,
      "}\n\n": 4670,
      "ical": 4671,
      "gir": 4672,
      "mom": 4673,
      "health ": 4674,
      "industr": 4675,
      "flo": 4676,
      "involv": 4677,
      "e their ": 4678,
      "ously ": 4679,
      "makes ": 4680,
      "ally, ": 4681,
      "cod": 4682,
      "learn": 4683,
      "Indi": 4684,
      "personal ": 4685,
      "condition": 4686,
      "dri": 4687,
      ").\n": 4688,
      "ory": 4689,
      "decis": 4690,
      "ator ": 4691,
      "family ": 4692,
      "scre": 4693,
      "you’re ": 4694,
      "rol ": 4695,
      "Our ": 4696,
      ". (": 4697,
      "w ": 4698,
      "Reg": 4699,
      "ished ": 4700,
      "how to ": 4701,
      "spect": 4702,
      "But ": 4703,
      "alk ": 4704,
      "cred": 4705,
      "K ": 4706,
      "a little ": 4707,
      "les": 4708,
      ". There ": 4709,
      "hor": 4710,
      "wid": 4711,
      "performan": 4712,
      ", this ": 4713,
      "social ": 4714,
      "cent ": 4715,
      " team": 4716,
      "energ": 4717,
      " through the ": 4718,
      "t the ": 4719,
      "ensive ": 4720,
      "ize ": 4721,
      "school": 4722,
      "IS": 4723,
      "sett": 4724,
      "sport": 4725,
      "record": 4726,
      "IC": 4727,
      "hy": 4728,
      "called ": 4729,
      "_t": 4730,
      "Yor": 4731,
      "Str": 4732,
      "phys": 4733,
      "kind ": 4734,
      "releas": 4735,
      "an, ": 4736,
      "person ": 4737,
      "mot": 4738,
      "in t": 4739,
      "empt": 4740,
      "che": 4741,
      "selv": 4742,
      "\t\t\t\t": 4743,
      "Rec": 4744,
      "ept ": 4745,
      "little ": 4746,
      "ments ": 4747,
      "do not ": 4748,
      "2.": 4749,
      "ed as ": 4750,
      "AM": 4751,
      "ttp": 4752,
      "kid": 4753,
      "night": 4754,
      "rac": 4755,
      "group ": 4756,
      "ird ": 4757,
      "is, ": 4758,
      "when": 4759,
      "Ob": 4760,
      "\", ": 4761,
      "agre": 4762,
      "aur": 4763,
      "alth": 4764,
      "ather ": 4765,
      "es\n": 4766,
      "Off": 4767,
      " thing": 4768,
      "say ": 4769,
      "lab": 4770,
      "cult": 4771,
      "Pol": 4772,
      "system ": 4773,
      "ing with ": 4774,
      "And": 4775,
      "aid": 4776,
      "season": 4777,
      " team ": 4778,
      "recomm": 4779,
      "ed at ": 4780,
      "uary ": 4781,
      "flu": 4782,
      "imm": 4783,
      "necess": 4784,
      "Euro": 4785,
      "load": 4786,
      "looking ": 4787,
      "light ": 4788,
      "Ro": 4789,
      "ogn": 4790,
      "-- ": 4791,
      "Sun": 4792,
      "key": 4793,
      "mem": 4794,
      "wind": 4795,
      "Engl": 4796,
      "I'm ": 4797,
      "y the ": 4798,
      "ing your ": 4799,
      "only": 4800,
      "ought ": 4801,
      "gest": 4802,
      "five ": 4803,
      "current ": 4804,
      "Jan": 4805,
      "least ": 4806,
      "http": 4807,
      "check": 4808,
      "point ": 4809,
      "De": 4810,
      "during the ": 4811,
      "====": 4812,
      "ment of ": 4813,
      "link": 4814,
      "way to ": 4815,
      "feature": 4816,
      "Tim": 4817,
      "irc": 4818,
      "getting ": 4819,
      "not be ": 4820,
      ".” ": 4821,
      "was a ": 4822,
      "or, ": 4823,
      ".m": 4824,
      " there are ": 4825,
      "All ": 4826,
      ".\n\"": 4827,
      "   ": 4828,
      "iting ": 4829,
      ");\n        ": 4830,
      "e's ": 4831,
      " they are ": 4832,
      "research ": 4833,
      "ing to the ": 4834,
      "children ": 4835,
      "accord": 4836,
      "business": 4837,
      "mess": 4838,
      "www": 4839,
      "item": 4840,
      "maint": 4841,
      "pict": 4842,
      "action ": 4843,
      "clear": 4844,
      "which": 4845,
      "question": 4846,
      "ax ": 4847,
      "iel": 4848,
      ".\nTh": 4849,
      "sess": 4850,
      "Dat": 4851,
      "exist": 4852,
      "believe ": 4853,
      "cel": 4854,
      "s, the ": 4855,
      "://": 4856,
      "food ": 4857,
      "ES": 4858,
      ", to ": 4859,
      "espec": 4860,
      "mag": 4861,
      "comput": 4862,
      "23": 4863,
      "coming ": 4864,
      "apt": 4865,
      "Ed": 4866,
      "offer ": 4867,
      "money ": 4868,
      ", you ": 4869,
      "s were ": 4870,
      " things ": 4871,
      "doub": 4872,
      "Count": 4873,
      "open ": 4874,
      "non-": 4875,
      "eral ": 4876,
      "websit": 4877,
      "If you ": 4878,
      "no": 4879,
      "40": 4880,
      "dam": 4881,
      "body ": 4882,
      "As ": 4883,
      "are the ": 4884,
      "dig": 4885,
      "illi": 4886,
      "meas": 4887,
      "market ": 4888,
      "ware ": 4889,
      "Min": 4890,
      "e, but ": 4891,
      "students ": 4892,
      "once ": 4893,
      "Chin": 4894,
      "last": 4895,
      "pati": 4896,
      "etim": 4897,
      "\nS": 4898,
      "decid": 4899,
      "review": 4900,
      "quality ": 4901,
      "author": 4902,
      "Get": 4903,
      "a lot of ": 4904,
      "rul": 4905,
      "level ": 4906,
      "Dep": 4907,
      "e tim": 4908,
      "spac": 4909,
      "ld ": 4910,
      "left ": 4911,
      "My ": 4912,
      "secur": 4913,
      "fail": 4914,
      "soft": 4915,
      " than": 4916,
      "mis": 4917,
      "be the ": 4918,
      "cours": 4919,
      "Nov": 4920,
      "New Yor": 4921,
      "ards ": 4922,
      "ecut": 4923,
      "enjoy": 4924,
      "ask ": 4925,
      "ural ": 4926,
      "ness ": 4927,
      "www.": 4928,
      "following ": 4929,
      "roc": 4930,
      "pan": 4931,
      "How": 4932,
      "becom": 4933,
      "one of ": 4934,
      "week ": 4935,
      "small ": 4936,
      "important": 4937,
      "ord ": 4938,
      "ton": 4939,
      "Se": 4940,
      "account": 4941,
      "video ": 4942,
      "came ": 4943,
      "watch": 4944,
      "walk": 4945,
      "cut": 4946,
      "hard ": 4947,
      "e that": 4948,
      "ether": 4949,
      "plat": 4950,
      "design ": 4951,
      "80": 4952,
      "stand ": 4953,
      "ike ": 4954,
      "face ": 4955,
      " trav": 4956,
      "in your ": 4957,
      "quick": 4958,
      "RO": 4959,
      "particip": 4960,
      "Des": 4961,
      "strateg": 4962,
      "going ": 4963,
      "60": 4964,
      "connect": 4965,
      "12 ": 4966,
      "ified ": 4967,
      "big ": 4968,
      "ink ": 4969,
      ". She ": 4970,
      "ym": 4971,
      "name ": 4972,
      "million ": 4973,
      "position": 4974,
      "ipl": 4975,
      "Inst": 4976,
      "direc": 4977,
      "ength": 4978,
      "step": 4979,
      "mind": 4980,
      "ed t": 4981,
      "done ": 4982,
      "compar": 4983,
      "understand": 4984,
      "ants ": 4985,
      " that is ": 4986,
      "firm": 4987,
      "angu": 4988,
      "ains ": 4989,
      "ers are ": 4990,
      "does not ": 4991,
      "run ": 4992,
      "and then ": 4993,
      "having ": 4994,
      "diffic": 4995,
      "bill": 4996,
      "Sec": 4997,
      ". J": 4998,
      "during ": 4999,
      "ward ": 5000,
      "beautif": 5001,
      "imin": 5002,
      "1-": 5003,
      "in their ": 5004,
      "ift": 5005,
      " the t": 5006,
      "almost ": 5007,
      "es, and ": 5008,
      "olut": 5009,
      "probab": 5010,
      "y t": 5011,
      "aver": 5012,
      "Mc": 5013,
      "women ": 5014,
      "uniqu": 5015,
      "audi": 5016,
      "m_": 5017,
      "National ": 5018,
      "How ": 5019,
      "Mus": 5020,
      "fig": 5021,
      "key ": 5022,
      "...\n": 5023,
      "State ": 5024,
      "CH": 5025,
      "ourn": 5026,
      "oci": 5027,
      "es a ": 5028,
      "urs": 5029,
      "prett": 5030,
      "beh": 5031,
      "short": 5032,
      "ate the ": 5033,
      "determin": 5034,
      "call ": 5035,
      "y-": 5036,
      ":\n- ": 5037,
      "vot": 5038,
      "ism ": 5039,
      "ministr": 5040,
      "success": 5041,
      "ained ": 5042,
      "ices ": 5043,
      "ility ": 5044,
      ". For ": 5045,
      "bat": 5046,
      "we are ": 5047,
      "Ge": 5048,
      "s to the ": 5049,
      "it to ": 5050,
      "along ": 5051,
      "Aug": 5052,
      "ffer": 5053,
      "government ": 5054,
      "norm": 5055,
      "improv": 5056,
      "ric ": 5057,
      "Em": 5058,
      "lease ": 5059,
      "please ": 5060,
      "ing this ": 5061,
      "un ": 5062,
      "ney ": 5063,
      "far ": 5064,
      ". Al": 5065,
      "regard": 5066,
      "anim": 5067,
      "unch": 5068,
      "Gl": 5069,
      "fill": 5070,
      "Don": 5071,
      "noth": 5072,
      "ets ": 5073,
      "got": 5074,
      "27": 5075,
      "special ": 5076,
      "John ": 5077,
      "area ": 5078,
      "With ": 5079,
      "past ": 5080,
      "responsib": 5081,
      "achi": 5082,
      "aint": 5083,
      "human ": 5084,
      "house ": 5085,
      "sty": 5086,
      "It’s ": 5087,
      "is that ": 5088,
      "Ab": 5089,
      "t, ": 5090,
      "er is ": 5091,
      "50 ": 5092,
      "function": 5093,
      "major ": 5094,
      "used to ": 5095,
      "ended ": 5096,
      "ured ": 5097,
      "er in ": 5098,
      "data": 5099,
      "someone ": 5100,
      "previ": 5101,
      "age": 5102,
      "studi": 5103,
      "15 ": 5104,
      "kill": 5105,
      "ering ": 5106,
      " thes": 5107,
      "field": 5108,
      "ian": 5109,
      "********": 5110,
      "ense ": 5111,
      "ox": 5112,
      "log": 5113,
      "T_": 5114,
      "26": 5115,
      "may": 5116,
      "Bar": 5117,
      "comes ": 5118,
      "s\n- ": 5119,
      "hot": 5120,
      "went ": 5121,
      " tri": 5122,
      "around the ": 5123,
      "cy": 5124,
      "print": 5125,
      "of these ": 5126,
      "inf": 5127,
      "young ": 5128,
      "seen ": 5129,
      "ouse": 5130,
      "ley ": 5131,
      "b ": 5132,
      "has a ": 5133,
      "spr": 5134,
      "mu": 5135,
      "ull ": 5136,
      "rot": 5137,
      "s at ": 5138,
      "part of ": 5139,
      "control ": 5140,
      "various ": 5141,
      "enough": 5142,
      "associ": 5143,
      "clus": 5144,
      "ital": 5145,
      "== ": 5146,
      "plann": 5147,
      " there is ": 5148,
      "im ": 5149,
      "Dev": 5150,
      "combin": 5151,
      "ered ": 5152,
      "quite ": 5153,
      "win": 5154,
      "contact ": 5155,
      "represent": 5156,
      "active ": 5157,
      "men": 5158,
      "er.\n": 5159,
      "draw": 5160,
      "rid": 5161,
      "SE": 5162,
      "Mat": 5163,
      "UN": 5164,
      "28": 5165,
      "suggest": 5166,
      "crit": 5167,
      "discuss": 5168,
      "round": 5169,
      "dest": 5170,
      "want ": 5171,
      "public": 5172,
      "material": 5173,
      "especially ": 5174,
      "but the ": 5175,
      "ements ": 5176,
      " turn": 5177,
      "you will ": 5178,
      "xim": 5179,
      "and, ": 5180,
      "arch": 5181,
      "s.\nThe ": 5182,
      "e. S": 5183,
      "cast": 5184,
      ";\n        ": 5185,
      "establ": 5186,
      "sequ": 5187,
      "night ": 5188,
      "care": 5189,
      "ying to ": 5190,
      "favor": 5191,
      " to a ": 5192,
      "har": 5193,
      "lock": 5194,
      "ed from ": 5195,
      "yn": 5196,
      "guid": 5197,
      "purpos": 5198,
      "mental ": 5199,
      "oog": 5200,
      "road": 5201,
      "better": 5202,
      "jur": 5203,
      "prepar": 5204,
      "roduc": 5205,
      "eful": 5206,
      " today": 5207,
      "doing ": 5208,
      "Fin": 5209,
      "fully ": 5210,
      "U ": 5211,
      "ures ": 5212,
      "load ": 5213,
      "Dav": 5214,
      "ufact": 5215,
      "ages ": 5216,
      "concern": 5217,
      ". How": 5218,
      "aking ": 5219,
      "promot": 5220,
      "program ": 5221,
      "special": 5222,
      "histor": 5223,
      "pretty ": 5224,
      "bit": 5225,
      "recogn": 5226,
      "whole ": 5227,
      "ball ": 5228,
      "ing their ": 5229,
      "Am": 5230,
      "bir": 5231,
      "skill": 5232,
      "prove ": 5233,
      "2, ": 5234,
      "product ": 5235,
      "LL": 5236,
      "date ": 5237,
      "second": 5238,
      "God": 5239,
      "<< ": 5240,
      "Manag": 5241,
      "power ": 5242,
      "communic": 5243,
      "ark": 5244,
      "0, ": 5245,
      "move ": 5246,
      "ource ": 5247,
      "Stre": 5248,
      "AP": 5249,
      "ty ": 5250,
      "Te": 5251,
      "announc": 5252,
      "perfect ": 5253,
      "student": 5254,
      "hic": 5255,
      "ector": 5256,
      "s. S": 5257,
      "ont": 5258,
      "ash ": 5259,
      ", that ": 5260,
      ", it ": 5261,
      "consum": 5262,
      "either ": 5263,
      "er-": 5264,
      "Tu": 5265,
      "ner ": 5266,
      "within ": 5267,
      "Oct": 5268,
      "den": 5269,
      "on your ": 5270,
      "29": 5271,
      " test": 5272,
      "model": 5273,
      "Mod": 5274,
      "Vi": 5275,
      "es in the ": 5276,
      "pay ": 5277,
      "wel": 5278,
      "past": 5279,
      "In the ": 5280,
      "e is ": 5281,
      "ate": 5282,
      "for your ": 5283,
      "ion and ": 5284,
      "• ": 5285,
      "Fac": 5286,
      "didn’t ": 5287,
      "Apr": 5288,
      "ies and ": 5289,
      "edd": 5290,
      "s. Th": 5291,
      "obal ": 5292,
      "members ": 5293,
      "otal ": 5294,
      "bal": 5295,
      "winn": 5296,
      "ers to ": 5297,
      "knowledg": 5298,
      "or the ": 5299,
      "ipp": 5300,
      "ental ": 5301,
      "ay, ": 5302,
      "'ll ": 5303,
      "3.": 5304,
      "when the ": 5305,
      "ists ": 5306,
      "main ": 5307,
      "probably ": 5308,
      "egr": 5309,
      "Ju": 5310,
      "etc": 5311,
      "host": 5312,
      "defin": 5313,
      "half ": 5314,
      "reach": 5315,
      "kind of ": 5316,
      "or of ": 5317,
      "project ": 5318,
      "ier ": 5319,
      "198": 5320,
      "we have ": 5321,
      "Rob": 5322,
      "would": 5323,
      "ation of the ": 5324,
      "fel": 5325,
      "Wat": 5326,
      "eed": 5327,
      "Rev": 5328,
      "sor": 5329,
      "visit": 5330,
      "financial ": 5331,
      "reli": 5332,
      "prim": 5333,
      "men ": 5334,
      "cell": 5335,
      "and to ": 5336,
      "omat": 5337,
      "ral ": 5338,
      "company": 5339,
      "y is ": 5340,
      "situ": 5341,
      ", C": 5342,
      "io ": 5343,
      "ther": 5344,
      "best": 5345,
      "job ": 5346,
      "ing\n": 5347,
      "music ": 5348,
      "far": 5349,
      "community ": 5350,
      "contribut": 5351,
      "leav": 5352,
      "LO": 5353,
      "share ": 5354,
      "No": 5355,
      "sle": 5356,
      "check ": 5357,
      "99": 5358,
      "which is ": 5359,
      "en to ": 5360,
      "bott": 5361,
      "ness": 5362,
      "ts ": 5363,
      "deg": 5364,
      "fast": 5365,
      "cou": 5366,
      "On ": 5367,
      "64": 5368,
      "e. I ": 5369,
      "row ": 5370,
      "EX": 5371,
      "ing is ": 5372,
      "jud": 5373,
      "Fir": 5374,
      "information": 5375,
      "at least ": 5376,
      "No ": 5377,
      "days ": 5378,
      "sci": 5379,
      "ub ": 5380,
      "soci": 5381,
      "percent ": 5382,
      "Web": 5383,
      "asp": 5384,
      "May ": 5385,
      "hib": 5386,
      " to take ": 5387,
      "ge": 5388,
      "W ": 5389,
      "effort": 5390,
      "e. Th": 5391,
      "Acc": 5392,
      "aren": 5393,
      "object": 5394,
      "es (": 5395,
      "sell": 5396,
      "circ": 5397,
      "ground ": 5398,
      "deliver": 5399,
      "ion to ": 5400,
      "Frid": 5401,
      "above ": 5402,
      "ations, ": 5403,
      "offers ": 5404,
      "could": 5405,
      "mach": 5406,
      "purchas": 5407,
      "flow": 5408,
      "ens ": 5409,
      "specific ": 5410,
      "ability ": 5411,
      " tw": 5412,
      "field ": 5413,
      "wonder": 5414,
      "natural ": 5415,
      ".\nI ": 5416,
      "Us": 5417,
      "install": 5418,
      "process ": 5419,
      "practic": 5420,
      "ground": 5421,
      "path": 5422,
      "cost ": 5423,
      "Comp": 5424,
      "whether ": 5425,
      "a sm": 5426,
      "simply ": 5427,
      "de ": 5428,
      "heav": 5429,
      "recent ": 5430,
      "i, ": 5431,
      " that they ": 5432,
      "scen": 5433,
      "order ": 5434,
      "e in ": 5435,
      "y, and ": 5436,
      "learn ": 5437,
      "age of ": 5438,
      "board ": 5439,
      "says ": 5440,
      "viol": 5441,
      "Mor": 5442,
      "block": 5443,
      "ION": 5444,
      "mer ": 5445,
      "Ev": 5446,
      "like to ": 5447,
      "deal": 5448,
      "everything ": 5449,
      "eff": 5450,
      "3-": 5451,
      "usually ": 5452,
      "led ": 5453,
      "again ": 5454,
      "e.\nThe ": 5455,
      "girl": 5456,
      "ess, ": 5457,
      "Sm": 5458,
      "I’ve ": 5459,
      "after the ": 5460,
      "Cour": 5461,
      "present ": 5462,
      "part of the ": 5463,
      "perform": 5464,
      ", th": 5465,
      "ry": 5466,
      "NO": 5467,
      ". When ": 5468,
      "eter": 5469,
      "70": 5470,
      "ath ": 5471,
      "writt": 5472,
      "phone ": 5473,
      "wide ": 5474,
      "below": 5475,
      "God ": 5476,
      "position ": 5477,
      "event ": 5478,
      "Pe": 5479,
      "Fil": 5480,
      "ball": 5481,
      "order to ": 5482,
      "ystem": 5483,
      "indic": 5484,
      "s to be ": 5485,
      "cook": 5486,
      "inste": 5487,
      "ordin": 5488,
      "ark ": 5489,
      "ember": 5490,
      "receive ": 5491,
      "given ": 5492,
      "held ": 5493,
      "sav": 5494,
      "surv": 5495,
      "ren": 5496,
      "research": 5497,
      ".\nL": 5498,
      "US ": 5499,
      "ict ": 5500,
      "few ": 5501,
      "'ve ": 5502,
      ",\n        ": 5503,
      "langu": 5504,
      "adem": 5505,
      "pick": 5506,
      "21": 5507,
      "low ": 5508,
      ", 200": 5509,
      "ez": 5510,
      "It is ": 5511,
      "phon": 5512,
      "vehic": 5513,
      "quart": 5514,
      "( ": 5515,
      "resourc": 5516,
      "canc": 5517,
      "lex": 5518,
      "in-": 5519,
      "2-": 5520,
      "uk": 5521,
      "doesn’t ": 5522,
      "further ": 5523,
      ". It is ": 5524,
      "introduc": 5525,
      "mob": 5526,
      "imate ": 5527,
      "under the ": 5528,
      "age, ": 5529,
      "Ag": 5530,
      "dre": 5531,
      "else ": 5532,
      "Ger": 5533,
      "fa": 5534,
      "ed to be ": 5535,
      "professional ": 5536,
      "prec": 5537,
      "ainly ": 5538,
      "hug": 5539,
      "e for ": 5540,
      "amaz": 5541,
      "signific": 5542,
      "agg": 5543,
      "Publ": 5544,
      "in, ": 5545,
      "e)": 5546,
      "ing on ": 5547,
      "fric": 5548,
      "season ": 5549,
      "sen": 5550,
      "AD": 5551,
      "could be ": 5552,
      "scor": 5553,
      "some of the ": 5554,
      "method": 5555,
      "ip ": 5556,
      "ru": 5557,
      "ies of ": 5558,
      "Inter": 5559,
      "uck ": 5560,
      "a new ": 5561,
      "Sept": 5562,
      "film": 5563,
      "media ": 5564,
      "accept": 5565,
      "assist": 5566,
      ", then ": 5567,
      "protect": 5568,
      "Ind": 5569,
      "insur": 5570,
      "ment, ": 5571,
      "common ": 5572,
      "legal ": 5573,
      "manufact": 5574,
      "Not": 5575,
      "variet": 5576,
      "ino ": 5577,
      "ol ": 5578,
      "leave ": 5579,
      "color": 5580,
      "World ": 5581,
      "email": 5582,
      "Up": 5583,
      "y\n": 5584,
      "lic": 5585,
      "sou": 5586,
      "possible ": 5587,
      "have the ": 5588,
      "fal": 5589,
      "ify ": 5590,
      " thre": 5591,
      "board": 5592,
      "word ": 5593,
      "5-": 5594,
      "Gener": 5595,
      "South ": 5596,
      "North ": 5597,
      "Po": 5598,
      "es of the ": 5599,
      "much": 5600,
      "particular": 5601,
      "regul": 5602,
      "large ": 5603,
      "food": 5604,
      ".\" ": 5605,
      "post ": 5606,
      "did not ": 5607,
      "\t\t\t": 5608,
      "most": 5609,
      ";\n  ": 5610,
      "foot": 5611,
      "et, ": 5612,
      "bud": 5613,
      "others ": 5614,
      "ouch": 5615,
      "box": 5616,
      "squ": 5617,
      "Char": 5618,
      "us, ": 5619,
      "s like ": 5620,
      "wall": 5621,
      "Hous": 5622,
      "course ": 5623,
      "But": 5624,
      "rup": 5625,
      "sun": 5626,
      "yet ": 5627,
      "water": 5628,
      "she": 5629,
      ". As ": 5630,
      "d, ": 5631,
      "Bus": 5632,
      "ah ": 5633,
      "rough": 5634,
      "hand ": 5635,
      "short ": 5636,
      "March ": 5637,
      "avo": 5638,
      "e of the ": 5639,
      "At": 5640,
      "ia, ": 5641,
      "Mr": 5642,
      "black ": 5643,
      "and that ": 5644,
      "All": 5645,
      "content ": 5646,
      " together ": 5647,
      "void ": 5648,
      "rate ": 5649,
      "ong the ": 5650,
      "es with ": 5651,
      "respond": 5652,
      "original ": 5653,
      "attent": 5654,
      "match": 5655,
      "es on ": 5656,
      "star": 5657,
      "blog": 5658,
      "You can ": 5659,
      "sex": 5660,
      "N ": 5661,
      "limit": 5662,
      ".\nD": 5663,
      "within the ": 5664,
      "lot": 5665,
      "execut": 5666,
      "can’t ": 5667,
      "mitt": 5668,
      "respect": 5669,
      "11 ": 5670,
      "currently ": 5671,
      "website ": 5672,
      "celebr": 5673,
      "Canad": 5674,
      "diseas": 5675,
      "medical ": 5676,
      "all of ": 5677,
      "X ": 5678,
      "#include ": 5679,
      "immedi": 5680,
      "fall": 5681,
      "http://": 5682,
      "I think ": 5683,
      "make s": 5684,
      "at a ": 5685,
      "ED": 5686,
      "fol": 5687,
      ".\nThis ": 5688,
      "ag ": 5689,
      "ert ": 5690,
      "email ": 5691,
      "drug": 5692,
      "integr": 5693,
      "final ": 5694,
      "3, ": 5695,
      "simil": 5696,
      "development ": 5697,
      "strong ": 5698,
      "comfort": 5699,
      ". On": 5700,
      "ium ": 5701,
      "approach": 5702,
      "....": 5703,
      "everyone ": 5704,
      "allow ": 5705,
      "class ": 5706,
      "y’s ": 5707,
      "buy ": 5708,
      "add ": 5709,
      "ers of ": 5710,
      "oil": 5711,
      "amb": 5712,
      ". It’s ": 5713,
      "s, but ": 5714,
      "ich": 5715,
      "ance, ": 5716,
      "echnology ": 5717,
      ". So ": 5718,
      "private ": 5719,
      ". K": 5720,
      "consist": 5721,
      "must be ": 5722,
      "like the ": 5723,
      "Austr": 5724,
      "rais": 5725,
      "additional ": 5726,
      "analys": 5727,
      "deal ": 5728,
      "Goog": 5729,
      "Pa": 5730,
      "edul": 5731,
      "Associ": 5732,
      "role ": 5733,
      "stay ": 5734,
      "sil": 5735,
      "ling ": 5736,
      "story ": 5737,
      "er for ": 5738,
      "page ": 5739,
      "enter": 5740,
      "100 ": 5741,
      "rap": 5742,
      "IM": 5743,
      "speak": 5744,
      "sist": 5745,
      "unch ": 5746,
      "rit": 5747,
      "rout": 5748,
      " tran": 5749,
      "car ": 5750,
      "near": 5751,
      "remov": 5752,
      "his": 5753,
      "4.": 5754,
      "forward": 5755,
      "started ": 5756,
      "marri": 5757,
      "num": 5758,
      "ers.\n": 5759,
      "UR": 5760,
      "Octob": 5761,
      "////////": 5762,
      "effici": 5763,
      "different": 5764,
      "super": 5765,
      "Pat": 5766,
      "when you ": 5767,
      "Soc": 5768,
      "1/": 5769,
      "Int": 5770,
      "means ": 5771,
      "extrem": 5772,
      "Isl": 5773,
      "cand": 5774,
      "e.</w>": 5775,
      "up the ": 5776,
      "clean": 5777,
      "Mark": 5778,
      "law ": 5779,
      "ederal ": 5780,
      "beautiful ": 5781,
      "June ": 5782,
      "countri": 5783,
      "had a ": 5784,
      "brow": 5785,
      "had been ": 5786,
      "ref": 5787,
      "plan ": 5788,
      ".\nIn ": 5789,
      "or to ": 5790,
      "problem ": 5791,
      "hold ": 5792,
      "swe": 5793,
      "sym": 5794,
      "agu": 5795,
      "we can ": 5796,
      "Rel": 5797,
      "interest ": 5798,
      "request": 5799,
      "Part": 5800,
      "that ": 5801,
      "s)": 5802,
      "Wind": 5803,
      "Chec": 5804,
      " took ": 5805,
      "eful ": 5806,
      "devic": 5807,
      "ed to": 5808,
      "Cre": 5809,
      "report ": 5810,
      "Afric": 5811,
      "from a ": 5812,
      "36": 5813,
      "recommend": 5814,
      "against": 5815,
      "separ": 5816,
      "expert": 5817,
      "attr": 5818,
      "uring ": 5819,
      "anything ": 5820,
      "select": 5821,
      "alt": 5822,
      "former ": 5823,
      "April ": 5824,
      "sat": 5825,
      "deb": 5826,
      "performance ": 5827,
      "Jam": 5828,
      "Brit": 5829,
      "aid ": 5830,
      "appoint": 5831,
      "ustri": 5832,
      "ins ": 5833,
      "ion of the ": 5834,
      "sinc": 5835,
      "if the ": 5836,
      "encour": 5837,
      "parent": 5838,
      "ic, ": 5839,
      "’t": 5840,
      "study ": 5841,
      "employe": 5842,
      "conduc": 5843,
      "Add": 5844,
      "sent": 5845,
      "express": 5846,
      "There are ": 5847,
      "services ": 5848,
      "difficult": 5849,
      "urr": 5850,
      "aily ": 5851,
      "ing, and ": 5852,
      "it and ": 5853,
      "joy ": 5854,
      "complete ": 5855,
      "der ": 5856,
      "management ": 5857,
      "white ": 5858,
      "Type": 5859,
      "alth ": 5860,
      "get the ": 5861,
      "Del": 5862,
      " train": 5863,
      "child": 5864,
      "individual ": 5865,
      ". These ": 5866,
      "() ": 5867,
      "in my ": 5868,
      "bon": 5869,
      "political ": 5870,
      "Art": 5871,
      "abor": 5872,
      "lay": 5873,
      "a\n": 5874,
      "investig": 5875,
      "enough ": 5876,
      "Grou": 5877,
      "idence ": 5878,
      "ago": 5879,
      "cup": 5880,
      "on this ": 5881,
      "between the ": 5882,
      "Har": 5883,
      "distribut": 5884,
      "entire ": 5885,
      "e? ": 5886,
      "astic ": 5887,
      ". That ": 5888,
      "door ": 5889,
      "U.S. ": 5890,
      "describ": 5891,
      "kind": 5892,
      "facil": 5893,
      "a-": 5894,
      " themselv": 5895,
      "risk ": 5896,
      "companies ": 5897,
      "Satur": 5898,
      "rough ": 5899,
      "er’s ": 5900,
      "July ": 5901,
      "national ": 5902,
      "committ": 5903,
      "usp": 5904,
      "5, ": 5905,
      "a’s ": 5906,
      "gave ": 5907,
      "shop": 5908,
      "sn": 5909,
      "away": 5910,
      "front ": 5911,
      " treat": 5912,
      "Direct": 5913,
      " tow": 5914,
      "emerg": 5915,
      "push": 5916,
      "ence, ": 5917,
      "cit": 5918,
      "eption": 5919,
      "created ": 5920,
      "shall ": 5921,
      "onlin": 5922,
      "are t": 5923,
      "antly ": 5924,
      "build ": 5925,
      "else": 5926,
      "top ": 5927,
      "propos": 5928,
      "king ": 5929,
      "beginn": 5930,
      "Depart": 5931,
      "s on the ": 5932,
      "s-": 5933,
      "nic": 5934,
      "matter ": 5935,
      "IL": 5936,
      "agn": 5937,
      "provides ": 5938,
      "s) ": 5939,
      "ingly ": 5940,
      "energy ": 5941,
      "Commun": 5942,
      "six ": 5943,
      "CE": 5944,
      "itional ": 5945,
      "general ": 5946,
      "pet": 5947,
      "collect": 5948,
      "anch": 5949,
      "next": 5950,
      "sometim": 5951,
      "With": 5952,
      "mix": 5953,
      "who are ": 5954,
      "card": 5955,
      ".\nP": 5956,
      "ang ": 5957,
      "colleg": 5958,
      "TR": 5959,
      "sourc": 5960,
      "web ": 5961,
      "campa": 5962,
      "space ": 5963,
      "written ": 5964,
      "error": 5965,
      "popular ": 5966,
      "chanc": 5967,
      " that’s ": 5968,
      "25 ": 5969,
      "AB": 5970,
      ", B": 5971,
      " tool": 5972,
      ", so ": 5973,
      "ed up ": 5974,
      "ively ": 5975,
      "latest ": 5976,
      "mission ": 5977,
      "util": 5978,
      "across the ": 5979,
      "iction": 5980,
      "prog": 5981,
      "Sal": 5982,
      "future ": 5983,
      ". St": 5984,
      "plant": 5985,
      "excell": 5986,
      ".\nT": 5987,
      "New York ": 5988,
      "who": 5989,
      " teach": 5990,
      "bigg": 5991,
      "ing in the ": 5992,
      "aff ": 5993,
      "advant": 5994,
      "child ": 5995,
      "ing of the ": 5996,
      "ance of ": 5997,
      "els ": 5998,
      "affect": 5999,
      "weight ": 6000,
      "cros": 6001,
      "band ": 6002,
      "ier": 6003,
      "as an ": 6004,
      "for this ": 6005,
      "Prof": 6006,
      "President ": 6007,
      "house": 6008,
      "Me": 6009,
      "From ": 6010,
      "Out": 6011,
      "unc": 6012,
      "win ": 6013,
      "Ir": 6014,
      "chur": 6015,
      "idea ": 6016,
      "havi": 6017,
      "ift ": 6018,
      "uth": 6019,
      "in 201": 6020,
      "focus ": 6021,
      "influ": 6022,
      "international ": 6023,
      "bank": 6024,
      "sure ": 6025,
      "Do ": 6026,
      "back to ": 6027,
      "stri": 6028,
      "univers": 6029,
      "self-": 6030,
      "creat": 6031,
      "acqu": 6032,
      "believ": 6033,
      "radi": 6034,
      "Europe": 6035,
      "ably ": 6036,
      "comment": 6037,
      "ife ": 6038,
      "potential ": 6039,
      "tion of ": 6040,
      "effective ": 6041,
      "ess. ": 6042,
      ".h": 6043,
      "replac": 6044,
      "via ": 6045,
      "craf": 6046,
      "sound": 6047,
      ".\nC": 6048,
      "forn": 6049,
      "improve ": 6050,
      ")\n- ": 6051,
      "as well": 6052,
      "nation": 6053,
      "s’ ": 6054,
      "ix ": 6055,
      "document": 6056,
      "ford": 6057,
      "197": 6058,
      "had to ": 6059,
      "use of ": 6060,
      "ago ": 6061,
      "popul": 6062,
      "based on ": 6063,
      "advanc": 6064,
      "aliforn": 6065,
      "profession": 6066,
      "mid": 6067,
      "Vis": 6068,
      ", he ": 6069,
      "gradu": 6070,
      "strong": 6071,
      "ech ": 6072,
      "agr": 6073,
      "convers": 6074,
      "meet ": 6075,
      "sych": 6076,
      "bed": 6077,
      "4-": 6078,
      "THE ": 6079,
      "into a ": 6080,
      "thern ": 6081,
      "subject": 6082,
      "minim": 6083,
      "and th": 6084,
      "anyone ": 6085,
      "cul": 6086,
      "earn": 6087,
      "IG": 6088,
      "Ne": 6089,
      "35": 6090,
      "School ": 6091,
      "Sk": 6092,
      "suit": 6093,
      "ript": 6094,
      "building ": 6095,
      "mission": 6096,
      "West": 6097,
      "c ": 6098,
      "a good ": 6099,
      "Ser": 6100,
      "ability to ": 6101,
      "!!": 6102,
      "4, ": 6103,
      "fram": 6104,
      "es. The ": 6105,
      "Ang": 6106,
      "it of ": 6107,
      "particular ": 6108,
      "emot": 6109,
      "To": 6110,
      "nov": 6111,
      "ed his ": 6112,
      "s is ": 6113,
      "step ": 6114,
      "areas ": 6115,
      "E_": 6116,
      "e there ": 6117,
      "at’s ": 6118,
      "ic and ": 6119,
      "yt": 6120,
      "didn't ": 6121,
      "aj": 6122,
      "wood ": 6123,
      "a larg": 6124,
      "rest ": 6125,
      "children": 6126,
      "acy ": 6127,
      "IP": 6128,
      "city ": 6129,
      "ure, ": 6130,
      "oud": 6131,
      "went": 6132,
      "be t": 6133,
      "emper": 6134,
      "enh": 6135,
      "iddle ": 6136,
      "Colleg": 6137,
      "udi": 6138,
      "in our ": 6139,
      ".\nF": 6140,
      "Mo": 6141,
      "late ": 6142,
      "refl": 6143,
      " talk": 6144,
      "appropri": 6145,
      "gar": 6146,
      "should": 6147,
      " trying to ": 6148,
      "Ear": 6149,
      "discover": 6150,
      "small": 6151,
      "attempt": 6152,
      "value ": 6153,
      "Wash": 6154,
      "iness ": 6155,
      ". If you ": 6156,
      "fore ": 6157,
      "shap": 6158,
      "bring ": 6159,
      "rop": 6160,
      "with your ": 6161,
      "wood": 6162,
      "ation is ": 6163,
      "1,": 6164,
      "iple ": 6165,
      "control": 6166,
      "relat": 6167,
      "updat": 6168,
      "dog": 6169,
      "publish": 6170,
      "ons ": 6171,
      "ype ": 6172,
      "recently ": 6173,
      "ys ": 6174,
      "fix": 6175,
      "By ": 6176,
      "90": 6177,
      "Loc": 6178,
      "running ": 6179,
      "construc": 6180,
      "equip": 6181,
      "paint": 6182,
      "global ": 6183,
      "four": 6184,
      "ings, ": 6185,
      "ted ": 6186,
      "Act": 6187,
      " taking ": 6188,
      "depart": 6189,
      "doct": 6190,
      "conv": 6191,
      "chem": 6192,
      "exact": 6193,
      "Net": 6194,
      "k, ": 6195,
      "II": 6196,
      "unique ": 6197,
      "Faceb": 6198,
      "search ": 6199,
      "been": 6200,
      "pain": 6201,
      "includes ": 6202,
      ", “": 6203,
      " that I ": 6204,
      "commerc": 6205,
      "subst": 6206,
      "result ": 6207,
      "stop ": 6208,
      "Bas": 6209,
      "urb": 6210,
      "ed out ": 6211,
      "exper": 6212,
      "specific": 6213,
      "among ": 6214,
      "located ": 6215,
      "regist": 6216,
      "help you ": 6217,
      "s.\n- ": 6218,
      "price ": 6219,
      "notic": 6220,
      "amm": 6221,
      "you're ": 6222,
      " that you ": 6223,
      "War": 6224,
      "mic": 6225,
      "engag": 6226,
      "style ": 6227,
      "or and ": 6228,
      "ce": 6229,
      "ony ": 6230,
      "hosp": 6231,
      "and they ": 6232,
      "Austral": 6233,
      "ought": 6234,
      "))": 6235,
      "Inc": 6236,
      "join": 6237,
      "medic": 6238,
      "ab ": 6239,
      "Post": 6240,
      "save ": 6241,
      "37": 6242,
      "on and ": 6243,
      "H ": 6244,
      "Sen": 6245,
      "s.</w>": 6246,
      "cannot ": 6247,
      "ference ": 6248,
      ": The ": 6249,
      "a great ": 6250,
      "choos": 6251,
      "ows ": 6252,
      "clin": 6253,
      "arriv": 6254,
      "to": 6255,
      "depend": 6256,
      "ue": 6257,
      "rather": 6258,
      "ump ": 6259,
      "carri": 6260,
      "es from ": 6261,
      "It's ": 6262,
      "Georg": 6263,
      "Of ": 6264,
      "e. This ": 6265,
      "brid": 6266,
      "in his ": 6267,
      "Dem": 6268,
      "es. ": 6269,
      "safet": 6270,
      "th of ": 6271,
      "oft ": 6272,
      ", who ": 6273,
      "ina ": 6274,
      "history ": 6275,
      "brok": 6276,
      "ore": 6277,
      "University of ": 6278,
      "io": 6279,
      "arget": 6280,
      "and their ": 6281,
      "oud ": 6282,
      "stra": 6283,
      "address": 6284,
      "mind ": 6285,
      "Jap": 6286,
      "ush ": 6287,
      "ver ": 6288,
      "ount of ": 6289,
      "oot ": 6290,
      "plic": 6291,
      "finish": 6292,
      "goal": 6293,
      "party ": 6294,
      "er than ": 6295,
      "aster ": 6296,
      "Fre": 6297,
      "oil ": 6298,
      "administr": 6299,
      "Not ": 6300,
      "restaur": 6301,
      "ed with the ": 6302,
      "drive ": 6303,
      "obt": 6304,
      "with an ": 6305,
      "area": 6306,
      "Pal": 6307,
      "wear": 6308,
      "earli": 6309,
      "6-": 6310,
      "Pre": 6311,
      "attack": 6312,
      "capt": 6313,
      "John": 6314,
      "camer": 6315,
      "eph": 6316,
      "ers in ": 6317,
      "ster": 6318,
      "urg": 6319,
      "International ": 6320,
      "see the ": 6321,
      "s/": 6322,
      "After ": 6323,
      "due to ": 6324,
      "Er": 6325,
      " thought ": 6326,
      "article ": 6327,
      "TE": 6328,
      "Well": 6329,
      ", as ": 6330,
      "high-": 6331,
      "Def": 6332,
      "s have ": 6333,
      ". But": 6334,
      "neigh": 6335,
      "ER ": 6336,
      "money": 6337,
      "contract": 6338,
      "occur": 6339,
      "Chr": 6340,
      "recip": 6341,
      "princ": 6342,
      "zz": 6343,
      "8, ": 6344,
      "5.": 6345,
      "January ": 6346,
      "ones ": 6347,
      "number ": 6348,
      "ed\n": 6349,
      "e that the ": 6350,
      "higher ": 6351,
      "visit ": 6352,
      "Nam": 6353,
      "behavi": 6354,
      "instead ": 6355,
      "content": 6356,
      "exerc": 6357,
      "Hol": 6358,
      "list ": 6359,
      "an and ": 6360,
      "elev": 6361,
      "{\n": 6362,
      "one, ": 6363,
      "ingle ": 6364,
      "’s": 6365,
      "syn": 6366,
      "client": 6367,
      "Read": 6368,
      "ington ": 6369,
      "May": 6370,
      "digital ": 6371,
      "in and ": 6372,
      "Californ": 6373,
      "ed on the ": 6374,
      "definit": 6375,
      "ais": 6376,
      "relationship": 6377,
      "ing up ": 6378,
      "igr": 6379,
      "Test": 6380,
      "ological ": 6381,
      "e) ": 6382,
      "completely ": 6383,
      "serve ": 6384,
      "itud": 6385,
      ", L": 6386,
      "of your ": 6387,
      "you’ll ": 6388,
      "distr": 6389,
      "where the ": 6390,
      "ana ": 6391,
      "ai": 6392,
      "nothing ": 6393,
      "Russ": 6394,
      "bey": 6395,
      "became ": 6396,
      "later ": 6397,
      "is also ": 6398,
      "pen": 6399,
      "certain ": 6400,
      "echniqu": 6401,
      "also": 6402,
      "ensur": 6403,
      "on their ": 6404,
      "for their ": 6405,
      "answer": 6406,
      "schedul": 6407,
      "very": 6408,
      "City ": 6409,
      "film ": 6410,
      "innov": 6411,
      "ednes": 6412,
      "Febr": 6413,
      "{\n        ": 6414,
      "easy ": 6415,
      "en and ": 6416,
      "soon ": 6417,
      "fast ": 6418,
      "brand": 6419,
      "sibl": 6420,
      "ation to ": 6421,
      "road ": 6422,
      "industry ": 6423,
      "promis": 6424,
      "wanted to ": 6425,
      "increase ": 6426,
      "ester": 6427,
      "press ": 6428,
      "8-": 6429,
      "injur": 6430,
      ". You can ": 6431,
      "easily ": 6432,
      "y that ": 6433,
      "in an ": 6434,
      "mo": 6435,
      "o and ": 6436,
      "insp": 6437,
      "choic": 6438,
      "reve": 6439,
      "e.\n- ": 6440,
      ".\nA ": 6441,
      "cut ": 6442,
      "An ": 6443,
      "AG": 6444,
      "Do": 6445,
      "credit ": 6446,
      "epend": 6447,
      "altern": 6448,
      "feed": 6449,
      "Trans": 6450,
      "begin": 6451,
      " top": 6452,
      "highly ": 6453,
      ", and the ": 6454,
      "Produc": 6455,
      "nut": 6456,
      "office ": 6457,
      "es or ": 6458,
      "wis": 6459,
      "Pet": 6460,
      "sem": 6461,
      "ations. ": 6462,
      "OR ": 6463,
      "seek": 6464,
      "ane ": 6465,
      "{\n    ": 6466,
      "stay": 6467,
      "questions ": 6468,
      "\\n": 6469,
      "susp": 6470,
      "country ": 6471,
      "writing ": 6472,
      "Rom": 6473,
      ",000": 6474,
      "alu": 6475,
      "milit": 6476,
      "staff ": 6477,
      "I've ": 6478,
      "off the ": 6479,
      "(S": 6480,
      "ecaus": 6481,
      "independ": 6482,
      "asked ": 6483,
      " thos": 6484,
      "ely, ": 6485,
      "answ": 6486,
      "Progr": 6487,
      "Google ": 6488,
      "p.m": 6489,
      "map": 6490,
      "f the ": 6491,
      "range of ": 6492,
      "mention": 6493,
      "period": 6494,
      "vil": 6495,
      "I would ": 6496,
      "us to ": 6497,
      "oph": 6498,
      "record ": 6499,
      "unn": 6500,
      "emp": 6501,
      "dating ": 6502,
      "relig": 6503,
      "= 0": 6504,
      "irt": 6505,
      "before the ": 6506,
      "felt ": 6507,
      "vertis": 6508,
      "West ": 6509,
      "out of the ": 6510,
      "(C": 6511,
      "I can ": 6512,
      " thought": 6513,
      "ely to ": 6514,
      " time to ": 6515,
      "empor": 6516,
      ".\nWe ": 6517,
      "16 ": 6518,
      "into": 6519,
      ", \"": 6520,
      "edic": 6521,
      "40 ": 6522,
      "fortun": 6523,
      "cloth": 6524,
      "August ": 6525,
      "ux": 6526,
      "Tues": 6527,
      "across ": 6528,
      "economic ": 6529,
      "Pow": 6530,
      "fight": 6531,
      "living ": 6532,
      "ient ": 6533,
      " takes ": 6534,
      "year-": 6535,
      ". All ": 6536,
      "s; ": 6537,
      "October ": 6538,
      "24 ": 6539,
      "DE": 6540,
      "e time ": 6541,
      "band": 6542,
      "e\n- ": 6543,
      "Ann": 6544,
      "arant": 6545,
      "6, ": 6546,
      "buy": 6547,
      "of them ": 6548,
      "moment": 6549,
      "explor": 6550,
      ". To ": 6551,
      "s you ": 6552,
      "resh ": 6553,
      "reci": 6554,
      "es: ": 6555,
      "heart": 6556,
      "mount": 6557,
      "built ": 6558,
      "'t": 6559,
      "’d ": 6560,
      "University ": 6561,
      "centur": 6562,
      "0., ": 6563,
      "sure": 6564,
      "up and ": 6565,
      "according to ": 6566,
      "institut": 6567,
      "certainly ": 6568,
      "Jes": 6569,
      "use the ": 6570,
      "++": 6571,
      "ate, ": 6572,
      "in S": 6573,
      "not to ": 6574,
      " time, ": 6575,
      "respons": 6576,
      "Willi": 6577,
      "ama ": 6578,
      "demon": 6579,
      "when I ": 6580,
      "positive ": 6581,
      "County ": 6582,
      "security ": 6583,
      "Tex": 6584,
      "Hel": 6585,
      "Bro": 6586,
      "14 ": 6587,
      "perfect": 6588,
      "a small ": 6589,
      "insid": 6590,
      "upon ": 6591,
      " than the ": 6592,
      "as they ": 6593,
      "His ": 6594,
      "student ": 6595,
      "istic ": 6596,
      "ung": 6597,
      "e. It ": 6598,
      "e te": 6599,
      "period ": 6600,
      "er\n": 6601,
      "understand ": 6602,
      "see": 6603,
      "auto ": 6604,
      "a cou": 6605,
      "prefer": 6606,
      "Govern": 6607,
      "variety of ": 6608,
      "Thurs": 6609,
      "frequ": 6610,
      "example, ": 6611,
      "works ": 6612,
      "quickly ": 6613,
      "standard ": 6614,
      "non": 6615,
      "a tr": 6616,
      "18 ": 6617,
      "s. This ": 6618,
      "iver ": 6619,
      "quot": 6620,
      "PC": 6621,
      "cle ": 6622,
      "iff": 6623,
      "hair ": 6624,
      "liter": 6625,
      "ines ": 6626,
      "Id": 6627,
      "bad ": 6628,
      "estim": 6629,
      "woman ": 6630,
      "surpris": 6631,
      "ks ": 6632,
      "asc": 6633,
      " to your ": 6634,
      "alb": 6635,
      "ership ": 6636,
      "previous ": 6637,
      "Af": 6638,
      "amount of ": 6639,
      "Li": 6640,
      "software ": 6641,
      "he said": 6642,
      " today ": 6643,
      "offe": 6644,
      "NE": 6645,
      "month ": 6646,
      "s that are ": 6647,
      "ere’s ": 6648,
      "it the ": 6649,
      "cover ": 6650,
      "Flor": 6651,
      "customer ": 6652,
      "ation for ": 6653,
      "Servic": 6654,
      "45": 6655,
      "impress": 6656,
      "Franc": 6657,
      "e them ": 6658,
      "can't ": 6659,
      "nod": 6660,
      "atory ": 6661,
      "Cam": 6662,
      "establish": 6663,
      "e! ": 6664,
      "opin": 6665,
      "erous ": 6666,
      "goal ": 6667,
      "physical ": 6668,
      "spok": 6669,
      "box ": 6670,
      "stain": 6671,
      "easy to ": 6672,
      "lost ": 6673,
      "regular ": 6674,
      "gard": 6675,
      "enjoy ": 6676,
      "Wednes": 6677,
      "ection of ": 6678,
      " tre": 6679,
      "against the ": 6680,
      "ing them ": 6681,
      "me to ": 6682,
      "partner": 6683,
      "While ": 6684,
      "ist of ": 6685,
      "wish": 6686,
      "Offic": 6687,
      "ions, ": 6688,
      " thing ": 6689,
      "ations and ": 6690,
      "19 ": 6691,
      " to get ": 6692,
      "ied ": 6693,
      "fire": 6694,
      "card ": 6695,
      " too": 6696,
      "-to-": 6697,
      "categ": 6698,
      "string": 6699,
      "ief ": 6700,
      "hur": 6701,
      "Ric": 6702,
      "s_": 6703,
      "ing from ": 6704,
      "ing an ": 6705,
      "Her": 6706,
      "property ": 6707,
      " told ": 6708,
      "ure of ": 6709,
      "huge ": 6710,
      "daugh": 6711,
      "hair": 6712,
      "ation in ": 6713,
      "TV ": 6714,
      "7, ": 6715,
      "advis": 6716,
      "erry ": 6717,
      "ence of ": 6718,
      "Cap": 6719,
      "character": 6720,
      "\nM": 6721,
      "gets ": 6722,
      "Ke": 6723,
      "dy": 6724,
      "e them": 6725,
      "========": 6726,
      "ll": 6727,
      "doll": 6728,
      "required": 6729,
      "reason ": 6730,
      "attend": 6731,
      "ess of ": 6732,
      "doesn't ": 6733,
      "not the ": 6734,
      "dib": 6735,
      " times ": 6736,
      "learning ": 6737,
      "Eng": 6738,
      "e (": 6739,
      ", there ": 6740,
      "worth ": 6741,
      "outsid": 6742,
      "eat ": 6743,
      "achiev": 6744,
      "13 ": 6745,
      "th, ": 6746,
      "s will ": 6747,
      "near ": 6748,
      "write ": 6749,
      "y's ": 6750,
      "make the ": 6751,
      "e said": 6752,
      "fall ": 6753,
      "song": 6754,
      " their": 6755,
      "engine": 6756,
      "SC": 6757,
      "in L": 6758,
      "ential": 6759,
      "well-": 6760,
      "fo": 6761,
      "That ": 6762,
      "related ": 6763,
      ". However, ": 6764,
      "Isra": 6765,
      "batt": 6766,
      "39": 6767,
      "Spec": 6768,
      "hot ": 6769,
      "David ": 6770,
      "virt": 6771,
      "pred": 6772,
      "door": 6773,
      "mal": 6774,
      "al and ": 6775,
      "leading ": 6776,
      "estiv": 6777,
      "s as ": 6778,
      "mp": 6779,
      "implement": 6780,
      "daily ": 6781,
      "Sci": 6782,
      "modern ": 6783,
      "longer ": 6784,
      "prev": 6785,
      " though ": 6786,
      "Please ": 6787,
      "Republ": 6788,
      "Bel": 6789,
      "production ": 6790,
      "accur": 6791,
      "single ": 6792,
      "mass": 6793,
      "ild ": 6794,
      "lip": 6795,
      "MP": 6796,
      "a p": 6797,
      "echan": 6798,
      "brand ": 6799,
      "example.": 6800,
      "environment": 6801,
      "ed: ": 6802,
      "November ": 6803,
      "heart ": 6804,
      "model ": 6805,
      "not only ": 6806,
      "veg": 6807,
      "From": 6808,
      "saw ": 6809,
      "scient": 6810,
      "strug": 6811,
      " travel": 6812,
      ">(": 6813,
      "favorite ": 6814,
      "contain": 6815,
      "38": 6816,
      "IR": 6817,
      "proced": 6818,
      "Port": 6819,
      "might be ": 6820,
      "until": 6821,
      "years, ": 6822,
      "ed this ": 6823,
      "rob": 6824,
      "corpor": 6825,
      " the\n": 6826,
      "ody ": 6827,
      " those who ": 6828,
      "Phil": 6829,
      "er of the ": 6830,
      "gives ": 6831,
      "OS": 6832,
      "ing it ": 6833,
      "hab": 6834,
      "expos": 6835,
      "major": 6836,
      "question ": 6837,
      "two ": 6838,
      ". Our ": 6839,
      "So ": 6840,
      "December ": 6841,
      "crimin": 6842,
      "months ": 6843,
      "7-": 6844,
      "insurance ": 6845,
      "ions of ": 6846,
      "September ": 6847,
      "review ": 6848,
      "Mac": 6849,
      "patients ": 6850,
      "account ": 6851,
      "OU": 6852,
      "Day ": 6853,
      "continue to ": 6854,
      "ju": 6855,
      ". This is ": 6856,
      "absolut": 6857,
      "Sub": 6858,
      "hit ": 6859,
      "click ": 6860,
      "nearly ": 6861,
      " this is ": 6862,
      "aud": 6863,
      "left": 6864,
      "@example.": 6865,
      "likely ": 6866,
      "yourself ": 6867,
      " top ": 6868,
      "Is ": 6869,
      "ess and ": 6870,
      "Why ": 6871,
      "stream": 6872,
      " tell ": 6873,
      "pair ": 6874,
      " taken ": 6875,
      "hus": 6876,
      "using the ": 6877,
      "yet": 6878,
      "er (": 6879,
      "First ": 6880,
      "judg": 6881,
      "behind ": 6882,
      "Met": 6883,
      ". In the ": 6884,
      "boo": 6885,
      "allows ": 6886,
      "issue ": 6887,
      "approv": 6888,
      "blood ": 6889,
      "finally ": 6890,
      "fore": 6891,
      "co-": 6892,
      "Chur": 6893,
      "end of ": 6894,
      "rom": 6895,
      "idenc": 6896,
      "Bre": 6897,
      "born ": 6898,
      "intell": 6899,
      "isc": 6900,
      "ine, ": 6901,
      "damag": 6902,
      "zon": 6903,
      "perhap": 6904,
      " them to ": 6905,
      "associated ": 6906,
      " try to ": 6907,
      "ability": 6908,
      "thing": 6909,
      "isn’t ": 6910,
      "Christm": 6911,
      "Counc": 6912,
      "compon": 6913,
      "benefit": 6914,
      "ation.\n": 6915,
      "ench ": 6916,
      "evalu": 6917,
      "news ": 6918,
      "chool": 6919,
      ", in ": 6920,
      "Cal": 6921,
      "playing ": 6922,
      "paid ": 6923,
      "Health ": 6924,
      "personal": 6925,
      "mit": 6926,
      "multiple ": 6927,
      "sometimes ": 6928,
      "21 ": 6929,
      ". What ": 6930,
      "Sam": 6931,
      "ology ": 6932,
      "I had ": 6933,
      "wrot": 6934,
      "optim": 6935,
      ". My ": 6936,
      "societ": 6937,
      "launch": 6938,
      "prior": 6939,
      "Conn": 6940,
      "candid": 6941,
      "re-": 6942,
      "Gam": 6943,
      "as it ": 6944,
      "possible": 6945,
      ", D": 6946,
      "e two ": 6947,
      "____": 6948,
      "hund": 6949,
      "dang": 6950,
      "Best ": 6951,
      "mobile ": 6952,
      ", with ": 6953,
      "Ret": 6954,
      "when it ": 6955,
      "strength": 6956,
      "Av": 6957,
      "pm": 6958,
      "end of the ": 6959,
      "ange ": 6960,
      "whose ": 6961,
      "clear ": 6962,
      "store ": 6963,
      "me, ": 6964,
      "ple of ": 6965,
      "49": 6966,
      "gett": 6967,
      "IV": 6968,
      "lead ": 6969,
      "param": 6970,
      "false": 6971,
      "material ": 6972,
      "series ": 6973,
      "es, the ": 6974,
      "police ": 6975,
      "es were ": 6976,
      "particularly ": 6977,
      "assess": 6978,
      "fem": 6979,
      "stop": 6980,
      "Stud": 6981,
      "Free ": 6982,
      "sound ": 6983,
      "close ": 6984,
      "excit": 6985,
      "ly the ": 6986,
      "e; ": 6987,
      "satis": 6988,
      "Phot": 6989,
      "Institut": 6990,
      "consult": 6991,
      "elling ": 6992,
      "e. We ": 6993,
      "photo": 6994,
      "a th": 6995,
      "customers ": 6996,
      "ision ": 6997,
      "contact": 6998,
      "ocol": 6999,
      "people who ": 7000,
      "have th": 7001,
      "Fe": 7002,
      "neg": 7003,
      ", T": 7004,
      "Now": 7005,
      "definitely ": 7006,
      "met ": 7007,
      "Revi": 7008,
      "network ": 7009,
      "divers": 7010,
      "advertis": 7011,
      "source ": 7012,
      "suff": 7013,
      "High ": 7014,
      "crow": 7015,
      "drink": 7016,
      "ff ": 7017,
      "wast": 7018,
      "ptr": 7019,
      "giving ": 7020,
      "percent": 7021,
      "reserv": 7022,
      "make a ": 7023,
      "reach ": 7024,
      "come to ": 7025,
      "solution": 7026,
      "pull": 7027,
      "blog ": 7028,
      "search": 7029,
      "holid": 7030,
      "young": 7031,
      "Educ": 7032,
      "er's ": 7033,
      "chann": 7034,
      "phas": 7035,
      "relationship ": 7036,
      "United Stat": 7037,
      "arily ": 7038,
      "lower ": 7039,
      "ment and ": 7040,
      "s? ": 7041,
      "send ": 7042,
      "Rem": 7043,
      "SP": 7044,
      "heard ": 7045,
      "shot": 7046,
      ". It was ": 7047,
      "however, ": 7048,
      "ing about ": 7049,
      "intend": 7050,
      "force ": 7051,
      "MA": 7052,
      "vic": 7053,
      "excellent ": 7054,
      "mit ": 7055,
      "omb": 7056,
      "English ": 7057,
      "ield": 7058,
      "death ": 7059,
      "possibl": 7060,
      "players ": 7061,
      "hour ": 7062,
      "vest": 7063,
      "aught ": 7064,
      "ed an ": 7065,
      "choose ": 7066,
      ">\n": 7067,
      "a's ": 7068,
      ");\n}\n\n": 7069,
      "olar": 7070,
      ") {\n        ": 7071,
      "download ": 7072,
      "’s the ": 7073,
      "ford ": 7074,
      "half": 7075,
      "appreci": 7076,
      "th and ": 7077,
      "ed it ": 7078,
      "journ": 7079,
      "Just ": 7080,
      "dedic": 7081,
      "ing or ": 7082,
      "pair": 7083,
      "a (": 7084,
      "ender ": 7085,
      "February ": 7086,
      "government": 7087,
      "opt": 7088,
      "esh": 7089,
      "ed that the ": 7090,
      "a B": 7091,
      "required ": 7092,
      "nar": 7093,
      "At ": 7094,
      "initi": 7095,
      "ure to ": 7096,
      "on to ": 7097,
      "Play": 7098,
      "Found": 7099,
      "s(": 7100,
      "impact ": 7101,
      "file ": 7102,
      "requirement": 7103,
      "network": 7104,
      " technolog": 7105,
      "ellow ": 7106,
      "bit ": 7107,
      "500 ": 7108,
      "hael ": 7109,
      "CA": 7110,
      "ends ": 7111,
      "European ": 7112,
      "with their ": 7113,
      "restr": 7114,
      "photograph": 7115,
      "controll": 7116,
      "styl": 7117,
      "kitch": 7118,
      "make it ": 7119,
      "6.": 7120,
      "community": 7121,
      "s. I ": 7122,
      "what you ": 7123,
      "available": 7124,
      "fru": 7125,
      "Great ": 7126,
      "ument ": 7127,
      "\nL": 7128,
      "bul": 7129,
      "it.\n": 7130,
      " to their ": 7131,
      "fam": 7132,
      "of our ": 7133,
      "enabl": 7134,
      "obvi": 7135,
      "-based ": 7136,
      "ed, and ": 7137,
      "istic": 7138,
      "goes ": 7139,
      "responsible ": 7140,
      "Over": 7141,
      "Read ": 7142,
      "platform": 7143,
      "listen": 7144,
      "member ": 7145,
      "Develop": 7146,
      "iment": 7147,
      "all, ": 7148,
      ".com/": 7149,
      "largest ": 7150,
      "a S": 7151,
      "he is ": 7152,
      "ocrat": 7153,
      "isod": 7154,
      "PM": 7155,
      "occas": 7156,
      "States ": 7157,
      "elop ": 7158,
      "uses ": 7159,
      "Ref": 7160,
      "rain": 7161,
      "ences ": 7162,
      "ich ": 7163,
      "consider ": 7164,
      "performanc": 7165,
      "e?\n": 7166,
      " track": 7167,
      "Work": 7168,
      "bring": 7169,
      "screen": 7170,
      "196": 7171,
      "fair": 7172,
      "“The ": 7173,
      "degre": 7174,
      "Att": 7175,
      "String": 7176,
      "for you": 7177,
      "ate and ": 7178,
      "lad": 7179,
      " training ": 7180,
      "shot ": 7181,
      "Ros": 7182,
      "ive, ": 7183,
      "s' ": 7184,
      "industri": 7185,
      "e/": 7186,
      ". After ": 7187,
      "mean ": 7188,
      "bool ": 7189,
      "swit": 7190,
      "a M": 7191,
      "likely to ": 7192,
      "a bit ": 7193,
      "ure and ": 7194,
      "bad": 7195,
      "sect": 7196,
      "morn": 7197,
      "user ": 7198,
      "behind": 7199,
      "ING ": 7200,
      "fu": 7201,
      "ed or ": 7202,
      "Black ": 7203,
      "observ": 7204,
      "jour": 7205,
      "ength ": 7206,
      " to this ": 7207,
      ". And": 7208,
      "enough to ": 7209,
      "along with ": 7210,
      "display": 7211,
      "omin": 7212,
      "Hand": 7213,
      "opportunity to ": 7214,
      "standard": 7215,
      "Wal": 7216,
      "events ": 7217,
      "volunt": 7218,
      "al t": 7219,
      "he’s ": 7220,
      "48": 7221,
      "relev": 7222,
      "maybe ": 7223,
      "individual": 7224,
      "so that ": 7225,
      "full": 7226,
      "one-": 7227,
      ");\n\n    ": 7228,
      "cause ": 7229,
      "below ": 7230,
      "OO": 7231,
      "paper ": 7232,
      "watch ": 7233,
      "a is ": 7234,
      "Set": 7235,
      "directly ": 7236,
      "it will ": 7237,
      "Profess": 7238,
      "down the ": 7239,
      "ai ": 7240,
      "ird": 7241,
      "means": 7242,
      "as, ": 7243,
      "spent ": 7244,
      "exactly ": 7245,
      "le-": 7246,
      "annual ": 7247,
      "Aut": 7248,
      ". With ": 7249,
      "of those ": 7250,
      "oppos": 7251,
      "she was ": 7252,
      "cool": 7253,
      "in 200": 7254,
      "yourself": 7255,
      "wedd": 7256,
      "\")": 7257,
      "effect ": 7258,
      "do you ": 7259,
      "years of ": 7260,
      "in M": 7261,
      "bri": 7262,
      "Get ": 7263,
      "pick ": 7264,
      "require ": 7265,
      "ories ": 7266,
      "hear ": 7267,
      "ack of ": 7268,
      "ray": 7269,
      "risk": 7270,
      "guarant": 7271,
      "messag": 7272,
      "a sec": 7273,
      "PD": 7274,
      "1) ": 7275,
      "ume ": 7276,
      "CL": 7277,
      "s for the ": 7278,
      "OF ": 7279,
      "of that ": 7280,
      "resist": 7281,
      "ronic ": 7282,
      "ities, ": 7283,
      "Siz": 7284,
      "Brow": 7285,
      "slow": 7286,
      "sha": 7287,
      "award": 7288,
      "aster": 7289,
      "vill": 7290,
      "and a ": 7291,
      "pon": 7292,
      "like a ": 7293,
      "fit ": 7294,
      "ed in": 7295,
      "ague ": 7296,
      "; and ": 7297,
      "civ": 7298,
      "rev": 7299,
      "commercial ": 7300,
      "ror": 7301,
      "are th": 7302,
      "psych": 7303,
      "s by ": 7304,
      "struction": 7305,
      "extra ": 7306,
      "Tod": 7307,
      "term ": 7308,
      "prevent": 7309,
      "Down": 7310,
      "brought ": 7311,
      "official ": 7312,
      "name": 7313,
      "games ": 7314,
      "so the ": 7315,
      "growing ": 7316,
      "bol": 7317,
      "standing ": 7318,
      "friend ": 7319,
      "75": 7320,
      "Oh": 7321,
      "22 ": 7322,
      "ewor": 7323,
      "pret": 7324,
      "maxim": 7325,
      "Ver": 7326,
      "etic ": 7327,
      "looking for ": 7328,
      "official": 7329,
      "reas": 7330,
      "so much ": 7331,
      "itle ": 7332,
      "deep ": 7333,
      "mm": 7334,
      "}\n    ": 7335,
      "what the ": 7336,
      "el, ": 7337,
      "ham": 7338,
      "growth ": 7339,
      "ed at the ": 7340,
      "patient": 7341,
      "echnical ": 7342,
      "Cod": 7343,
      "death": 7344,
      " there’s ": 7345,
      "33": 7346,
      "providing ": 7347,
      "are not ": 7348,
      "capac": 7349,
      "court ": 7350,
      "s. We ": 7351,
      "human": 7352,
      "direct ": 7353,
      "women": 7354,
      "extremely ": 7355,
      "fun ": 7356,
      "entert": 7357,
      "features ": 7358,
      "manufactur": 7359,
      "7.": 7360,
      "San ": 7361,
      "ING": 7362,
      "rather than ": 7363,
      "broad": 7364,
      "libr": 7365,
      "ification ": 7366,
      "a single ": 7367,
      "cer": 7368,
      "rank": 7369,
      "mou": 7370,
      "scal": 7371,
      "hood ": 7372,
      "adjust": 7373,
      "ary, ": 7374,
      "court": 7375,
      "of his ": 7376,
      "size ": 7377,
      "ideas ": 7378,
      "won’t ": 7379,
      "9, ": 7380,
      "suffer": 7381,
      "fit": 7382,
      "average ": 7383,
      "ousand": 7384,
      "marketing ": 7385,
      "recover": 7386,
      "Inform": 7387,
      "pre-": 7388,
      "Jew": 7389,
      "a large ": 7390,
      "gn": 7391,
      "began ": 7392,
      "products ": 7393,
      "overall ": 7394,
      "cast ": 7395,
      "ender": 7396,
      "able and ": 7397,
      "develop ": 7398,
      "fab": 7399,
      "British ": 7400,
      "knew ": 7401,
      "activities ": 7402,
      "decad": 7403,
      "ed their ": 7404,
      "ization ": 7405,
      "Jer": 7406,
      "spot": 7407,
      "grap": 7408,
      "Spr": 7409,
      "Business ": 7410,
      "existing ": 7411,
      "all of the ": 7412,
      "double ": 7413,
      "itting ": 7414,
      "scap": 7415,
      "ault": 7416,
      "infect": 7417,
      "staff": 7418,
      "yr": 7419,
      "repe": 7420,
      "vac": 7421,
      "ed into ": 7422,
      "earn ": 7423,
      " that's ": 7424,
      "we will ": 7425,
      "Gen": 7426,
      "shop ": 7427,
      "though ": 7428,
      "Now ": 7429,
      "IS ": 7430,
      "round ": 7431,
      "wait": 7432,
      "computer ": 7433,
      "General ": 7434,
      "Coll": 7435,
      "minutes ": 7436,
      "worth": 7437,
      "e!\n": 7438,
      " time. ": 7439,
      "ium": 7440,
      "uals ": 7441,
      "grand": 7442,
      "System": 7443,
      "we’re ": 7444,
      "van": 7445,
      "atic ": 7446,
      "e::": 7447,
      ". Y": 7448,
      ", H": 7449,
      "ke ": 7450,
      "top": 7451,
      "prem": 7452,
      "collabor": 7453,
      "17 ": 7454,
      "basic ": 7455,
      ";\r\n": 7456,
      "s. It ": 7457,
      "fash": 7458,
      "explain": 7459,
      "\n\t": 7460,
      "one. ": 7461,
      "ription": 7462,
      "received ": 7463,
      "index": 7464,
      "issues ": 7465,
      "ystem ": 7466,
      "shad": 7467,
      "hours ": 7468,
      "in order to ": 7469,
      "Cop": 7470,
      "has the ": 7471,
      "shipp": 7472,
      "reading ": 7473,
      "ster ": 7474,
      "if they ": 7475,
      ", P": 7476,
      "weight": 7477,
      "bag": 7478,
      "appe": 7479,
      "domin": 7480,
      "reveal": 7481,
      "ators ": 7482,
      "s, which ": 7483,
      "Wom": 7484,
      "Ste": 7485,
      "Det": 7486,
      ", N": 7487,
      "healthy ": 7488,
      "ament": 7489,
      "These ": 7490,
      ". It's ": 7491,
      "nice ": 7492,
      "e to be ": 7493,
      "sent ": 7494,
      "Peo": 7495,
      "future": 7496,
      "Hom": 7497,
      "IF": 7498,
      "Florid": 7499,
      "Oper": 7500,
      "realiz": 7501,
      "conven": 7502,
      "Twit": 7503,
      "in B": 7504,
      "ams ": 7505,
      "automat": 7506,
      "mir": 7507,
      "uint": 7508,
      ", but": 7509,
      "burn": 7510,
      "exhib": 7511,
      "size": 7512,
      "afford": 7513,
      "option ": 7514,
      "green ": 7515,
      "bow": 7516,
      "walk ": 7517,
      "outside ": 7518,
      ". His ": 7519,
      "on my ": 7520,
      "venu": 7521,
      "whit": 7522,
      "Day": 7523,
      "Hist": 7524,
      "surg": 7525,
      "bound": 7526,
      "Cong": 7527,
      "or a ": 7528,
      "matter": 7529,
      "ated by ": 7530,
      "Research ": 7531,
      "we were ": 7532,
      "underst": 7533,
      "with this ": 7534,
      "Air": 7535,
      "OP": 7536,
      "div": 7537,
      "is t": 7538,
      "trans": 7539,
      "preh": 7540,
      " try ": 7541,
      "Sw": 7542,
      "Japan": 7543,
      "onc": 7544,
      "access to ": 7545,
      "parents ": 7546,
      "academ": 7547,
      "34": 7548,
      "eal": 7549,
      "ouch ": 7550,
      "year-old ": 7551,
      "ing: ": 7552,
      "haven": 7553,
      "#include \"": 7554,
      " together": 7555,
      "spend ": 7556,
      "also be ": 7557,
      "color ": 7558,
      "ually": 7559,
      "enhanc": 7560,
      "itect": 7561,
      "subsc": 7562,
      "ies to ": 7563,
      "federal ": 7564,
      "invent": 7565,
      "whe": 7566,
      "amazing ": 7567,
      "stopp": 7568,
      "fer ": 7569,
      "Park": 7570,
      "itor ": 7571,
      "ality ": 7572,
      "ently": 7573,
      "mechan": 7574,
      "surround": 7575,
      "serious ": 7576,
      ")\n        ": 7577,
      "added ": 7578,
      "a big ": 7579,
      "users ": 7580,
      "get to ": 7581,
      "agenc": 7582,
      "analysis ": 7583,
      "happy ": 7584,
      "ET": 7585,
      "and/": 7586,
      "movie ": 7587,
      "erve ": 7588,
      "dead": 7589,
      "mail": 7590,
      ".C": 7591,
      "Color": 7592,
      "policy ": 7593,
      "stock": 7594,
      "udd": 7595,
      "Mil": 7596,
      "encourag": 7597,
      "List": 7598,
      "Angel": 7599,
      "Mag": 7600,
      "55": 7601,
      "feature ": 7602,
      "bear": 7603,
      "seven ": 7604,
      "music": 7605,
      "” and ": 7606,
      " * ": 7607,
      "a C": 7608,
      "Go": 7609,
      "clim": 7610,
      "fresh": 7611,
      "plus ": 7612,
      "when they ": 7613,
      "AND ": 7614,
      ". There are ": 7615,
      "cris": 7616,
      "and I ": 7617,
      "8.": 7618,
      "United States ": 7619,
      "ing at ": 7620,
      "ican ": 7621,
      "_t ": 7622,
      "elin": 7623,
      "at's ": 7624,
      ". . ": 7625,
      "onn": 7626,
      "Check ": 7627,
      "itself ": 7628,
      "cu": 7629,
      "warm": 7630,
      "decision": 7631,
      "EM": 7632,
      "this ": 7633,
      "year, ": 7634,
      "ics, ": 7635,
      "desp": 7636,
      "burg": 7637,
      "Europ": 7638,
      "image ": 7639,
      "ations of ": 7640,
      "although ": 7641,
      "section ": 7642,
      "application ": 7643,
      "Facebook ": 7644,
      "coffe": 7645,
      "ription ": 7646,
      "rock": 7647,
      "Key": 7648,
      "anti-": 7649,
      "ready to ": 7650,
      "ed_": 7651,
      "career ": 7652,
      "age. ": 7653,
      "ately": 7654,
      "you may ": 7655,
      "East ": 7656,
      "IT ": 7657,
      "60 ": 7658,
      "element": 7659,
      "oth ": 7660,
      "sell ": 7661,
      "download": 7662,
      "Ital": 7663,
      "plent": 7664,
      "a long": 7665,
      "ed her ": 7666,
      "This is ": 7667,
      "unk": 7668,
      "ed in a ": 7669,
      "J ": 7670,
      "*/": 7671,
      "focus": 7672,
      "ension": 7673,
      "flav": 7674,
      "quick ": 7675,
      "White ": 7676,
      "Lo": 7677,
      "host ": 7678,
      "inner ": 7679,
      "practice ": 7680,
      "ampion": 7681,
      "biggest ": 7682,
      " that, ": 7683,
      "Just": 7684,
      "commod": 7685,
[...]
