{
  "version": "1.0",
  "truncation": null,
  "padding": null,
  "added_tokens": [
    {
      "id": 0,
      "content": "<unk>",
      "single_word": false,
      "lstrip": false,
      "rstrip": false,
      "normalized": false,
      "special": true
    },
    {
      "id": 1,
      "content": "<s>",
      "single_word": false,
      "lstrip": false,
      "rstrip": false,
      "normalized": false,
      "special": true
    },
    {
      "id": 2,
      "content": "</s>",
      "single_word": false,
      "lstrip": false,
      "rstrip": false,
      "normalized": false,
      "special": true
    },
    {
      "id": 3,
      "content": "<pad>",
      "single_word": false,
      "lstrip": false,
      "rstrip": false,
      "normalized": false,
      "special": true
    },
    {
      "id": 4,
      "content": "<mask>",
      "single_word": false,
      "lstrip": false,
      "rstrip": false,
      "normalized": false,
      "special": true
    },
    {
      "id": 5,
      "content": "<|fim_prefix|>",
      "single_word": false,
      "lstrip": false,
      "rstrip": false,
      "normalized": false,
      "special": true
    },
    {
      "id": 6,
      "content": "<|fim_middle|>",
      "single_word": false,
      "lstrip": false,
      "rstrip": false,
      "normalized": false,
      "special": true
    },
    {
      "id": 7,
      "content": "<|fim_suffix|>",
      "single_word": false,
      "lstrip": false,
      "rstrip": false,
      "normalized": false,
      "special": true
    },
    {
      "id": 8,
      "content": "<|fim_pad|>",
      "single_word": false,
      "lstrip": false,
      "rstrip": false,
      "normalized": false,
      "special": true
    },
    {
      "id": 9,
      "content": "<|file_separator|>",
      "single_word": false,
      "lstrip": false,
      "rstrip": false,
      "normalized": false,
      "special": true
    },
    {
      "id": 10,
      "content": "<0x00>",
      "single_word": false,
      "lstrip": false,
      "rstrip": false,
      "normalized": false,
      "special": true
    },
    {
      "id": 11,
      "content": "<0x01>",
      "single_word": false,
      "lstrip": false,
      "rstrip": false,
      "normalized": false,
      "special": true
    },
    {
      "id": 12,
      "content": "<0x02>",
      "single_word": false,
      "lstrip": false,
      "rstrip": false,
      "normalized": false,
      "special": true
    },
    {
      "id": 13,
      "content": "<0x03>",
      "single_word": false,
      "lstrip": false,
      "rstrip": false,
      "normalized": false,
      "special": true
    },
    {
      "id": 14,
      "content": "<0x04>",
      "single_word": false,
      "lstrip": false,
      "rstrip": false,
      "normalized": false,
      "special": true
    },
    {
      "id": 15,
      "content": "<0x05>",
      "single_word": false,
      "lstrip": false,
      "rstrip": false,
      "normalized": false,
      "special": true
    },
    {
      "id": 16,
      "content": "<0x06>",
      "single_word": false,
      "lstrip": false,
      "rstrip": false,
      "normalized": false,
      "special": true
    },
    {
      "id": 17,
      "content": "<0x07>",
      "single_word": false,
      "lstrip": false,
      "rstrip": false,
      "normalized": false,
      "special": true
    },
    {
      "id": 18,
      "content": "<0x08>",
      "single_word": false,
      "lstrip": false,
      "rstrip": false,
      "normalized": false,
      "special": true
    },
    {
      "id": 19,
      "content": "<0x09>",
      "single_word": false,
      "lstrip": false,
      "rstrip": false,
      "normalized": false,
      "special": true
    },
    {
      "id": 20,
      "content": "<0x0A>",
      "single_word": false,
      "lstrip": false,
      "rstrip": false,
      "normalized": false,
      "special": true
    },
    {
      "id": 21,
      "content": "<0x0B>",
      "single_word": false,
      "lstrip": false,
      "rstrip": false,
      "normalized": false,
      "special": true
    },
    {
      "id": 22,
      "content": "<0x0C>",
      "single_word": false,
      "lstrip": false,
      "rstrip": false,
      "normalized": false,
      "special": true
    },
    {
      "id": 23,
      "content": "<0x0D>",
      "single_word": false,
      "lstrip": false,
      "rstrip": false,
      "normalized": false,
      "special": true
    },
    {
      "id": 24,
      "content": "<0x0E>",
      "single_word": false,
      "lstrip": false,
      "rstrip": false,
      "normalized": false,
      "special": true
    },
    {
      "id": 25,
      "content": "<0x0F>",
      "single_word": false,
      "lstrip": false,
      "rstrip": false,
      "normalized": false,
      "special": true
    },
    {
      "id": 26,
      "content": "<0x10>",
      "single_word": false,
      "lstrip": false,
      "rstrip": false,
      "normalized": false,
      "special": true
    },
    {
      "id": 27,
      "content": "<0x11>",
      "single_word": false,
      "lstrip": false,
      "rstrip": false,
      "normalized": false,
      "special": true
    },
    {
      "id": 28,
      "content": "<0x12>",
      "single_word": false,
      "lstrip": false,
      "rstrip": false,
      "normalized": false,
      "special": true
    },
    {
      "id": 29,
      "content": "<0x13>",
      "single_word": false,
      "lstrip": false,
      "rstrip": false,
      "normalized": false,
      "special": true
    },
    {
      "id": 30,
      "content": "<0x14>",
      "single_word": false,
      "lstrip": false,
      "rstrip": false,
      "normalized": false,
      "special": true
    },
    {
      "id": 31,
      "content": "<0x15>",
      "single_word": false,
      "lstrip": false,
      "rstrip": false,
      "normalized": false,
      "special": true
    },
    {
      "id": 32,
      "content": "<0x16>",
      "single_word": false,
      "lstrip": false,
      "rstrip": false,
      "normalized": false,
      "special": true
    },
    {
      "id": 33,
      "content": "<0x17>",
      "single_word": false,
      "lstrip": false,
      "rstrip": false,
      "normalized": false,
      "special": true
    },
    {
      "id": 34,
      "content": "<0x18>",
      "single_word": false,
      "lstrip": false,
      "rstrip": false,
      "normalized": false,
      "special": true
    },
    {
      "id": 35,
      "content": "<0x19>",
      "single_word": false,
      "lstrip": false,
      "rstrip": false,
      "normalized": false,
      "special": true
    },
    {
      "id": 36,
      "content": "<0x1A>",
      "single_word": false,
      "lstrip": false,
      "rstrip": false,
      "normalized": false,
      "special": true
    },
    {
      "id": 37,
      "content": "<0x1B>",
      "single_word": false,
      "lstrip": false,
      "rstrip": false,
      "normalized": false,
      "special": true
    },
    {
      "id": 38,
      "content": "<0x1C>",
      "single_word": false,
      "lstrip": false,
      "rstrip": false,
      "normalized": false,
      "special": true
    },
    {
      "id": 39,
      "content": "<0x1D>",
      "single_word": false,
      "lstrip": false,
      "rstrip": false,
      "normalized": false,
      "special": true
    },
    {
      "id": 40,
      "content": "<0x1E>",
      "single_word": false,
      "lstrip": false,
      "rstrip": false,
      "normalized": false,
      "special": true
    },
    {
      "id": 41,
      "content": "<0x1F>",
      "single_word": false,
      "lstrip": false,
      "rstrip": false,
      "normalized": false,
      "special": true
    },
    {
      "id": 42,
      "content": "<0x20>",
      "single_word": false,
      "lstrip": false,
      "rstrip": false,
      "normalized": false,
      "special": true
    },
    {
      "id": 43,
      "content": "<0x21>",
      "single_word": false,
      "lstrip": false,
      "rstrip": false,
      "normalized": false,
      "special": true
    },
    {
      "id": 44,
      "content": "<0x22>",
      "single_word": false,
      "lstrip": false,
      "rstrip": false,
      "normalized": false,
      "special": true
    },
    {
      "id": 45,
      "content": "<0x23>",
      "single_word": false,
      "lstrip": false,
      "rstrip": false,
      "normalized": false,
      "special": true
    },
    {
      "id": 46,
      "content": "<0x24>",
      "single_word": false,
      "lstrip": false,
      "rstrip": false,
      "normalized": false,
      "special": true
    },
    {
      "id": 47,
      "content": "<0x25>",
      "single_word": false,
      "lstrip": false,
      "rstrip": false,
      "normalized": false,
      "special": true
    },
    {
      "id": 48,
      "content": "<0x26>",
      "single_word": false,
      "lstrip": false,
      "rstrip": false,
      "normalized": false,
      "special": true
    },
    {
      "id": 49,
      "content": "<0x27>",
      "single_word": false,
      "lstrip": false,
      "rstrip": false,
      "normalized": false,
      "special": true
    },
    {
      "id": 50,
      "content": "<0x28>",
      "single_word": false,
      "lstrip": false,
      "rstrip": false,
      "normalized": false,
      "special": true
    },
    {
      "id": 51,
      "content": "<0x29>",
      "single_word": false,
      "lstrip": false,
      "rstrip": false,
      "normalized": false,
      "special": true
    },
    {
      "id": 52,
      "content": "<0x2A>",
      "single_word": false,
      "lstrip": false,
      "rstrip": false,
      "normalized": false,
      "special": true
    },
    {
      "id": 53,
      "content": "<0x2B>",
      "single_word": false,
      "lstrip": false,
      "rstrip": false,
      "normalized": false,
      "special": true
    },
    {
      "id": 54,
      "content": "<0x2C>",
      "single_word": false,
      "lstrip": false,
      "rstrip": false,
      "normalized": false,
      "special": true
    },
    {
      "id": 55,
      "content": "<0x2D>",
      "single_word": false,
      "lstrip": false,
      "rstrip": false,
      "normalized": false,
      "special": true
    },
    {
      "id": 56,
      "content": "<0x2E>",
      "single_word": false,
      "lstrip": false,
      "rstrip": false,
      "normalized": false,
      "special": true
    },
    {
      "id": 57,
      "content": "<0x2F>",
      "single_word": false,
      "lstrip": false,
      "rstrip": false,
      "normalized": false,
      "special": true
    },
    {
      "id": 58,
      "content": "<0x30>",
      "single_word": false,
      "lstrip": false,
      "rstrip": false,
      "normalized": false,
      "special": true
    },
    {
      "id": 59,
      "content": "<0x31>",
      "single_word": false,
      "lstrip": false,
      "rstrip": false,
      "normalized": false,
      "special": true
    },
    {
      "id": 60,
      "content": "<0x32>",
      "single_word": false,
      "lstrip": false,
      "rstrip": false,
      "normalized": false,
      "special": true
    },
    {
      "id": 61,
      "content": "<0x33>",
      "single_word": false,
      "lstrip": false,
      "rstrip": false,
      "normalized": false,
      "special": true
    },
    {
      "id": 62,
      "content": "<0x34>",
      "single_word": false,
      "lstrip": false,
      "rstrip": false,
      "normalized": false,
      "special": true
    },
    {
      "id": 63,
      "content": "<0x35>",
      "single_word": false,
      "lstrip": false,
      "rstrip": false,
      "normalized": false,
      "special": true
    },
    {
      "id": 64,
      "content": "<0x36>",
      "single_word": false,
      "lstrip": false,
      "rstrip": false,
      "normalized": false,
      "special": true
    },
    {
      "id": 65,
      "content": "<0x37>",
      "single_word": false,
      "lstrip": false,
      "rstrip": false,
      "normalized": false,
      "special": true
    },
    {
      "id": 66,
      "content": "<0x38>",
      "single_word": false,
      "lstrip": false,
      "rstrip": false,
      "normalized": false,
      "special": true
    },
    {
      "id": 67,
      "content": "<0x39>",
      "single_word": false,
      "lstrip": false,
      "rstrip": false,
      "normalized": false,
      "special": true
    },
    {
      "id": 68,
      "content": "<0x3A>",
      "single_word": false,
      "lstrip": false,
      "rstrip": false,
      "normalized": false,
      "special": true
    },
    {
      "id": 69,
      "content": "<0x3B>",
      "single_word": false,
      "lstrip": false,
      "rstrip": false,
      "normalized": false,
      "special": true
    },
    {
      "id": 70,
      "content": "<0x3C>",
      "single_word": false,
      "lstrip": false,
      "rstrip": false,
      "normalized": false,
      "special": true
    },
    {
      "id": 71,
      "content": "<0x3D>",
      "single_word": false,
      "lstrip": false,
      "rstrip": false,
      "normalized": false,
      "special": true
    },
    {
      "id": 72,
      "content": "<0x3E>",
      "single_word": false,
      "lstrip": false,
      "rstrip": false,
      "normalized": false,
      "special": true
    },
    {
      "id": 73,
      "content": "<0x3F>",
      "single_word": false,
      "lstrip": false,
      "rstrip": false,
      "normalized": false,
      "special": true
    },
    {
      "id": 74,
      "content": "<0x40>",
      "single_word": false,
      "lstrip": false,
      "rstrip": false,
      "normalized": false,
      "special": true
    },
    {
      "id": 75,
      "content": "<0x41>",
      "single_word": false,
      "lstrip": false,
      "rstrip": false,
      "normalized": false,
      "special": true
    },
    {
      "id": 76,
      "content": "<0x42>",
      "single_word": false,
      "lstrip": false,
      "rstrip": false,
      "normalized": false,
      "special": true
    },
    {
      "id": 77,
      "content": "<0x43>",
      "single_word": false,
      "lstrip": false,
      "rstrip": false,
      "normalized": false,
      "special": true
    },
    {
      "id": 78,
      "content": "<0x44>",
      "single_word": false,
      "lstrip": false,
      "rstrip": false,
      "normalized": false,
      "special": true
    },
    {
      "id": 79,
      "content": "<0x45>",
      "single_word": false,
      "lstrip": false,
      "rstrip": false,
      "normalized": false,
      "special": true
    },
    {
      "id": 80,
      "content": "<0x46>",
      "single_word": false,
      "lstrip": false,
      "rstrip": false,
      "normalized": false,
      "special": true
    },
    {
      "id": 81,
      "content": "<0x47>",
      "single_word": false,
      "lstrip": false,
      "rstrip": false,
      "normalized": false,
      "special": true
    },
    {
      "id": 82,
      "content": "<0x48>",
      "single_word": false,
      "lstrip": false,
      "rstrip": false,
      "normalized": false,
      "special": true
    },
    {
      "id": 83,
      "content": "<0x49>",
      "single_word": false,
      "lstrip": false,
      "rstrip": false,
      "normalized": false,
      "special": true
    },
    {
      "id": 84,
      "content": "<0x4A>",
      "single_word": false,
      "lstrip": false,
      "rstrip": false,
      "normalized": false,
      "special": true
    },
    {
      "id": 85,
      "content": "<0x4B>",
      "single_word": false,
      "lstrip": false,
      "rstrip": false,
      "normalized": false,
      "special": true
    },
    {
      "id": 86,
      "content": "<0x4C>",
      "single_word": false,
      "lstrip": false,
      "rstrip": false,
      "normalized": false,
      "special": true
    },
    {
      "id": 87,
      "content": "<0x4D>",
      "single_word": false,
      "lstrip": false,
      "rstrip": false,
      "normalized": false,
      "special": true
    },
    {
      "id": 88,
      "content": "<0x4E>",
      "single_word": false,
      "lstrip": false,
      "rstrip": false,
      "normalized": false,
      "special": true
    },
    {
      "id": 89,
      "content": "<0x4F>",
      "single_word": false,
      "lstrip": false,
      "rstrip": false,
      "normalized": false,
      "special": true
    },
    {
      "id": 90,
      "content": "<0x50>",
      "single_word": false,
      "lstrip": false,
      "rstrip": false,
      "normalized": false,
      "special": true
    },
    {
      "id": 91,
      "content": "<0x51>",
      "single_word": false,
      "lstrip": false,
      "rstrip": false,
      "normalized": false,
      "special": true
    },
    {
      "id": 92,
      "content": "<0x52>",
      "single_word": false,
      "lstrip": false,
      "rstrip": false,
      "normalized": false,
      "special": true
    },
    {
      "id": 93,
      "content": "<0x53>",
      "single_word": false,
      "lstrip": false,
      "rstrip": false,
      "normalized": false,
      "special": true
    },
    {
      "id": 94,
      "content": "<0x54>",
      "single_word": false,
      "lstrip": false,
      "rstrip": false,
      "normalized": false,
      "special": true
    },
    {
      "id": 95,
      "content": "<0x55>",
      "single_word": false,
      "lstrip": false,
      "rstrip": false,
      "normalized": false,
      "special": true
    },
    {
      "id": 96,
      "content": "<0x56>",
      "single_word": false,
      "lstrip": false,
      "rstrip": false,
      "normalized": false,
      "special": true
    },
    {
      "id": 97,
      "content": "<0x57>",
      "single_word": false,
      "lstrip": false,
      "rstrip": false,
      "normalized": false,
      "special": true
    },
    {
      "id": 98,
      "content": "<0x58>",
      "single_word": false,
      "lstrip": false,
      "rstrip": false,
      "normalized": false,
      "special": true
    },
    {
      "id": 99,
      "content": "<0x59>",
      "single_word": false,
      "lstrip": false,
      "rstrip": false,
      "normalized": false,
      "special": true
    },
    {
      "id": 100,
      "content": "<0x5A>",
      "single_word": false,
      "lstrip": false,
      "rstrip": false,
      "normalized": false,
      "special": true
    },
    {
      "id": 101,
      "content": "<0x5B>",
      "single_word": false,
      "lstrip": false,
      "rstrip": false,
      "normalized": false,
      "special": true
    },
    {
      "id": 102,
      "content": "<0x5C>",
      "single_word": false,
      "lstrip": false,
      "rstrip": false,
      "normalized": false,
      "special": true
    },
    {
      "id": 103,
      "content": "<0x5D>",
      "single_word": false,
      "lstrip": false,
      "rstrip": false,
      "normalized": false,
      "special": true
    },
    {
      "id": 104,
      "content": "<0x5E>",
      "single_word": false,
      "lstrip": false,
      "rstrip": false,
      "normalized": false,
      "special": true
    },
    {
      "id": 105,
      "content": "<0x5F>",
      "single_word": false,
      "lstrip": false,
      "rstrip": false,
      "normalized": false,
      "special": true
    },
    {
      "id": 106,
      "content": "<0x60>",
      "single_word": false,
      "lstrip": false,
      "rstrip": false,
      "normalized": false,
      "special": true
    },
    {
      "id": 107,
      "content": "<0x61>",
      "single_word": false,
      "lstrip": false,
      "rstrip": false,
      "normalized": false,
      "special": true
    },
    {
      "id": 108,
      "content": "<0x62>",
      "single_word": false,
      "lstrip": false,
      "rstrip": false,
      "normalized": false,
      "special": true
    },
    {
      "id": 109,
      "content": "<0x63>",
      "single_word": false,
      "lstrip": false,
      "rstrip": false,
      "normalized": false,
      "special": true
    },
    {
      "id": 110,
      "content": "<0x64>",
      "single_word": false,
      "lstrip": false,
      "rstrip": false,
      "normalized": false,
      "special": true
    },
    {
      "id": 111,
      "content": "<0x65>",
      "single_word": false,
      "lstrip": false,
      "rstrip": false,
      "normalized": false,
      "special": true
    },
    {
      "id": 112,
      "content": "<0x66>",
      "single_word": false,
      "lstrip": false,
      "rstrip": false,
      "normalized": false,
      "special": true
    },
    {
      "id": 113,
      "content": "<0x67>",
      "single_word": false,
      "lstrip": false,
      "rstrip": false,
      "normalized": false,
      "special": true
    },
    {
      "id": 114,
      "content": "<0x68>",
      "single_word": false,
      "lstrip": false,
      "rstrip": false,
      "normalized": false,
      "special": true
    },
    {
      "id": 115,
      "content": "<0x69>",
      "single_word": false,
      "lstrip": false,
      "rstrip": false,
      "normalized": false,
      "special": true
    },
    {
      "id": 116,
      "content": "<0x6A>",
      "single_word": false,
      "lstrip": false,
      "rstrip": false,
      "normalized": false,
      "special": true
    },
    {
      "id": 117,
      "content": "<0x6B>",
      "single_word": false,
      "lstrip": false,
      "rstrip": false,
      "normalized": false,
      "special": true
    },
    {
      "id": 118,
      "content": "<0x6C>",
      "single_word": false,
      "lstrip": false,
      "rstrip": false,
      "normalized": false,
      "special": true
    },
    {
      "id": 119,
      "content": "<0x6D>",
      "single_word": false,
      "lstrip": false,
      "rstrip": false,
      "normalized": false,
      "special": true
    },
    {
      "id": 120,
      "content": "<0x6E>",
      "single_word": false,
      "lstrip": false,
      "rstrip": false,
      "normalized": false,
      "special": true
    },
    {
      "id": 121,
      "content": "<0x6F>",
      "single_word": false,
      "lstrip": false,
      "rstrip": false,
      "normalized": false,
      "special": true
    },
    {
      "id": 122,
      "content": "<0x70>",
      "single_word": false,
      "lstrip": false,
      "rstrip": false,
      "normalized": false,
      "special": true
    },
    {
      "id": 123,
      "content": "<0x71>",
      "single_word": false,
      "lstrip": false,
      "rstrip": false,
      "normalized": false,
      "special": true
    },
    {
      "id": 124,
      "content": "<0x72>",
      "single_word": false,
      "lstrip": false,
      "rstrip": false,
      "normalized": false,
      "special": true
    },
    {
      "id": 125,
      "content": "<0x73>",
      "single_word": false,
      "lstrip": false,
      "rstrip": false,
      "normalized": false,
      "special": true
    },
    {
      "id": 126,
      "content": "<0x74>",
      "single_word": false,
      "lstrip": false,
      "rstrip": false,
      "normalized": false,
      "special": true
    },
    {
      "id": 127,
      "content": "<0x75>",
      "single_word": false,
      "lstrip": false,
      "rstrip": false,
      "normalized": false,
      "special": true
    },
    {
      "id": 128,
      "content": "<0x76>",
      "single_word": false,
      "lstrip": false,
      "rstrip": false,
      "normalized": false,
      "special": true
    },
    {
      "id": 129,
      "content": "<0x77>",
      "single_word": false,
      "lstrip": false,
      "rstrip": false,
      "normalized": false,
      "special": true
    },
    {
      "id": 130,
      "content": "<0x78>",
      "single_word": false,
      "lstrip": false,
      "rstrip": false,
      "normalized": false,
      "special": true
    },
    {
      "id": 131,
      "content": "<0x79>",
      "single_word": false,
      "lstrip": false,
      "rstrip": false,
      "normalized": false,
      "special": true
    },
    {
      "id": 132,
      "content": "<0x7A>",
      "single_word": false,
      "lstrip": false,
      "rstrip": false,
      "normalized": false,
      "special": true
    },
    {
      "id": 133,
      "content": "<0x7B>",
      "single_word": false,
      "lstrip": false,
      "rstrip": false,
      "normalized": false,
      "special": true
    },
    {
      "id": 134,
      "content": "<0x7C>",
      "single_word": false,
      "lstrip": false,
      "rstrip": false,
      "normalized": false,
      "special": true
    },
    {
      "id": 135,
      "content": "<0x7D>",
      "single_word": false,
      "lstrip": false,
      "rstrip": false,
      "normalized": false,
      "special": true
    },
    {
      "id": 136,
      "content": "<0x7E>",
      "single_word": false,
      "lstrip": false,
      "rstrip": false,
      "normalized": false,
      "special": true
    },
    {
      "id": 137,
      "content": "<0x7F>",
      "single_word": false,
      "lstrip": false,
      "rstrip": false,
      "normalized": false,
      "special": true
    },
    {
      "id": 138,
      "content": "<0x80>",
      "single_word": false,
      "lstrip": false,
      "rstrip": false,
      "normalized": false,
      "special": true
    },
    {
      "id": 139,
      "content": "<0x81>",
      "single_word": false,
      "lstrip": false,
      "rstrip": false,
      "normalized": false,
      "special": true
    },
    {
      "id": 140,
      "content": "<0x82>",
      "single_word": false,
      "lstrip": false,
      "rstrip": false,
      "normalized": false,
      "special": true
    },
    {
      "id": 141,
      "content": "<0x83>",
      "single_word": false,
      "lstrip": false,
      "rstrip": false,
      "normalized": false,
      "special": true
    },
    {
      "id": 142,
      "content": "<0x84>",
      "single_word": false,
      "lstrip": false,
      "rstrip": false,
      "normalized": false,
      "special": true
    },
    {
      "id": 143,
      "content": "<0x85>",
      "single_word": false,
      "lstrip": false,
      "rstrip": false,
      "normalized": false,
      "special": true
    },
    {
      "id": 144,
      "content": "<0x86>",
      "single_word": false,
      "lstrip": false,
      "rstrip": false,
      "normalized": false,
      "special": true
    },
    {
      "id": 145,
      "content": "<0x87>",
      "single_word": false,
      "lstrip": false,
      "rstrip": false,
      "normalized": false,
      "special": true
    },
    {
      "id": 146,
      "content": "<0x88>",
      "single_word": false,
      "lstrip": false,
      "rstrip": false,
      "normalized": false,
      "special": true
    },
    {
      "id": 147,
      "content": "<0x89>",
      "single_word": false,
      "lstrip": false,
      "rstrip": false,
      "normalized": false,
      "special": true
    },
    {
      "id": 148,
      "content": "<0x8A>",
      "single_word": false,
      "lstrip": false,
      "rstrip": false,
      "normalized": false,
      "special": true
    },
    {
      "id": 149,
      "content": "<0x8B>",
      "single_word": false,
      "lstrip": false,
      "rstrip": false,
      "normalized": false,
      "special": true
    },
    {
      "id": 150,
      "content": "<0x8C>",
      "single_word": false,
      "lstrip": false,
      "rstrip": false,
      "normalized": false,
      "special": true
    },
    {
      "id": 151,
      "content": "<0x8D>",
      "single_word": false,
      "lstrip": false,
      "rstrip": false,
      "normalized": false,
      "special": true
    },
    {
      "id": 152,
      "content": "<0x8E>",
      "single_word": false,
      "lstrip": false,
      "rstrip": false,
      "normalized": false,
      "special": true
    },
    {
      "id": 153,
      "content": "<0x8F>",
      "single_word": false,
      "lstrip": false,
      "rstrip": false,
      "normalized": false,
      "special": true
    },
    {
      "id": 154,
      "content": "<0x90>",
      "single_word": false,
      "lstrip": false,
      "rstrip": false,
      "normalized": false,
      "special": true
    },
    {
      "id": 155,
      "content": "<0x91>",
      "single_word": false,
      "lstrip": false,
      "rstrip": false,
      "normalized": false,
      "special": true
    },
    {
      "id": 156,
      "content": "<0x92>",
      "single_word": false,
      "lstrip": false,
      "rstrip": false,
      "normalized": false,
      "special": true
    },
    {
      "id": 157,
      "content": "<0x93>",
      "single_word": false,
      "lstrip": false,
      "rstrip": false,
      "normalized": false,
      "special": true
    },
    {
      "id": 158,
      "content": "<0x94>",
      "single_word": false,
      "lstrip": false,
      "rstrip": false,
      "normalized": false,
      "special": true
    },
    {
      "id": 159,
      "content": "<0x95>",
      "single_word": false,
      "lstrip": false,
      "rstrip": false,
      "normalized": false,
      "special": true
    },
    {
      "id": 160,
      "content": "<0x96>",
      "single_word": false,
      "lstrip": false,
      "rstrip": false,
      "normalized": false,
      "special": true
    },
    {
      "id": 161,
      "content": "<0x97>",
      "single_word": false,
      "lstrip": false,
      "rstrip": false,
      "normalized": false,
      "special": true
    },
    {
      "id": 162,
      "content": "<0x98>",
      "single_word": false,
      "lstrip": false,
      "rstrip": false,
      "normalized": false,
      "special": true
    },
    {
      "id": 163,
      "content": "<0x99>",
      "single_word": false,
      "lstrip": false,
      "rstrip": false,
      "normalized": false,
      "special": true
    },
    {
      "id": 164,
      "content": "<0x9A>",
      "single_word": false,
      "lstrip": false,
      "rstrip": false,
      "normalized": false,
      "special": true
    },
    {
      "id": 165,
      "content": "<0x9B>",
      "single_word": false,
      "lstrip": false,
      "rstrip": false,
      "normalized": false,
      "special": true
    },
    {
      "id": 166,
      "content": "<0x9C>",
      "single_word": false,
      "lstrip": false,
      "rstrip": false,
      "normalized": false,
      "special": true
    },
    {
      "id": 167,
      "content": "<0x9D>",
      "single_word": false,
      "lstrip": false,
      "rstrip": false,
      "normalized": false,
      "special": true
    },
    {
      "id": 168,
      "content": "<0x9E>",
      "single_word": false,
      "lstrip": false,
      "rstrip": false,
      "normalized": false,
      "special": true
    },
    {
      "id": 169,
      "content": "<0x9F>",
      "single_word": false,
      "lstrip": false,
      "rstrip": false,
      "normalized": false,
      "special": true
    },
    {
      "id": 170,
      "content": "<0xA0>",
      "single_word": false,
      "lstrip": false,
      "rstrip": false,
      "normalized": false,
      "special": true
    },
    {
      "id": 171,
      "content": "<0xA1>",
      "single_word": false,
      "lstrip": false,
      "rstrip": false,
      "normalized": false,
      "special": true
    },
    {
      "id": 172,
      "content": "<0xA2>",
      "single_word": false,
      "lstrip": false,
      "rstrip": false,
      "normalized": false,
      "special": true
    },
    {
      "id": 173,
      "content": "<0xA3>",
      "single_word": false,
      "lstrip": false,
      "rstrip": false,
      "normalized": false,
      "special": true
    },
    {
      "id": 174,
      "content": "<0xA4>",
      "single_word": false,
      "lstrip": false,
      "rstrip": false,
      "normalized": false,
      "special": true
    },
    {
      "id": 175,
      "content": "<0xA5>",
      "single_word": false,
      "lstrip": false,
      "rstrip": false,
      "normalized": false,
      "special": true
    },
    {
      "id": 176,
      "content": "<0xA6>",
      "single_word": false,
      "lstrip": false,
      "rstrip": false,
      "normalized": false,
      "special": true
    },
    {
      "id": 177,
      "content": "<0xA7>",
      "single_word": false,
      "lstrip": false,
      "rstrip": false,
      "normalized": false,
      "special": true
    },
    {
      "id": 178,
      "content": "<0xA8>",
      "single_word": false,
      "lstrip": false,
      "rstrip": false,
      "normalized": false,
      "special": true
    },
    {
      "id": 179,
      "content": "<0xA9>",
      "single_word": false,
      "lstrip": false,
      "rstrip": false,
      "normalized": false,
      "special": true
    },
    {
      "id": 180,
      "content": "<0xAA>",
      "single_word": false,
      "lstrip": false,
      "rstrip": false,
      "normalized": false,
      "special": true
    },
    {
      "id": 181,
      "content": "<0xAB>",
      "single_word": false,
      "lstrip": false,
      "rstrip": false,
      "normalized": false,
      "special": true
    },
    {
      "id": 182,
      "content": "<0xAC>",
      "single_word": false,
      "lstrip": false,
      "rstrip": false,
      "normalized": false,
      "special": true
    },
    {
      "id": 183,
      "content": "<0xAD>",
      "single_word": false,
      "lstrip": false,
      "rstrip": false,
      "normalized": false,
      "special": true
    },
    {
      "id": 184,
      "content": "<0xAE>",
      "single_word": false,
      "lstrip": false,
      "rstrip": false,
      "normalized": false,
      "special": true
    },
    {
      "id": 185,
      "content": "<0xAF>",
      "single_word": false,
      "lstrip": false,
      "rstrip": false,
      "normalized": false,
      "special": true
    },
    {
      "id": 186,
      "content": "<0xB0>",
      "single_word": false,
      "lstrip": false,
      "rstrip": false,
      "normalized": false,
      "special": true
    },
    {
      "id": 187,
      "content": "<0xB1>",
      "single_word": false,
      "lstrip": false,
      "rstrip": false,
      "normalized": false,
      "special": true
    },
    {
      "id": 188,
      "content": "<0xB2>",
      "single_word": false,
      "lstrip": false,
      "rstrip": false,
      "normalized": false,
      "special": true
    },
    {
      "id": 189,
      "content": "<0xB3>",
      "single_word": false,
      "lstrip": false,
      "rstrip": false,
      "normalized": false,
      "special": true
    },
    {
      "id": 190,
      "content": "<0xB4>",
      "single_word": false,
      "lstrip": false,
      "rstrip": false,
      "normalized": false,
      "special": true
    },
    {
      "id": 191,
      "content": "<0xB5>",
      "single_word": false,
      "lstrip": false,
      "rstrip": false,
      "normalized": false,
      "special": true
    },
    {
      "id": 192,
      "content": "<0xB6>",
      "single_word": false,
      "lstrip": false,
      "rstrip": false,
      "normalized": false,
      "special": true
    },
    {
      "id": 193,
      "content": "<0xB7>",
      "single_word": false,
      "lstrip": false,
      "rstrip": false,
      "normalized": false,
      "special": true
    },
    {
      "id": 194,
      "content": "<0xB8>",
      "single_word": false,
      "lstrip": false,
      "rstrip": false,
      "normalized": false,
      "special": true
    },
    {
      "id": 195,
      "content": "<0xB9>",
      "single_word": false,
      "lstrip": false,
      "rstrip": false,
      "normalized": false,
      "special": true
    },
    {
      "id": 196,
      "content": "<0xBA>",
      "single_word": false,
      "lstrip": false,
      "rstrip": false,
      "normalized": false,
      "special": true
    },
    {
      "id": 197,
      "content": "<0xBB>",
      "single_word": false,
      "lstrip": false,
      "rstrip": false,
      "normalized": false,
      "special": true
    },
    {
      "id": 198,
      "content": "<0xBC>",
      "single_word": false,
      "lstrip": false,
      "rstrip": false,
      "normalized": false,
      "special": true
    },
    {
      "id": 199,
      "content": "<0xBD>",
      "single_word": false,
      "lstrip": false,
      "rstrip": false,
      "normalized": false,
      "special": true
    },
    {
      "id": 200,
      "content": "<0xBE>",
      "single_word": false,
      "lstrip": false,
      "rstrip": false,
      "normalized": false,
      "special": true
    },
    {
      "id": 201,
      "content": "<0xBF>",
      "single_word": false,
      "lstrip": false,
      "rstrip": false,
      "normalized": false,
      "special": true
    },
    {
      "id": 202,
      "content": "<0xC0>",
      "single_word": false,
      "lstrip": false,
      "rstrip": false,
      "normalized": false,
      "special": true
    },
    {
      "id": 203,
      "content": "<0xC1>",
      "single_word": false,
      "lstrip": false,
      "rstrip": false,
      "normalized": false,
      "special": true
    },
    {
      "id": 204,
      "content": "<0xC2>",
      "single_word": false,
      "lstrip": false,
      "rstrip": false,
      "normalized": false,
      "special": true
    },
    {
      "id": 205,
      "content": "<0xC3>",
      "single_word": false,
      "lstrip": false,
      "rstrip": false,
      "normalized": false,
      "special": true
    },
    {
      "id": 206,
      "content": "<0xC4>",
      "single_word": false,
      "lstrip": false,
      "rstrip": false,
      "normalized": false,
      "special": true
    },
    {
      "id": 207,
      "content": "<0xC5>",
      "single_word": false,
      "lstrip": false,
      "rstrip": false,
      "normalized": false,
      "special": true
    },
    {
      "id": 208,
      "content": "<0xC6>",
      "single_word": false,
      "lstrip": false,
      "rstrip": false,
      "normalized": false,
      "special": true
    },
    {
      "id": 209,
      "content": "<0xC7>",
      "single_word": false,
      "lstrip": false,
      "rstrip": false,
      "normalized": false,
      "special": true
    },
    {
      "id": 210,
      "content": "<0xC8>",
      "single_word": false,
      "lstrip": false,
      "rstrip": false,
      "normalized": false,
      "special": true
    },
    {
      "id": 211,
      "content": "<0xC9>",
      "single_word": false,
      "lstrip": false,
      "rstrip": false,
      "normalized": false,
      "special": true
    },
    {
      "id": 212,
      "content": "<0xCA>",
      "single_word": false,
      "lstrip": false,
      "rstrip": false,
      "normalized": false,
      "special": true
    },
    {
      "id": 213,
      "content": "<0xCB>",
      "single_word": false,
      "lstrip": false,
      "rstrip": false,
      "normalized": false,
      "special": true
    },
    {
      "id": 214,
      "content": "<0xCC>",
      "single_word": false,
      "lstrip": false,
      "rstrip": false,
      "normalized": false,
      "special": true
    },
    {
      "id": 215,
      "content": "<0xCD>",
      "single_word": false,
      "lstrip": false,
      "rstrip": false,
      "normalized": false,
      "special": true
    },
    {
      "id": 216,
      "content": "<0xCE>",
      "single_word": false,
      "lstrip": false,
      "rstrip": false,
      "normalized": false,
      "special": true
    },
    {
      "id": 217,
      "content": "<0xCF>",
      "single_word": false,
      "lstrip": false,
      "rstrip": false,
      "normalized": false,
      "special": true
    },
    {
      "id": 218,
      "content": "<0xD0>",
      "single_word": false,
      "lstrip": false,
      "rstrip": false,
      "normalized": false,
      "special": true
    },
    {
      "id": 219,
      "content": "<0xD1>",
      "single_word": false,
      "lstrip": false,
      "rstrip": false,
      "normalized": false,
      "special": true
    },
    {
      "id": 220,
      "content": "<0xD2>",
      "single_word": false,
      "lstrip": false,
      "rstrip": false,
      "normalized": false,
      "special": true
    },
    {
      "id": 221,
      "content": "<0xD3>",
      "single_word": false,
      "lstrip": false,
      "rstrip": false,
      "normalized": false,
      "special": true
    },
    {
      "id": 222,
      "content": "<0xD4>",
      "single_word": false,
      "lstrip": false,
      "rstrip": false,
      "normalized": false,
      "special": true
    },
    {
      "id": 223,
      "content": "<0xD5>",
      "single_word": false,
      "lstrip": false,
      "rstrip": false,
      "normalized": false,
      "special": true
    },
    {
      "id": 224,
      "content": "<0xD6>",
      "single_word": false,
      "lstrip": false,
      "rstrip": false,
      "normalized": false,
      "special": true
    },
    {
      "id": 225,
      "content": "<0xD7>",
      "single_word": false,
      "lstrip": false,
      "rstrip": false,
      "normalized": false,
      "special": true
    },
    {
      "id": 226,
      "content": "<0xD8>",
      "single_word": false,
      "lstrip": false,
      "rstrip": false,
      "normalized": false,
      "special": true
    },
    {
      "id": 227,
      "content": "<0xD9>",
      "single_word": false,
      "lstrip": false,
      "rstrip": false,
      "normalized": false,
      "special": true
    },
    {
      "id": 228,
      "content": "<0xDA>",
      "single_word": false,
      "lstrip": false,
      "rstrip": false,
      "normalized": false,
      "special": true
    },
    {
      "id": 229,
      "content": "<0xDB>",
      "single_word": false,
      "lstrip": false,
      "rstrip": false,
      "normalized": false,
      "special": true
    },
    {
      "id": 230,
      "content": "<0xDC>",
      "single_word": false,
      "lstrip": false,
      "rstrip": false,
      "normalized": false,
      "special": true
    },
    {
      "id": 231,
      "content": "<0xDD>",
      "single_word": false,
      "lstrip": false,
      "rstrip": false,
      "normalized": false,
      "special": true
    },
    {
      "id": 232,
      "content": "<0xDE>",
      "single_word": false,
      "lstrip": false,
      "rstrip": false,
      "normalized": false,
      "special": true
    },
    {
      "id": 233,
      "content": "<0xDF>",
      "single_word": false,
      "lstrip": false,
      "rstrip": false,
      "normalized": false,
      "special": true
    },
    {
      "id": 234,
      "content": "<0xE0>",
      "single_word": false,
      "lstrip": false,
      "rstrip": false,
      "normalized": false,
      "special": true
    },
    {
      "id": 235,
      "content": "<0xE1>",
      "single_word": false,
      "lstrip": false,
      "rstrip": false,
      "normalized": false,
      "special": true
    },
    {
      "id": 236,
      "content": "<0xE2>",
      "single_word": false,
      "lstrip": false,
      "rstrip": false,
      "normalized": false,
      "special": true
    },
    {
      "id": 237,
      "content": "<0xE3>",
      "single_word": false,
      "lstrip": false,
      "rstrip": false,
      "normalized": false,
      "special": true
    },
    {
      "id": 238,
      "content": "<0xE4>",
      "single_word": false,
      "lstrip": false,
      "rstrip": false,
      "normalized": false,
      "special": true
    },
    {
      "id": 239,
      "content": "<0xE5>",
      "single_word": false,
      "lstrip": false,
      "rstrip": false,
      "normalized": false,
      "special": true
    },
    {
      "id": 240,
      "content": "<0xE6>",
      "single_word": false,
      "lstrip": false,
      "rstrip": false,
      "normalized": false,
      "special": true
    },
    {
      "id": 241,
      "content": "<0xE7>",
      "single_word": false,
      "lstrip": false,
      "rstrip": false,
      "normalized": false,
      "special": true
    },
    {
      "id": 242,
      "content": "<0xE8>",
      "single_word": false,
      "lstrip": false,
      "rstrip": false,
      "normalized": false,
      "special": true
    },
    {
      "id": 243,
      "content": "<0xE9>",
      "single_word": false,
      "lstrip": false,
      "rstrip": false,
      "normalized": false,
      "special": true
    },
    {
      "id": 244,
      "content": "<0xEA>",
      "single_word": false,
      "lstrip": false,
      "rstrip": false,
      "normalized": false,
      "special": true
    },
    {
      "id": 245,
      "content": "<0xEB>",
      "single_word": false,
      "lstrip": false,
      "rstrip": false,
      "normalized": false,
      "special": true
    },
    {
      "id": 246,
      "content": "<0xEC>",
      "single_word": false,
      "lstrip": false,
      "rstrip": false,
      "normalized": false,
      "special": true
    },
    {
      "id": 247,
      "content": "<0xED>",
      "single_word": false,
      "lstrip": false,
      "rstrip": false,
      "normalized": false,
      "special": true
    },
    {
      "id": 248,
      "content": "<0xEE>",
      "single_word": false,
      "lstrip": false,
      "rstrip": false,
      "normalized": false,
      "special": true
    },
    {
      "id": 249,
      "content": "<0xEF>",
      "single_word": false,
      "lstrip": false,
      "rstrip": false,
      "normalized": false,
      "special": true
    },
    {
      "id": 250,
      "content": "<0xF0>",
      "single_word": false,
      "lstrip": false,
      "rstrip": false,
      "normalized": false,
      "special": true
    },
    {
      "id": 251,
      "content": "<0xF1>",
      "single_word": false,
      "lstrip": false,
      "rstrip": false,
      "normalized": false,
      "special": true
    },
    {
      "id": 252,
      "content": "<0xF2>",
      "single_word": false,
      "lstrip": false,
      "rstrip": false,
      "normalized": false,
      "special": true
    },
    {
      "id": 253,
      "content": "<0xF3>",
      "single_word": false,
      "lstrip": false,
      "rstrip": false,
      "normalized": false,
      "special": true
    },
    {
      "id": 254,
      "content": "<0xF4>",
      "single_word": false,
      "lstrip": false,
      "rstrip": false,
      "normalized": false,
      "special": true
    },
    {
      "id": 255,
      "content": "<0xF5>",
      "single_word": false,
      "lstrip": false,
      "rstrip": false,
      "normalized": false,
      "special": true
    },
    {
      "id": 256,
      "content": "<0xF6>",
      "single_word": false,
      "lstrip": false,
      "rstrip": false,
      "normalized": false,
      "special": true
    },
    {
      "id": 257,
      "content": "<0xF7>",
      "single_word": false,
      "lstrip": false,
      "rstrip": false,
      "normalized": false,
      "special": true
    },
    {
      "id": 258,
      "content": "<0xF8>",
      "single_word": false,
      "lstrip": false,
      "rstrip": false,
      "normalized": false,
      "special": true
    },
    {
      "id": 259,
      "content": "<0xF9>",
      "single_word": false,
      "lstrip": false,
      "rstrip": false,
      "normalized": false,
      "special": true
    },
    {
      "id": 260,
      "content": "<0xFA>",
      "single_word": false,
      "lstrip": false,
      "rstrip": false,
      "normalized": false,
      "special": true
    },
    {
      "id": 261,
      "content": "<0xFB>",
      "single_word": false,
      "lstrip": false,
      "rstrip": false,
      "normalized": false,
      "special": true
    },
    {
      "id": 262,
      "content": "<0xFC>",
      "single_word": false,
      "lstrip": false,
      "rstrip": false,
      "normalized": false,
      "special": true
    },
    {
      "id": 263,
      "content": "<0xFD>",
      "single_word": false,
      "lstrip": false,
      "rstrip": false,
      "normalized": false,
      "special": true
    },
    {
      "id": 264,
      "content": "<0xFE>",
      "single_word": false,
      "lstrip": false,
      "rstrip": false,
      "normalized": false,
      "special": true
    },
    {
      "id": 265,
      "content": "<0xFF>",
      "single_word": false,
      "lstrip": false,
      "rstrip": false,
      "normalized": false,
      "special": true
    }
  ],
  "normalizer": {
    "type": "NFKC"
  },
  "pre_tokenizer": null,
  "post_processor": null,
  "decoder": {
    "type": "Sequence",
    "decoders": [
      {
        "type": "ByteFallback"
      },
      {
        "type": "BPEDecoder",
        "suffix": "</w>"
      }
    ]
  },
  "model": {
    "type": "BPE",
    "dropout": null,
    "unk_token": "<unk>",
    "continuing_subword_prefix": null,
    "end_of_word_suffix": "</w>",
    "fuse_unk": false,
    "byte_fallback": true,
    "ignore_merges": false,
    "vocab": {
      "<unk>": 0,
      "<s>": 1,
      "</s>": 2,
      "<pad>": 3,
      "<mask>": 4,
      "<|fim_prefix|>": 5,
      "<|fim_middle|>": 6,
      "<|fim_suffix|>": 7,
      "<|fim_pad|>": 8,
      "<|file_separator|>": 9,
      "<0x00>": 10,
      "<0x01>": 11,
      "<0x02>": 12,
      "<0x03>": 13,
      "<0x04>": 14,
      "<0x05>": 15,
      "<0x06>": 16,
      "<0x07>": 17,
      "<0x08>": 18,
      "<0x09>": 19,
      "<0x0A>": 20,
      "<0x0B>": 21,
      "<0x0C>": 22,
      "<0x0D>": 23,
      "<0x0E>": 24,
      "<0x0F>": 25,
      "<0x10>": 26,
      "<0x11>": 27,
      "<0x12>": 28,
      "<0x13>": 29,
      "<0x14>": 30,
      "<0x15>": 31,
      "<0x16>": 32,
      "<0x17>": 33,
      "<0x18>": 34,
      "<0x19>": 35,
      "<0x1A>": 36,
      "<0x1B>": 37,
      "<0x1C>": 38,
      "<0x1D>": 39,
      "<0x1E>": 40,
      "<0x1F>": 41,
      "<0x20>": 42,
      "<0x21>": 43,
      "<0x22>": 44,
      "<0x23>": 45,
      "<0x24>": 46,
      "<0x25>": 47,
      "<0x26>": 48,
      "<0x27>": 49,
      "<0x28>": 50,
      "<0x29>": 51,
      "<0x2A>": 52,
      "<0x2B>": 53,
      "<0x2C>": 54,
      "<0x2D>": 55,
      "<0x2E>": 56,
      "<0x2F>": 57,
      "<0x30>": 58,
      "<0x31>": 59,
      "<0x32>": 60,
      "<0x33>": 61,
      "<0x34>": 62,
      "<0x35>": 63,
      "<0x36>": 64,
      "<0x37>": 65,
      "<0x38>": 66,
      "<0x39>": 67,
      "<0x3A>": 68,
      "<0x3B>": 69,
      "<0x3C>": 70,
      "<0x3D>": 71,
      "<0x3E>": 72,
      "<0x3F>": 73,
      "<0x40>": 74,
      "<0x41>": 75,
      "<0x42>": 76,
      "<0x43>": 77,
      "<0x44>": 78,
      "<0x45>": 79,
      "<0x46>": 80,
      "<0x47>": 81,
      "<0x48>": 82,
      "<0x49>": 83,
      "<0x4A>": 84,
      "<0x4B>": 85,
      "<0x4C>": 86,
      "<0x4D>": 87,
      "<0x4E>": 88,
      "<0x4F>": 89,
      "<0x50>": 90,
      "<0x51>": 91,
      "<0x52>": 92,
      "<0x53>": 93,
      "<0x54>": 94,
      "<0x55>": 95,
      "<0x56>": 96,
      "<0x57>": 97,
      "<0x58>": 98,
      "<0x59>": 99,
      "<0x5A>": 100,
      "<0x5B>": 101,
      "<0x5C>": 102,
      "<0x5D>": 103,
      "<0x5E>": 104,
      "<0x5F>": 105,
      "<0x60>": 106,
      "<0x61>": 107,
      "<0x62>": 108,
      "<0x63>": 109,
      "<0x64>": 110,
      "<0x65>": 111,
      "<0x66>": 112,
      "<0x67>": 113,
      "<0x68>": 114,
      "<0x69>": 115,
      "<0x6A>": 116,
      "<0x6B>": 117,
      "<0x6C>": 118,
      "<0x6D>": 119,
      "<0x6E>": 120,
      "<0x6F>": 121,
      "<0x70>": 122,
      "<0x71>": 123,
      "<0x72>": 124,
      "<0x73>": 125,
      "<0x74>": 126,
      "<0x75>": 127,
      "<0x76>": 128,
      "<0x77>": 129,
      "<0x78>": 130,
      "<0x79>": 131,
      "<0x7A>": 132,
      "<0x7B>": 133,
      "<0x7C>": 134,
      "<0x7D>": 135,
      "<0x7E>": 136,
      "<0x7F>": 137,
      "<0x80>": 138,
      "<0x81>": 139,
      "<0x82>": 140,
      "<0x83>": 141,
      "<0x84>": 142,
      "<0x85>": 143,
      "<0x86>": 144,
      "<0x87>": 145,
      "<0x88>": 146,
      "<0x89>": 147,
      "<0x8A>": 148,
      "<0x8B>": 149,
      "<0x8C>": 150,
      "<0x8D>": 151,
      "<0x8E>": 152,
      "<0x8F>": 153,
      "<0x90>": 154,
      "<0x91>": 155,
      "<0x92>": 156,
      "<0x93>": 157,
      "<0x94>": 158,
      "<0x95>": 159,
      "<0x96>": 160,
      "<0x97>": 161,
      "<0x98>": 162,
      "<0x99>": 163,
      "<0x9A>": 164,
      "<0x9B>": 165,
      "<0x9C>": 166,
      "<0x9D>": 167,
      "<0x9E>": 168,
      "<0x9F>": 169,
      "<0xA0>": 170,
      "<0xA1>": 171,
      "<0xA2>": 172,
      "<0xA3>": 173,
      "<0xA4>": 174,
      "<0xA5>": 175,
      "<0xA6>": 176,
      "<0xA7>": 177,
      "<0xA8>": 178,
      "<0xA9>": 179,
      "<0xAA>": 180,
      "<0xAB>": 181,
      "<0xAC>": 182,
      "<0xAD>": 183,
      "<0xAE>": 184,
      "<0xAF>": 185,
      "<0xB0>": 186,
      "<0xB1>": 187,
      "<0xB2>": 188,
      "<0xB3>": 189,
      "<0xB4>": 190,
      "<0xB5>": 191,
      "<0xB6>": 192,
      "<0xB7>": 193,
      "<0xB8>": 194,
      "<0xB9>": 195,
      "<0xBA>": 196,
      "<0xBB>": 197,
      "<0xBC>": 198,
      "<0xBD>": 199,
      "<0xBE>": 200,
      "<0xBF>": 201,
      "<0xC0>": 202,
      "<0xC1>": 203,
      "<0xC2>": 204,
      "<0xC3>": 205,
      "<0xC4>": 206,
      "<0xC5>": 207,
      "<0xC6>": 208,
      "<0xC7>": 209,
      "<0xC8>": 210,
      "<0xC9>": 211,
      "<0xCA>": 212,
      "<0xCB>": 213,
      "<0xCC>": 214,
      "<0xCD>": 215,
      "<0xCE>": 216,
      "<0xCF>": 217,
      "<0xD0>": 218,
      "<0xD1>": 219,
      "<0xD2>": 220,
      "<0xD3>": 221,
      "<0xD4>": 222,
      "<0xD5>": 223,
      "<0xD6>": 224,
      "<0xD7>": 225,
      "<0xD8>": 226,
      "<0xD9>": 227,
      "<0xDA>": 228,
      "<0xDB>": 229,
      "<0xDC>": 230,
      "<0xDD>": 231,
      "<0xDE>": 232,
      "<0xDF>": 233,
      "<0xE0>": 234,
      "<0xE1>": 235,
      "<0xE2>": 236,
      "<0xE3>": 237,
      "<0xE4>": 238,
      "<0xE5>": 239,
      "<0xE6>": 240,
      "<0xE7>": 241,
      "<0xE8>": 242,
      "<0xE9>": 243,
      "<0xEA>": 244,
      "<0xEB>": 245,
      "<0xEC>": 246,
      "<0xED>": 247,
      "<0xEE>": 248,
      "<0xEF>": 249,
      "<0xF0>": 250,
      "<0xF1>": 251,
      "<0xF2>": 252,
      "<0xF3>": 253,
      "<0xF4>": 254,
      "<0xF5>": 255,
      "<0xF6>": 256,
      "<0xF7>": 257,
      "<0xF8>": 258,
      "<0xF9>": 259,
      "<0xFA>": 260,
      "<0xFB>": 261,
      "<0xFC>": 262,
      "<0xFD>": 263,
      "<0xFE>": 264,
      "<0xFF>": 265,
      "\t": 266,
      "\n": 267,
      "\f": 268,
      "\r": 269,
      " ": 270,
      "!": 271,
      "\"": 272,
      "#": 273,
      "$": 274,
      "%": 275,
      "&": 276,
      "'": 277,
      "(": 278,
      ")": 279,
      "*": 280,
      "+": 281,
      ",": 282,
      "-": 283,
      ".": 284,
      "/": 285,
      "0": 286,
      "1": 287,
      "2": 288,
      "3": 289,
      "4": 290,
      "5": 291,
      "6": 292,
      "7": 293,
      "8": 294,
      "9": 295,
      ":": 296,
      ";": 297,
      "<": 298,
      "=": 299,
      ">": 300,
      "?": 301,
      "@": 302,
      "A": 303,
      "B": 304,
      "C": 305,
      "D": 306,
      "E": 307,
      "F": 308,
      "G": 309,
      "H": 310,
      "I": 311,
      "J": 312,
      "K": 313,
      "L": 314,
      "M": 315,
      "N": 316,
      "O": 317,
      "P": 318,
      "Q": 319,
      "R": 320,
      "S": 321,
      "T": 322,
      "U": 323,
      "V": 324,
      "W": 325,
      "X": 326,
      "Y": 327,
      "Z": 328,
      "[": 329,
      "\\": 330,
      "]": 331,
      "^": 332,
      "_": 333,
      "`": 334,
      "a": 335,
      "b": 336,
      "c": 337,
      "d": 338,
      "e": 339,
      "f": 340,
      "g": 341,
      "h": 342,
      "i": 343,
      "j": 344,
      "k": 345,
      "l": 346,
      "m": 347,
      "n": 348,
      "o": 349,
      "p": 350,
      "q": 351,
      "r": 352,
      "s": 353,
      "t": 354,
      "u": 355,
      "v": 356,
      "w": 357,
      "x": 358,
      "y": 359,
      "z": 360,
      "{": 361,
      "|": 362,
      "}": 363,
      "~": 364,
      "¡": 365,
      "¢": 366,
      "£": 367,
      "¤": 368,
      "¥": 369,
      "¦": 370,
      "§": 371,
      "©": 372,
      "«": 373,
      "¬": 374,
      "­": 375,
      "®": 376,
      "°": 377,
      "±": 378,
      "¶": 379,
      "·": 380,
      "»": 381,
      "¿": 382,
      "À": 383,
      "Á": 384,
      "Â": 385,
      "Ã": 386,
      "Ä": 387,
      "Å": 388,
      "Æ": 389,
      "Ç": 390,
      "È": 391,
      "É": 392,
      "Ê": 393,
      "Ë": 394,
      "Ì": 395,
      "Í": 396,
      "Î": 397,
      "Ï": 398,
      "Ð": 399,
      "Ñ": 400,
      "Ò": 401,
      "Ó": 402,
      "Ô": 403,
      "Õ": 404,
      "Ö": 405,
      "×": 406,
      "Ø": 407,
      "Ù": 408,
      "Ú": 409,
      "Û": 410,
      "Ü": 411,
      "Ý": 412,
      "Þ": 413,
      "ß": 414,
      "à": 415,
      "á": 416,
      "â": 417,
      "ã": 418,
      "ä": 419,
      "å": 420,
      "æ": 421,
      "ç": 422,
      "è": 423,
      "é": 424,
      "ê": 425,
      "ë": 426,
      "ì": 427,
      "í": 428,
      "î": 429,
      "ï": 430,
      "ð": 431,
      "ñ": 432,
      "ò": 433,
      "ó": 434,
      "ô": 435,
      "õ": 436,
      "ö": 437,
      "÷": 438,
      "ø": 439,
      "ù": 440,
      "ú": 441,
      "û": 442,
      "ü": 443,
      "ý": 444,
      "þ": 445,
      "ÿ": 446,
      "Ā": 447,
      "ā": 448,
      "Ă": 449,
      "ă": 450,
      "ą": 451,
      "Ć": 452,
      "ć": 453,
      "Č": 454,
      "č": 455,
      "Ď": 456,
      "ď": 457,
      "Đ": 458,
      "đ": 459,
      "Ē": 460,
      "ē": 461,
      "ĕ": 462,
      "Ė": 463,
      "ė": 464,
      "ę": 465,
      "Ě": 466,
      "ě": 467,
      "Ğ": 468,
      "ğ": 469,
      "ģ": 470,
      "ħ": 471,
      "ĩ": 472,
      "ī": 473,
      "ĭ": 474,
      "İ": 475,
      "ı": 476,
      "ļ": 477,
      "ľ": 478,
      "Ł": 479,
      "ł": 480,
      "ń": 481,
      "ņ": 482,
      "ň": 483,
      "ŋ": 484,
      "Ō": 485,
      "ō": 486,
      "ŏ": 487,
      "ő": 488,
      "Œ": 489,
      "œ": 490,
      "Ř": 491,
      "ř": 492,
      "Ś": 493,
      "ś": 494,
      "Ş": 495,
      "ş": 496,
      "Š": 497,
      "š": 498,
      "Ţ": 499,
      "ţ": 500,
      "ť": 501,
      "ũ": 502,
      "Ū": 503,
      "ū": 504,
      "ŭ": 505,
      "ů": 506,
      "ű": 507,
      "ų": 508,
      "ŵ": 509,
      "Ÿ": 510,
      "ź": 511,
      "Ż": 512,
      "ż": 513,
      "Ž": 514,
      "ž": 515,
      "ƒ": 516,
      "ơ": 517,
      "Ư": 518,
      "ư": 519,
      "ǎ": 520,
      "ǐ": 521,
      "ș": 522,
      "ț": 523,
      "ɑ": 524,
      "ɒ": 525,
      "ɔ": 526,
      "ə": 527,
      "ɛ": 528,
      "ɡ": 529,
      "ɪ": 530,
      "ʃ": 531,
      "ʊ": 532,
      "ʌ": 533,
      "ʏ": 534,
      "ʒ": 535,
      "ʺ": 536,
      "ʻ": 537,
      "ʼ": 538,
      "ʾ": 539,
      "ʿ": 540,
      "ˆ": 541,
      "ˇ": 542,
      "ˈ": 543,
      "ˌ": 544,
      "ː": 545,
      "́": 546,
      "̃": 547,
      "̄": 548,
      "̅": 549,
      "̆": 550,
      "̇": 551,
      "̈": 552,
      "̊": 553,
      "̋": 554,
      "̓": 555,
      "̧": 556,
      "̲": 557,
      "̶": 558,
      "͟": 559,
      "͡": 560,
      "Α": 561,
      "Β": 562,
      "Γ": 563,
      "Δ": 564,
      "Ε": 565,
      "Ζ": 566,
      "Η": 567,
      "Θ": 568,
      "Ι": 569,
      "Κ": 570,
      "Λ": 571,
      "Μ": 572,
      "Ν": 573,
      "Ο": 574,
      "Π": 575,
      "Ρ": 576,
      "Σ": 577,
      "Τ": 578,
      "Υ": 579,
      "Φ": 580,
      "Χ": 581,
      "Ω": 582,
      "ά": 583,
      "έ": 584,
      "ή": 585,
      "ί": 586,
      "α": 587,
      "β": 588,
      "γ": 589,
      "δ": 590,
      "ε": 591,
      "ζ": 592,
      "η": 593,
      "θ": 594,
      "ι": 595,
      "κ": 596,
      "λ": 597,
      "μ": 598,
      "ν": 599,
      "ξ": 600,
      "ο": 601,
      "π": 602,
      "ρ": 603,
      "ς": 604,
      "σ": 605,
      "τ": 606,
      "υ": 607,
      "φ": 608,
      "χ": 609,
      "ψ": 610,
      "ω": 611,
      "ό": 612,
      "ύ": 613,
      "ώ": 614,
      "Ђ": 615,
      "Ѓ": 616,
      "Ѕ": 617,
      "І": 618,
      "Ј": 619,
      "А": 620,
      "Б": 621,
      "В": 622,
      "Г": 623,
      "Д": 624,
      "Е": 625,
      "Ж": 626,
      "З": 627,
      "И": 628,
      "К": 629,
      "Л": 630,
      "М": 631,
      "Н": 632,
      "О": 633,
      "П": 634,
      "Р": 635,
      "С": 636,
      "Т": 637,
      "У": 638,
      "Ф": 639,
      "Х": 640,
      "Ц": 641,
      "Ч": 642,
      "Ш": 643,
      "Щ": 644,
      "Ы": 645,
      "Ь": 646,
      "Э": 647,
      "Я": 648,
      "а": 649,
      "б": 650,
      "в": 651,
      "г": 652,
      "д": 653,
      "е": 654,
      "ж": 655,
      "з": 656,
      "и": 657,
      "й": 658,
      "к": 659,
      "л": 660,
      "м": 661,
      "н": 662,
      "о": 663,
      "п": 664,
      "р": 665,
      "с": 666,
      "т": 667,
      "у": 668,
      "ф": 669,
      "х": 670,
      "ц": 671,
      "ч": 672,
      "ш": 673,
      "щ": 674,
      "ъ": 675,
      "ы": 676,
      "ь": 677,
      "э": 678,
      "ю": 679,
      "я": 680,
      "ё": 681,
      "ѓ": 682,
      "є": 683,
      "ѕ": 684,
      "і": 685,
      "ї": 686,
      "ј": 687,
      "њ": 688,
      "ќ": 689,
      "ү": 690,
      "һ": 691,
      "ԁ": 692,
      "ա": 693,
      "ե": 694,
      "ն": 695,
      "ո": 696,
      "ր": 697,
      "օ": 698,
      "ְ": 699,
      "ֲ": 700,
      "ִ": 701,
      "ֵ": 702,
      "ֶ": 703,
      "ַ": 704,
      "ָ": 705,
      "ֹ": 706,
      "ּ": 707,
      "ֽ": 708,
      "־": 709,
      "ׁ": 710,
      "ׂ": 711,
      "א": 712,
      "ב": 713,
      "ג": 714,
      "ד": 715,
      "ה": 716,
      "ו": 717,
      "ז": 718,
      "ח": 719,
      "ט": 720,
      "י": 721,
      "ך": 722,
      "כ": 723,
      "ל": 724,
      "ם": 725,
      "מ": 726,
      "ן": 727,
      "נ": 728,
      "ס": 729,
      "ע": 730,
      "פ": 731,
      "צ": 732,
      "ק": 733,
      "ר": 734,
      "ש": 735,
      "ת": 736,
      "،": 737,
      "؟": 738,
      "ء": 739,
      "آ": 740,
      "أ": 741,
      "ؤ": 742,
      "إ": 743,
      "ئ": 744,
      "ا": 745,
      "ب": 746,
      "ة": 747,
      "ت": 748,
      "ث": 749,
      "ج": 750,
      "ح": 751,
      "خ": 752,
      "د": 753,
      "ذ": 754,
      "ر": 755,
      "ز": 756,
      "س": 757,
      "ش": 758,
      "ص": 759,
      "ض": 760,
      "ط": 761,
      "ظ": 762,
      "ع": 763,
      "غ": 764,
      "ـ": 765,
      "ف": 766,
      "ق": 767,
      "ك": 768,
      "ل": 769,
      "م": 770,
      "ن": 771,
      "ه": 772,
      "و": 773,
      "ى": 774,
      "ي": 775,
      "ً": 776,
      "َ": 777,
      "ُ": 778,
      "ِ": 779,
      "ّ": 780,
      "ْ": 781,
      "ٰ": 782,
      "پ": 783,
      "چ": 784,
      "ک": 785,
      "گ": 786,
      "ں": 787,
      "ھ": 788,
      "ہ": 789,
      "ی": 790,
      "ے": 791,
      "ۡ": 792,
      "ߋ": 793,
      "ँ": 794,
      "ं": 795,
      "ः": 796,
      "अ": 797,
      "आ": 798,
      "इ": 799,
      "ई": 800,
      "उ": 801,
      "ए": 802,
      "औ": 803,
      "क": 804,
      "ख": 805,
      "ग": 806,
      "च": 807,
      "छ": 808,
      "ज": 809,
      "झ": 810,
      "ट": 811,
      "ठ": 812,
      "ड": 813,
      "ण": 814,
      "त": 815,
      "थ": 816,
      "द": 817,
      "ध": 818,
      "न": 819,
      "प": 820,
      "फ": 821,
      "ब": 822,
      "भ": 823,
      "म": 824,
      "य": 825,
      "र": 826,
      "ल": 827,
      "व": 828,
      "श": 829,
      "ष": 830,
      "स": 831,
      "ह": 832,
      "़": 833,
      "ा": 834,
      "ि": 835,
      "ी": 836,
      "ु": 837,
      "ू": 838,
      "ृ": 839,
      "े": 840,
      "ै": 841,
      "ो": 842,
      "्": 843,
      "।": 844,
      "॥": 845,
      "ক": 846,
      "ত": 847,
      "দ": 848,
      "ন": 849,
      "প": 850,
      "ব": 851,
      "ম": 852,
      "য": 853,
      "র": 854,
      "ল": 855,
      "স": 856,
      "া": 857,
      "ি": 858,
      "ু": 859,
      "ে": 860,
      "্": 861,
      "ਆ": 862,
      "ਉ": 863,
      "ਕ": 864,
      "ਖ": 865,
      "ਗ": 866,
      "ਜ": 867,
      "ਟ": 868,
      "ਤ": 869,
      "ਦ": 870,
      "ਨ": 871,
      "ਪ": 872,
      "ਬ": 873,
      "ਮ": 874,
      "ਰ": 875,
      "ਲ": 876,
      "ਵ": 877,
      "ਸ": 878,
      "ਹ": 879,
      "ਾ": 880,
      "ਿ": 881,
      "ੀ": 882,
      "ੁ": 883,
      "ੇ": 884,
      "ੈ": 885,
      "ੋ": 886,
      "੍": 887,
      "ੰ": 888,
      "ં": 889,
      "ક": 890,
      "ત": 891,
      "દ": 892,
      "ન": 893,
      "ફ": 894,
      "મ": 895,
      "ય": 896,
      "ર": 897,
      "લ": 898,
      "વ": 899,
      "સ": 900,
      "હ": 901,
      "ા": 902,
      "િ": 903,
      "ી": 904,
      "ુ": 905,
      "ે": 906,
      "ો": 907,
      "્": 908,
      "૧": 909,
      "କ": 910,
      "ତ": 911,
      "ନ": 912,
      "ପ": 913,
      "ବ": 914,
      "ମ": 915,
      "ର": 916,
      "ା": 917,
      "ି": 918,
      "ୁ": 919,
      "େ": 920,
      "୍": 921,
      "க": 922,
      "ச": 923,
      "ட": 924,
      "த": 925,
      "ப": 926,
      "ம": 927,
      "ர": 928,
      "ல": 929,
      "ா": 930,
      "ி": 931,
      "ு": 932,
      "ை": 933,
      "்": 934,
      "ం": 935,
      "అ": 936,
      "ఆ": 937,
      "ఇ": 938,
      "క": 939,
      "గ": 940,
      "చ": 941,
      "జ": 942,
      "ట": 943,
      "డ": 944,
      "ణ": 945,
      "త": 946,
      "ద": 947,
      "ధ": 948,
      "న": 949,
      "ప": 950,
      "బ": 951,
      "భ": 952,
      "మ": 953,
      "య": 954,
      "ర": 955,
      "ల": 956,
      "వ": 957,
      "శ": 958,
      "ష": 959,
      "స": 960,
      "హ": 961,
      "ా": 962,
      "ి": 963,
      "ీ": 964,
      "ు": 965,
      "ూ": 966,
      "ె": 967,
      "ే": 968,
      "ై": 969,
      "ొ": 970,
      "ో": 971,
      "్": 972,
      "ತ": 973,
      "ರ": 974,
      "ಾ": 975,
      "ಿ": 976,
      "್": 977,
      "്": 978,
      "ก": 979,
      "ข": 980,
      "ค": 981,
      "ง": 982,
      "จ": 983,
      "ช": 984,
      "ซ": 985,
      "ด": 986,
      "ต": 987,
      "ถ": 988,
      "ท": 989,
      "ธ": 990,
      "น": 991,
      "บ": 992,
      "ป": 993,
      "ผ": 994,
      "พ": 995,
      "ฟ": 996,
      "ภ": 997,
      "ม": 998,
      "ย": 999,
      "ร": 1000,
      "ล": 1001,
      "ว": 1002,
      "ษ": 1003,
      "ส": 1004,
      "ห": 1005,
      "อ": 1006,
      "ะ": 1007,
      "ั": 1008,
      "า": 1009,
      "ิ": 1010,
      "ี": 1011,
      "ื": 1012,
      "ุ": 1013,
      "ู": 1014,
      "เ": 1015,
      "แ": 1016,
      "โ": 1017,
      "ใ": 1018,
      "ไ": 1019,
      "็": 1020,
      "่": 1021,
      "้": 1022,
      "์": 1023,
      "ํ": 1024,
      "က": 1025,
      "မ": 1026,
      "သ": 1027,
      "ာ": 1028,
      "ေ": 1029,
      "း": 1030,
      "်": 1031,
      "ა": 1032,
      "ბ": 1033,
      "გ": 1034,
      "დ": 1035,
      "ე": 1036,
      "ვ": 1037,
      "თ": 1038,
      "ი": 1039,
      "ლ": 1040,
      "მ": 1041,
      "ნ": 1042,
      "ო": 1043,
      "რ": 1044,
      "ს": 1045,
      "ᄅ": 1046,
      "ᄏ": 1047,
      "ᅲ": 1048,
      "ᆞ": 1049,
      "Ꭰ": 1050,
      "Ꭲ": 1051,
      "Ꭴ": 1052,
      "Ꭶ": 1053,
      "Ꭹ": 1054,
      "Ꭿ": 1055,
      "Ꮃ": 1056,
      "Ꮅ": 1057,
      "Ꮎ": 1058,
      "Ꮑ": 1059,
      "Ꮒ": 1060,
      "Ꮝ": 1061,
      "Ꮣ": 1062,
      "Ꮧ": 1063,
      "Ꮩ": 1064,
      "Ꮫ": 1065,
      "Ꮷ": 1066,
      "រ": 1067,
      "ា": 1068,
      "្": 1069,
      "ᥙ": 1070,
      "᧐": 1071,
      "ḍ": 1072,
      "Ḥ": 1073,
      "ḥ": 1074,
      "ḳ": 1075,
      "Ḵ": 1076,
      "ḵ": 1077,
      "ḷ": 1078,
      "ṁ": 1079,
      "ṃ": 1080,
      "ṅ": 1081,
      "ṇ": 1082,
      "ṛ": 1083,
      "Ṣ": 1084,
      "ṣ": 1085,
      "Ṭ": 1086,
      "ṭ": 1087,
      "ẓ": 1088,
      "ạ": 1089,
      "ả": 1090,
      "ấ": 1091,
      "ầ": 1092,
      "ẩ": 1093,
      "ậ": 1094,
      "ắ": 1095,
      "ặ": 1096,
      "ế": 1097,
      "ề": 1098,
      "ể": 1099,
      "ễ": 1100,
      "ệ": 1101,
      "ị": 1102,
      "ọ": 1103,
      "ố": 1104,
      "ồ": 1105,
      "ổ": 1106,
      "ộ": 1107,
      "ớ": 1108,
      "ờ": 1109,
      "ở": 1110,
      "ợ": 1111,
      "ụ": 1112,
      "ủ": 1113,
      "ứ": 1114,
      "ừ": 1115,
      "ử": 1116,
      "ữ": 1117,
      "ự": 1118,
      "ἀ": 1119,
      "ἄ": 1120,
      "ἐ": 1121,
      "ἔ": 1122,
      "ἡ": 1123,
      "ἰ": 1124,
      "ἱ": 1125,
      "ἴ": 1126,
      "ὁ": 1127,
      "ὅ": 1128,
      "ὐ": 1129,
      "ὑ": 1130,
      "ὰ": 1131,
      "ὲ": 1132,
      "ὴ": 1133,
      "ὶ": 1134,
      "ὸ": 1135,
      "ᾶ": 1136,
      "ῆ": 1137,
      "ῇ": 1138,
      "ῖ": 1139,
      "ῦ": 1140,
      "ῳ": 1141,
      "ῶ": 1142,
      "ῷ": 1143,
      "​": 1144,
      "‐": 1145,
      "‒": 1146,
      "–": 1147,
      "—": 1148,
      "―": 1149,
      "‖": 1150,
      "‘": 1151,
      "’": 1152,
      "‚": 1153,
      "“": 1154,
      "”": 1155,
      "„": 1156,
      "‟": 1157,
      "†": 1158,
      "‡": 1159,
      "•": 1160,
      "‧": 1161,
      "‰": 1162,
      "′": 1163,
      "‹": 1164,
      "›": 1165,
      "※": 1166,
      "⁄": 1167,
      "₤": 1168,
      "₦": 1169,
      "₪": 1170,
      "€": 1171,
      "₱": 1172,
      "₹": 1173,
      "⃣": 1174,
      "℥": 1175,
      "←": 1176,
      "↑": 1177,
      "→": 1178,
      "↓": 1179,
      "↔": 1180,
      "↩": 1181,
      "↵": 1182,
      "⇒": 1183,
      "⇧": 1184,
      "∆": 1185,
      "∑": 1186,
      "−": 1187,
      "∗": 1188,
      "∙": 1189,
      "√": 1190,
      "∞": 1191,
      "∠": 1192,
      "∨": 1193,
      "∶": 1194,
      "∼": 1195,
      "≈": 1196,
      "≠": 1197,
      "≡": 1198,
      "≤": 1199,
      "≥": 1200,
      "≧": 1201,
      "⋅": 1202,
      "⌘": 1203,
      "⎯": 1204,
      "─": 1205,
      "│": 1206,
      "┐": 1207,
      "└": 1208,
      "├": 1209,
      "┬": 1210,
      "═": 1211,
      "╬": 1212,
      "▀": 1213,
      "▄": 1214,
      "█": 1215,
      "░": 1216,
      "▒": 1217,
      "■": 1218,
      "□": 1219,
      "▣": 1220,
      "▪": 1221,
      "▫": 1222,
      "▬": 1223,
      "▲": 1224,
      "▶": 1225,
      "▷": 1226,
      "▸": 1227,
      "▹": 1228,
      "►": 1229,
      "▻": 1230,
      "▼": 1231,
      "▾": 1232,
      "◆": 1233,
      "◇": 1234,
      "◊": 1235,
      "○": 1236,
      "●": 1237,
      "◙": 1238,
      "◦": 1239,
      "◾": 1240,
      "☀": 1241,
      "☂": 1242,
      "★": 1243,
      "☆": 1244,
      "☎": 1245,
      "☏": 1246,
      "☐": 1247,
      "☑": 1248,
      "☞": 1249,
      "☴": 1250,
      "☺": 1251,
      "☼": 1252,
      "♀": 1253,
      "♂": 1254,
      "♛": 1255,
      "♠": 1256,
      "♡": 1257,
      "♣": 1258,
      "♥": 1259,
      "♦": 1260,
      "♪": 1261,
      "♫": 1262,
      "♬": 1263,
      "♭": 1264,
      "⚓": 1265,
      "⚠": 1266,
      "⚡": 1267,
      "⛋": 1268,
      "⛔": 1269,
      "✅": 1270,
      "✈": 1271,
      "✌": 1272,
      "✍": 1273,
      "✏": 1274,
      "✓": 1275,
      "✔": 1276,
      "✗": 1277,
      "✘": 1278,
      "✝": 1279,
      "✤": 1280,
      "✦": 1281,
      "✨": 1282,
      "✪": 1283,
      "✭": 1284,
      "✮": 1285,
      "✿": 1286,
      "❀": 1287,
      "❌": 1288,
      "❗": 1289,
      "❤": 1290,
      "❶": 1291,
      "➜": 1292,
      "➢": 1293,
      "➤": 1294,
      "⟨": 1295,
      "⟩": 1296,
      "⠀": 1297,
      "⦁": 1298,
      "⭐": 1299,
      "ⲟ": 1300,
      "、": 1301,
      "。": 1302,
      "《": 1303,
      "》": 1304,
      "「": 1305,
      "」": 1306,
      "『": 1307,
      "』": 1308,
      "【": 1309,
      "】": 1310,
      "〜": 1311,
      "あ": 1312,
      "い": 1313,
      "う": 1314,
      "え": 1315,
      "お": 1316,
      "か": 1317,
      "が": 1318,
      "き": 1319,
      "ぎ": 1320,
      "く": 1321,
      "け": 1322,
      "こ": 1323,
      "ご": 1324,
      "さ": 1325,
      "し": 1326,
      "じ": 1327,
      "す": 1328,
      "せ": 1329,
      "そ": 1330,
      "た": 1331,
      "だ": 1332,
      "ち": 1333,
      "っ": 1334,
      "つ": 1335,
      "て": 1336,
      "で": 1337,
      "と": 1338,
      "ど": 1339,
      "な": 1340,
      "に": 1341,
      "の": 1342,
      "は": 1343,
      "ひ": 1344,
      "べ": 1345,
      "ほ": 1346,
      "ま": 1347,
      "み": 1348,
      "む": 1349,
      "め": 1350,
      "も": 1351,
      "ゃ": 1352,
      "や": 1353,
      "ょ": 1354,
      "よ": 1355,
      "ら": 1356,
      "り": 1357,
      "る": 1358,
      "れ": 1359,
      "ろ": 1360,
      "わ": 1361,
      "を": 1362,
      "ん": 1363,
      "ァ": 1364,
      "ア": 1365,
      "ィ": 1366,
      "イ": 1367,
      "ウ": 1368,
      "ェ": 1369,
      "エ": 1370,
      "オ": 1371,
      "カ": 1372,
      "ガ": 1373,
      "キ": 1374,
      "ク": 1375,
      "グ": 1376,
      "ケ": 1377,
      "コ": 1378,
      "サ": 1379,
      "ザ": 1380,
      "シ": 1381,
      "ジ": 1382,
      "ス": 1383,
      "ズ": 1384,
      "セ": 1385,
      "タ": 1386,
      "ダ": 1387,
      "チ": 1388,
      "ッ": 1389,
      "ツ": 1390,
      "テ": 1391,
      "デ": 1392,
      "ト": 1393,
      "ド": 1394,
      "ナ": 1395,
      "ニ": 1396,
      "ネ": 1397,
      "ノ": 1398,
      "ハ": 1399,
      "バ": 1400,
      "パ": 1401,
      "ビ": 1402,
      "ピ": 1403,
      "フ": 1404,
      "ブ": 1405,
      "プ": 1406,
      "ペ": 1407,
      "ボ": 1408,
      "ポ": 1409,
      "マ": 1410,
      "ミ": 1411,
      "ム": 1412,
      "メ": 1413,
      "モ": 1414,
      "ャ": 1415,
      "ュ": 1416,
      "ユ": 1417,
      "ョ": 1418,
      "ヨ": 1419,
      "ラ": 1420,
      "リ": 1421,
      "ル": 1422,
      "レ": 1423,
      "ロ": 1424,
      "ン": 1425,
      "・": 1426,
      "ー": 1427,
      "一": 1428,
      "三": 1429,
      "上": 1430,
      "下": 1431,
      "不": 1432,
      "与": 1433,
      "专": 1434,
      "且": 1435,
      "世": 1436,
      "业": 1437,
      "东": 1438,
      "两": 1439,
      "个": 1440,
      "中": 1441,
      "串": 1442,
      "为": 1443,
      "主": 1444,
      "么": 1445,
      "义": 1446,
      "之": 1447,
      "乐": 1448,
      "也": 1449,
      "买": 1450,
      "了": 1451,
      "事": 1452,
      "二": 1453,
      "于": 1454,
      "互": 1455,
      "五": 1456,
      "亚": 1457,
      "些": 1458,
      "交": 1459,
      "产": 1460,
      "京": 1461,
      "人": 1462,
      "介": 1463,
      "从": 1464,
      "他": 1465,
      "代": 1466,
      "令": 1467,
      "以": 1468,
      "们": 1469,
      "件": 1470,
      "任": 1471,
      "份": 1472,
      "企": 1473,
      "会": 1474,
      "但": 1475,
      "位": 1476,
      "住": 1477,
      "体": 1478,
      "何": 1479,
      "作": 1480,
      "你": 1481,
      "使": 1482,
      "來": 1483,
      "例": 1484,
      "供": 1485,
      "便": 1486,
      "保": 1487,
      "信": 1488,
      "修": 1489,
      "個": 1490,
      "們": 1491,
      "候": 1492,
      "值": 1493,
      "做": 1494,
      "停": 1495,
      "像": 1496,
      "價": 1497,
      "元": 1498,
      "先": 1499,
      "光": 1500,
      "免": 1501,
      "入": 1502,
      "內": 1503,
      "全": 1504,
      "八": 1505,
      "公": 1506,
      "共": 1507,
      "关": 1508,
      "其": 1509,
      "具": 1510,
      "典": 1511,
      "内": 1512,
      "円": 1513,
      "再": 1514,
      "写": 1515,
      "况": 1516,
      "出": 1517,
      "函": 1518,
      "分": 1519,
      "切": 1520,
      "列": 1521,
      "则": 1522,
      "创": 1523,
      "初": 1524,
      "判": 1525,
      "利": 1526,
      "到": 1527,
      "制": 1528,
      "券": 1529,
      "刻": 1530,
      "前": 1531,
      "割": 1532,
      "力": 1533,
      "功": 1534,
      "加": 1535,
      "务": 1536,
      "动": 1537,
      "助": 1538,
      "势": 1539,
      "動": 1540,
      "務": 1541,
      "包": 1542,
      "化": 1543,
      "北": 1544,
      "区": 1545,
      "十": 1546,
      "千": 1547,
      "半": 1548,
      "华": 1549,
      "单": 1550,
      "卖": 1551,
      "南": 1552,
      "即": 1553,
      "厘": 1554,
      "原": 1555,
      "去": 1556,
      "参": 1557,
      "又": 1558,
      "及": 1559,
      "友": 1560,
      "发": 1561,
      "取": 1562,
      "受": 1563,
      "变": 1564,
      "口": 1565,
      "句": 1566,
      "只": 1567,
      "可": 1568,
      "台": 1569,
      "右": 1570,
      "号": 1571,
      "司": 1572,
      "各": 1573,
      "合": 1574,
      "同": 1575,
      "名": 1576,
      "后": 1577,
      "向": 1578,
      "否": 1579,
      "员": 1580,
      "周": 1581,
      "味": 1582,
      "命": 1583,
      "和": 1584,
      "品": 1585,
      "員": 1586,
      "商": 1587,
      "問": 1588,
      "器": 1589,
      "四": 1590,
      "回": 1591,
      "因": 1592,
      "国": 1593,
      "图": 1594,
      "國": 1595,
      "在": 1596,
      "地": 1597,
      "址": 1598,
      "坛": 1599,
      "型": 1600,
      "城": 1601,
      "基": 1602,
      "報": 1603,
      "場": 1604,
      "境": 1605,
      "士": 1606,
      "处": 1607,
      "备": 1608,
      "変": 1609,
      "复": 1610,
      "外": 1611,
      "多": 1612,
      "夜": 1613,
      "大": 1614,
      "天": 1615,
      "太": 1616,
      "失": 1617,
      "头": 1618,
      "奇": 1619,
      "女": 1620,
      "她": 1621,
      "好": 1622,
      "如": 1623,
      "始": 1624,
      "娱": 1625,
      "子": 1626,
      "字": 1627,
      "存": 1628,
      "学": 1629,
      "學": 1630,
      "它": 1631,
      "安": 1632,
      "完": 1633,
      "定": 1634,
      "宝": 1635,
      "实": 1636,
      "客": 1637,
      "室": 1638,
      "家": 1639,
      "容": 1640,
      "實": 1641,
      "对": 1642,
      "导": 1643,
      "将": 1644,
      "將": 1645,
      "專": 1646,
      "對": 1647,
      "小": 1648,
      "少": 1649,
      "就": 1650,
      "尾": 1651,
      "局": 1652,
      "展": 1653,
      "属": 1654,
      "山": 1655,
      "島": 1656,
      "工": 1657,
      "左": 1658,
      "己": 1659,
      "已": 1660,
      "市": 1661,
      "布": 1662,
      "希": 1663,
      "師": 1664,
      "常": 1665,
      "平": 1666,
      "年": 1667,
      "并": 1668,
      "序": 1669,
      "应": 1670,
      "店": 1671,
      "度": 1672,
      "康": 1673,
      "建": 1674,
      "开": 1675,
      "异": 1676,
      "式": 1677,
      "引": 1678,
      "当": 1679,
      "录": 1680,
      "形": 1681,
      "影": 1682,
      "往": 1683,
      "征": 1684,
      "很": 1685,
      "律": 1686,
      "後": 1687,
      "得": 1688,
      "微": 1689,
      "德": 1690,
      "心": 1691,
      "必": 1692,
      "志": 1693,
      "快": 1694,
      "态": 1695,
      "思": 1696,
      "性": 1697,
      "息": 1698,
      "您": 1699,
      "情": 1700,
      "想": 1701,
      "意": 1702,
      "感": 1703,
      "態": 1704,
      "慕": 1705,
      "成": 1706,
      "我": 1707,
      "或": 1708,
      "戦": 1709,
      "户": 1710,
      "所": 1711,
      "手": 1712,
      "才": 1713,
      "打": 1714,
      "执": 1715,
      "找": 1716,
      "承": 1717,
      "技": 1718,
      "把": 1719,
      "投": 1720,
      "抗": 1721,
      "报": 1722,
      "拉": 1723,
      "括": 1724,
      "拿": 1725,
      "持": 1726,
      "指": 1727,
      "换": 1728,
      "据": 1729,
      "授": 1730,
      "排": 1731,
      "接": 1732,
      "控": 1733,
      "推": 1734,
      "描": 1735,
      "提": 1736,
      "播": 1737,
      "操": 1738,
      "支": 1739,
      "收": 1740,
      "改": 1741,
      "放": 1742,
      "政": 1743,
      "教": 1744,
      "数": 1745,
      "整": 1746,
      "文": 1747,
      "料": 1748,
      "断": 1749,
      "斯": 1750,
      "新": 1751,
      "方": 1752,
      "於": 1753,
      "旅": 1754,
      "族": 1755,
      "无": 1756,
      "日": 1757,
      "时": 1758,
      "明": 1759,
      "易": 1760,
      "星": 1761,
      "是": 1762,
      "時": 1763,
      "景": 1764,
      "更": 1765,
      "書": 1766,
      "最": 1767,
      "會": 1768,
      "月": 1769,
      "有": 1770,
      "服": 1771,
      "朝": 1772,
      "期": 1773,
      "木": 1774,
      "未": 1775,
      "本": 1776,
      "术": 1777,
      "机": 1778,
      "杂": 1779,
      "李": 1780,
      "来": 1781,
      "東": 1782,
      "构": 1783,
      "析": 1784,
      "林": 1785,
      "果": 1786,
      "查": 1787,
      "标": 1788,
      "校": 1789,
      "样": 1790,
      "根": 1791,
      "格": 1792,
      "案": 1793,
      "業": 1794,
      "楽": 1795,
      "模": 1796,
      "機": 1797,
      "次": 1798,
      "款": 1799,
      "歌": 1800,
      "正": 1801,
      "此": 1802,
      "步": 1803,
      "死": 1804,
      "每": 1805,
      "比": 1806,
      "民": 1807,
      "气": 1808,
      "水": 1809,
      "永": 1810,
      "求": 1811,
      "汇": 1812,
      "江": 1813,
      "没": 1814,
      "河": 1815,
      "法": 1816,
      "注": 1817,
      "活": 1818,
      "流": 1819,
      "测": 1820,
      "海": 1821,
      "消": 1822,
      "清": 1823,
      "港": 1824,
      "源": 1825,
      "点": 1826,
      "為": 1827,
      "無": 1828,
      "然": 1829,
      "照": 1830,
      "爱": 1831,
      "版": 1832,
      "物": 1833,
      "特": 1834,
      "状": 1835,
      "王": 1836,
      "玩": 1837,
      "环": 1838,
      "现": 1839,
      "理": 1840,
      "生": 1841,
      "用": 1842,
      "田": 1843,
      "由": 1844,
      "电": 1845,
      "画": 1846,
      "界": 1847,
      "留": 1848,
      "略": 1849,
      "白": 1850,
      "百": 1851,
      "的": 1852,
      "益": 1853,
      "目": 1854,
      "直": 1855,
      "相": 1856,
      "看": 1857,
      "真": 1858,
      "着": 1859,
      "知": 1860,
      "石": 1861,
      "码": 1862,
      "研": 1863,
      "示": 1864,
      "社": 1865,
      "神": 1866,
      "福": 1867,
      "种": 1868,
      "科": 1869,
      "移": 1870,
      "程": 1871,
      "究": 1872,
      "空": 1873,
      "立": 1874,
      "站": 1875,
      "章": 1876,
      "符": 1877,
      "第": 1878,
      "等": 1879,
      "策": 1880,
      "简": 1881,
      "算": 1882,
      "管": 1883,
      "籍": 1884,
      "米": 1885,
      "类": 1886,
      "粒": 1887,
      "精": 1888,
      "系": 1889,
      "素": 1890,
      "經": 1891,
      "網": 1892,
      "線": 1893,
      "纳": 1894,
      "线": 1895,
      "组": 1896,
      "经": 1897,
      "结": 1898,
      "给": 1899,
      "网": 1900,
      "置": 1901,
      "美": 1902,
      "翻": 1903,
      "考": 1904,
      "者": 1905,
      "而": 1906,
      "联": 1907,
      "聖": 1908,
      "聽": 1909,
      "股": 1910,
      "育": 1911,
      "能": 1912,
      "自": 1913,
      "至": 1914,
      "與": 1915,
      "色": 1916,
      "艾": 1917,
      "节": 1918,
      "花": 1919,
      "若": 1920,
      "英": 1921,
      "茅": 1922,
      "获": 1923,
      "華": 1924,
      "菲": 1925,
      "蠬": 1926,
      "行": 1927,
      "表": 1928,
      "被": 1929,
      "補": 1930,
      "西": 1931,
      "要": 1932,
      "視": 1933,
      "见": 1934,
      "规": 1935,
      "角": 1936,
      "解": 1937,
      "言": 1938,
      "記": 1939,
      "設": 1940,
      "訳": 1941,
      "評": 1942,
      "話": 1943,
      "認": 1944,
      "語": 1945,
      "說": 1946,
      "調": 1947,
      "請": 1948,
      "論": 1949,
      "计": 1950,
      "认": 1951,
      "记": 1952,
      "论": 1953,
      "设": 1954,
      "访": 1955,
      "证": 1956,
      "词": 1957,
      "试": 1958,
      "话": 1959,
      "该": 1960,
      "语": 1961,
      "说": 1962,
      "请": 1963,
      "调": 1964,
      "谷": 1965,
      "豆": 1966,
      "象": 1967,
      "費": 1968,
      "資": 1969,
      "賓": 1970,
      "贝": 1971,
      "货": 1972,
      "贵": 1973,
      "资": 1974,
      "赤": 1975,
      "走": 1976,
      "起": 1977,
      "超": 1978,
      "足": 1979,
      "距": 1980,
      "路": 1981,
      "身": 1982,
      "车": 1983,
      "转": 1984,
      "软": 1985,
      "输": 1986,
      "边": 1987,
      "过": 1988,
      "运": 1989,
      "近": 1990,
      "返": 1991,
      "还": 1992,
      "这": 1993,
      "进": 1994,
      "连": 1995,
      "述": 1996,
      "送": 1997,
      "這": 1998,
      "通": 1999,
      "造": 2000,
      "進": 2001,
      "遊": 2002,
      "過": 2003,
      "道": 2004,
      "那": 2005,
      "部": 2006,
      "都": 2007,
      "配": 2008,
      "酒": 2009,
      "里": 2010,
      "重": 2011,
      "野": 2012,
      "量": 2013,
      "釐": 2014,
      "金": 2015,
      "鈥": 2016,
      "銀": 2017,
      "针": 2018,
      "银": 2019,
      "链": 2020,
      "销": 2021,
      "長": 2022,
      "长": 2023,
      "門": 2024,
      "開": 2025,
      "間": 2026,
      "関": 2027,
      "问": 2028,
      "间": 2029,
      "限": 2030,
      "除": 2031,
      "陳": 2032,
      "集": 2033,
      "雷": 2034,
      "電": 2035,
      "需": 2036,
      "非": 2037,
      "面": 2038,
      "音": 2039,
      "題": 2040,
      "题": 2041,
      "風": 2042,
      "食": 2043,
      "首": 2044,
      "香": 2045,
      "馬": 2046,
      "體": 2047,
      "高": 2048,
      "點": 2049,
      "龍": 2050,
      "龙": 2051,
      "가": 2052,
      "같": 2053,
      "개": 2054,
      "거": 2055,
      "건": 2056,
      "걸": 2057,
      "검": 2058,
      "것": 2059,
      "게": 2060,
      "계": 2061,
      "고": 2062,
      "공": 2063,
      "과": 2064,
      "관": 2065,
      "구": 2066,
      "국": 2067,
      "그": 2068,
      "금": 2069,
      "기": 2070,
      "김": 2071,
      "까": 2072,
      "나": 2073,
      "내": 2074,
      "너": 2075,
      "년": 2076,
      "노": 2077,
      "놀": 2078,
      "는": 2079,
      "니": 2080,
      "다": 2081,
      "대": 2082,
      "데": 2083,
      "도": 2084,
      "동": 2085,
      "드": 2086,
      "들": 2087,
      "라": 2088,
      "람": 2089,
      "래": 2090,
      "레": 2091,
      "로": 2092,
      "를": 2093,
      "리": 2094,
      "마": 2095,
      "만": 2096,
      "많": 2097,
      "말": 2098,
      "먹": 2099,
      "메": 2100,
      "면": 2101,
      "명": 2102,
      "모": 2103,
      "무": 2104,
      "문": 2105,
      "미": 2106,
      "바": 2107,
      "배": 2108,
      "보": 2109,
      "복": 2110,
      "부": 2111,
      "비": 2112,
      "사": 2113,
      "상": 2114,
      "생": 2115,
      "서": 2116,
      "선": 2117,
      "성": 2118,
      "세": 2119,
      "소": 2120,
      "수": 2121,
      "스": 2122,
      "습": 2123,
      "시": 2124,
      "신": 2125,
      "아": 2126,
      "안": 2127,
      "야": 2128,
      "어": 2129,
      "업": 2130,
      "없": 2131,
      "었": 2132,
      "에": 2133,
      "여": 2134,
      "연": 2135,
      "오": 2136,
      "외": 2137,
      "요": 2138,
      "용": 2139,
      "우": 2140,
      "운": 2141,
      "울": 2142,
      "원": 2143,
      "월": 2144,
      "으": 2145,
      "은": 2146,
      "을": 2147,
      "음": 2148,
      "의": 2149,
      "이": 2150,
      "인": 2151,
      "일": 2152,
      "있": 2153,
      "자": 2154,
      "작": 2155,
      "장": 2156,
      "재": 2157,
      "저": 2158,
      "적": 2159,
      "전": 2160,
      "정": 2161,
      "제": 2162,
      "조": 2163,
      "좋": 2164,
      "주": 2165,
      "중": 2166,
      "증": 2167,
      "지": 2168,
      "치": 2169,
      "카": 2170,
      "코": 2171,
      "터": 2172,
      "토": 2173,
      "튀": 2174,
      "트": 2175,
      "파": 2176,
      "포": 2177,
      "프": 2178,
      "피": 2179,
      "하": 2180,
      "학": 2181,
      "한": 2182,
      "합": 2183,
      "해": 2184,
      "했": 2185,
      "호": 2186,
      "화": 2187,
      "회": 2188,
      "후": 2189,
      "︎": 2190,
      "️": 2191,
      "﻿": 2192,
      "￼": 2193,
      "�": 2194,
      "🇧": 2195,
      "🇬": 2196,
      "🇸": 2197,
      "🇺": 2198,
      "🌎": 2199,
      "🌟": 2200,
      "🌸": 2201,
      "🌹": 2202,
      "🌺": 2203,
      "🎁": 2204,
      "🎉": 2205,
      "🏆": 2206,
      "🏻": 2207,
      "🏼": 2208,
      "🏽": 2209,
      "🏾": 2210,
      "👇": 2211,
      "👉": 2212,
      "👋": 2213,
      "👌": 2214,
      "👍": 2215,
      "👏": 2216,
      "💋": 2217,
      "💕": 2218,
      "💖": 2219,
      "💗": 2220,
      "💙": 2221,
      "💚": 2222,
      "💛": 2223,
      "💜": 2224,
      "💥": 2225,
      "💪": 2226,
      "💯": 2227,
      "💰": 2228,
      "📸": 2229,
      "🔥": 2230,
      "🔶": 2231,
      "🔷": 2232,
      "🔸": 2233,
      "🖤": 2234,
      "🗞": 2235,
      "😀": 2236,
      "😁": 2237,
      "😂": 2238,
      "😃": 2239,
      "😄": 2240,
      "😅": 2241,
      "😆": 2242,
      "😉": 2243,
      "😊": 2244,
      "😍": 2245,
      "😎": 2246,
      "😘": 2247,
      "😛": 2248,
      "😜": 2249,
      "😦": 2250,
      "😭": 2251,
      "😳": 2252,
      "🙁": 2253,
      "🙂": 2254,
      "🙄": 2255,
      "🙌": 2256,
      "🙏": 2257,
      "🚀": 2258,
      "🚚": 2259,
      "🤔": 2260,
      "🤗": 2261,
      "🤣": 2262,
      "🤷": 2263,
      "🥰": 2264,
      "🧡": 2265,
      "r</w>": 2266,
      ".</w>": 2267,
      "y</w>": 2268,
      "”</w>": 2269,
      "t</w>": 2270,
      "e</w>": 2271,
      "o</w>": 2272,
      "!</w>": 2273,
      "R</w>": 2274,
      "1</w>": 2275,
      "s</w>": 2276,
      "|</w>": 2277,
      "}</w>": 2278,
      "l</w>": 2279,
      "\"</w>": 2280,
      ")</w>": 2281,
      "C</w>": 2282,
      "?</w>": 2283,
      "h</w>": 2284,
      "\n</w>": 2285,
      "a</w>": 2286,
      "n</w>": 2287,
      "0</w>": 2288,
      "5</w>": 2289,
      "m</w>": 2290,
      "Y</w>": 2291,
      "2</w>": 2292,
      ",</w>": 2293,
      "4</w>": 2294,
      "g</w>": 2295,
      "×</w>": 2296,
      "c</w>": 2297,
      "z</w>": 2298,
      "Z</w>": 2299,
      "]</w>": 2300,
      "3</w>": 2301,
      "+</w>": 2302,
      "d</w>": 2303,
      "。</w>": 2304,
      "’</w>": 2305,
      ":</w>": 2306,
      "7</w>": 2307,
      "p</w>": 2308,
      "/</w>": 2309,
      "w</w>": 2310,
      "i</w>": 2311,
      "'</w>": 2312,
      "*</w>": 2313,
      "A</w>": 2314,
      "M</w>": 2315,
      "></w>": 2316,
      "😉</w>": 2317,
      "9</w>": 2318,
      "k</w>": 2319,
      "V</w>": 2320,
      "»</w>": 2321,
      "D</w>": 2322,
      "N</w>": 2323,
      "8</w>": 2324,
      "-</w>": 2325,
      "G</w>": 2326,
      "x</w>": 2327,
      "♬</w>": 2328,
      "L</w>": 2329,
      "®</w>": 2330,
      "E</w>": 2331,
      "f</w>": 2332,
      "6</w>": 2333,
      "S</w>": 2334,
      "B</w>": 2335,
      "💚</w>": 2336,
      "د</w>": 2337,
      "ü</w>": 2338,
      "P</w>": 2339,
      "b</w>": 2340,
      "“</w>": 2341,
      "K</w>": 2342,
      "🙂</w>": 2343,
      "_</w>": 2344,
      "I</w>": 2345,
      "•</w>": 2346,
      "H</w>": 2347,
      "′</w>": 2348,
      "~</w>": 2349,
      "(</w>": 2350,
      "u</w>": 2351,
      "�</w>": 2352,
      ";</w>": 2353,
      "T</w>": 2354,
      "W</w>": 2355,
      "O</w>": 2356,
      "↑</w>": 2357,
      "›</w>": 2358,
      "@</w>": 2359,
      "v</w>": 2360,
      "%</w>": 2361,
      "q</w>": 2362,
      "F</w>": 2363,
      "ट</w>": 2364,
      "J</w>": 2365,
      "<</w>": 2366,
      "❤</w>": 2367,
      "я</w>": 2368,
      "→</w>": 2369,
      "—</w>": 2370,
      "^</w>": 2371,
      "︎</w>": 2372,
      "#</w>": 2373,
      "♦</w>": 2374,
      "–</w>": 2375,
      "$</w>": 2376,
      "è</w>": 2377,
      "件</w>": 2378,
      "U</w>": 2379,
      "é</w>": 2380,
      "♥</w>": 2381,
      "‐</w>": 2382,
      "©</w>": 2383,
      "⇒</w>": 2384,
      "=</w>": 2385,
      "😀</w>": 2386,
      "□</w>": 2387,
      "🎉</w>": 2388,
      "️</w>": 2389,
      "·</w>": 2390,
      "X</w>": 2391,
      "💕</w>": 2392,
      "ä</w>": 2393,
      "ư</w>": 2394,
      "`</w>": 2395,
      "格</w>": 2396,
      "€</w>": 2397,
      "↓</w>": 2398,
      "😂</w>": 2399,
      "号</w>": 2400,
      "↩</w>": 2401,
      "Q</w>": 2402,
      "む</w>": 2403,
      "义</w>": 2404,
      "▶</w>": 2405,
      "ة</w>": 2406,
      "█</w>": 2407,
      "✨</w>": 2408,
      "品</w>": 2409,
      "á</w>": 2410,
      "😛</w>": 2411,
      "🏾</w>": 2412,
      "j</w>": 2413,
      "ť</w>": 2414,
      "😃</w>": 2415,
      "&</w>": 2416,
      "➤</w>": 2417,
      "💖</w>": 2418,
      "⭐</w>": 2419,
      "\\</w>": 2420,
      "Å</w>": 2421,
      "â</w>": 2422,
      "♪</w>": 2423,
      "ò</w>": 2424,
      "😍</w>": 2425,
      "😁</w>": 2426,
      "↵</w>": 2427,
      "а</w>": 2428,
      "👋</w>": 2429,
      "😊</w>": 2430,
      "🙁</w>": 2431,
      "ł</w>": 2432,
      "¬</w>": 2433,
      "А</w>": 2434,
      "☺</w>": 2435,
      "😄</w>": 2436,
      " </w>": 2437,
      "Ω</w>": 2438,
      "★</w>": 2439,
      "👇</w>": 2440,
      "¶</w>": 2441,
      "😆</w>": 2442,
      "」</w>": 2443,
      "Â</w>": 2444,
      "‘</w>": 2445,
      "明</w>": 2446,
      "°</w>": 2447,
      "«</w>": 2448,
      "ツ</w>": 2449,
      "♡</w>": 2450,
      "島</w>": 2451,
      "✌</w>": 2452,
      "😦</w>": 2453,
      "🔥</w>": 2454,
      "☆</w>": 2455,
      "プ</w>": 2456,
      "м</w>": 2457,
      "▼</w>": 2458,
      "±</w>": 2459,
      "⚡</w>": 2460,
      "的</w>": 2461,
      "í</w>": 2462,
      "ر</w>": 2463,
      "✔</w>": 2464,
      "서</w>": 2465,
      "̶</w>": 2466,
      "Ü</w>": 2467,
      "∼</w>": 2468,
      "●</w>": 2469,
      "集</w>": 2470,
      "य</w>": 2471,
      "ا</w>": 2472,
      "💜</w>": 2473,
      "ù</w>": 2474,
      "ę</w>": 2475,
      "😎</w>": 2476,
      "î</w>": 2477,
      "◙</w>": 2478,
      "Þ</w>": 2479,
      "§</w>": 2480,
      "😘</w>": 2481,
      "ف</w>": 2482,
      "[</w>": 2483,
      "■</w>": 2484,
      "多</w>": 2485,
      "트</w>": 2486,
      "日</w>": 2487,
      "✪</w>": 2488,
      "ن</w>": 2489,
      "и</w>": 2490,
      "å</w>": 2491,
      "ү</w>": 2492,
      "Ô</w>": 2493,
      "💗</w>": 2494,
      "🤗</w>": 2495,
      "¦</w>": 2496,
      "✓</w>": 2497,
      "用</w>": 2498,
      "ю</w>": 2499,
      "ノ</w>": 2500,
      "க</w>": 2501,
      "국</w>": 2502,
      "🚀</w>": 2503,
      "φ</w>": 2504,
      "ă</w>": 2505,
      "ι</w>": 2506,
      "¢</w>": 2507,
      "ы</w>": 2508,
      "👌</w>": 2509,
      "析</w>": 2510,
      "ی</w>": 2511,
      "ь</w>": 2512,
      "어</w>": 2513,
      "✤</w>": 2514,
      "†</w>": 2515,
      "و</w>": 2516,
      "Ã</w>": 2517,
      "真</w>": 2518,
      "💙</w>": 2519,
      "▷</w>": 2520,
      "ć</w>": 2521,
      "η</w>": 2522,
      "א</w>": 2523,
      "💋</w>": 2524,
      "♫</w>": 2525,
      "지</w>": 2526,
      "🇸</w>": 2527,
      "Ö</w>": 2528,
      "🌟</w>": 2529,
      "도</w>": 2530,
      "е</w>": 2531,
      "◆</w>": 2532,
      "ם</w>": 2533,
      "🏽</w>": 2534,
      "語</w>": 2535,
      "►</w>": 2536,
      "д</w>": 2537,
      "‚</w>": 2538,
      "🏼</w>": 2539,
      "▪</w>": 2540,
      "ᄏ</w>": 2541,
      "🖤</w>": 2542,
      "😜</w>": 2543,
      "у</w>": 2544,
      "α</w>": 2545,
      "น</w>": 2546,
      "ं</w>": 2547,
      "о</w>": 2548,
      "Ě</w>": 2549,
      "̄</w>": 2550,
      "话</w>": 2551,
      "∞</w>": 2552,
      "间</w>": 2553,
      "ó</w>": 2554,
      "▬</w>": 2555,
      "ō</w>": 2556,
      "▾</w>": 2557,
      "💛</w>": 2558,
      "\r</w>": 2559,
      "े</w>": 2560,
      "版</w>": 2561,
      "ー</w>": 2562,
      "р</w>": 2563,
      "ך</w>": 2564,
      "Æ</w>": 2565,
      "✅</w>": 2566,
      "🌎</w>": 2567,
      "∆</w>": 2568,
      "e ": 2569,
      " t": 2570,
      "s ": 2571,
      "in": 2572,
      "er": 2573,
      "an": 2574,
      "t ": 2575,
      " th": 2576,
      "d ": 2577,
      "on": 2578,
      "or": 2579,
      "en": 2580,
      ", ": 2581,
      "y ": 2582,
      " the ": 2583,
      "ou": 2584,
      "ar": 2585,
      "at": 2586,
      "al": 2587,
      "o ": 2588,
      "re": 2589,
      "ing": 2590,
      "it": 2591,
      ". ": 2592,
      "st": 2593,
      "of": 2594,
      "  ": 2595,
      "a ": 2596,
      "and ": 2597,
      "ic": 2598,
      "ing ": 2599,
      "es": 2600,
      "om": 2601,
      "ion": 2602,
      "th": 2603,
      "ed ": 2604,
      "il": 2605,
      "er ": 2606,
      " to ": 2607,
      "el": 2608,
      "is ": 2609,
      "of ": 2610,
      "ac": 2611,
      "h ": 2612,
      "for": 2613,
      "as": 2614,
      ".\n": 2615,
      "is": 2616,
      "ro": 2617,
      "es ": 2618,
      "ed": 2619,
      "at ": 2620,
      "ec": 2621,
      "in ": 2622,
      "l ": 2623,
      "ow": 2624,
      "you": 2625,
      "as ": 2626,
      "ent": 2627,
      "am": 2628,
      "    ": 2629,
      "an ": 2630,
      "al ": 2631,
      "ur": 2632,
      "Th": 2633,
      "et": 2634,
      "ol": 2635,
      "ve ": 2636,
      "pl": 2637,
      "us": 2638,
      "em": 2639,
      "im": 2640,
      "ig": 2641,
      "wh": 2642,
      "id": 2643,
      "ad": 2644,
      "r ": 2645,
      "ch": 2646,
      "ation": 2647,
      "ab": 2648,
      "un": 2649,
      "en ": 2650,
      "wit": 2651,
      "ly ": 2652,
      "ag": 2653,
      "k ": 2654,
      "ver": 2655,
      "le": 2656,
      "ha": 2657,
      "for ": 2658,
      "os": 2659,
      "on ": 2660,
      "and": 2661,
      "or ": 2662,
      "e th": 2663,
      "oo": 2664,
      "ex": 2665,
      "pro": 2666,
      "com": 2667,
      "con": 2668,
      "ay": 2669,
      "if": 2670,
      "I ": 2671,
      "sh": 2672,
      "e t": 2673,
      "ul": 2674,
      " that ": 2675,
      "ent ": 2676,
      "it ": 2677,
      "ir": 2678,
      "op": 2679,
      "res": 2680,
      "ut": 2681,
      "are ": 2682,
      "The ": 2683,
      "ri": 2684,
      "ap": 2685,
      "you ": 2686,
      "with ": 2687,
      "uc": 2688,
      "of the ": 2689,
      "s, ": 2690,
      "ear": 2691,
      "n ": 2692,
      "int": 2693,
      "ot": 2694,
      "e, ": 2695,
      "ak": 2696,
      "fr": 2697,
      "be": 2698,
      "be ": 2699,
      "ion ": 2700,
      "up": 2701,
      "li": 2702,
      "ev": 2703,
      "igh": 2704,
      "oun": 2705,
      "um": 2706,
      "ew": 2707,
      "le ": 2708,
      "ect": 2709,
      "oc": 2710,
      "ay ": 2711,
      "qu": 2712,
      "se": 2713,
      " the": 2714,
      "ot ": 2715,
      " to": 2716,
      "all": 2717,
      "per": 2718,
      "- ": 2719,
      "ill ": 2720,
      "in the ": 2721,
      "ere ": 2722,
      "have ": 2723,
      "from": 2724,
      "ation ": 2725,
      "est": 2726,
      "was ": 2727,
      "cl": 2728,
      "sp": 2729,
      "di": 2730,
      "ep": 2731,
      "wor": 2732,
      "s. ": 2733,
      "’s ": 2734,
      ": ": 2735,
      "your ": 2736,
      "ers ": 2737,
      "        ": 2738,
      "act": 2739,
      "ce ": 2740,
      "20": 2741,
      "art": 2742,
      "e. ": 2743,
      "oth": 2744,
      "ic ": 2745,
      "oul": 2746,
      "bu": 2747,
      "out ": 2748,
      "ant": 2749,
      "ow ": 2750,
      "iv": 2751,
      "ess": 2752,
      "str": 2753,
      "e to ": 2754,
      "ate ": 2755,
      "will ": 2756,
      " this ": 2757,
      "bl": 2758,
      "ive ": 2759,
      "pr": 2760,
      "one ": 2761,
      "gr": 2762,
      "od": 2763,
      "end": 2764,
      "not ": 2765,
      "by ": 2766,
      ") ": 2767,
      "ain": 2768,
      "et ": 2769,
      "all ": 2770,
      "s and ": 2771,
      "e the ": 2772,
      "so ": 2773,
      "we": 2774,
      "ould ": 2775,
      "ir ": 2776,
      "can ": 2777,
      "ud": 2778,
      "ef": 2779,
      "ort": 2780,
      "rec": 2781,
      "ov": 2782,
      "our": 2783,
      "oug": 2784,
      "from ": 2785,
      "ity ": 2786,
      "av": 2787,
      " tr": 2788,
      "'s ": 2789,
      "our ": 2790,
      "ist": 2791,
      "mor": 2792,
      "y, ": 2793,
      "In": 2794,
      "ed to ": 2795,
      "St": 2796,
      " and ": 2797,
      "out": 2798,
      "with": 2799,
      "ew ": 2800,
      "ally ": 2801,
      "af": 2802,
      "we ": 2803,
      "ter": 2804,
      "su": 2805,
      "iz": 2806,
      "has ": 2807,
      "man": 2808,
      ";\n": 2809,
      "ip": 2810,
      "f ": 2811,
      "0 ": 2812,
      "ne": 2813,
      "ill": 2814,
      "ong": 2815,
      "som": 2816,
      "e of ": 2817,
      "he ": 2818,
      ", and ": 2819,
      "s of ": 2820,
      ", the ": 2821,
      "og": 2822,
      "ind": 2823,
      "ail": 2824,
      "cont": 2825,
      "est ": 2826,
      "ang": 2827,
      "enc": 2828,
      "form": 2829,
      "ass": 2830,
      "pe": 2831,
      "ob": 2832,
      "aw": 2833,
      "he": 2834,
      "over": 2835,
      "ing the ": 2836,
      "ell": 2837,
      "ies ": 2838,
      ". I": 2839,
      "ard": 2840,
      "th ": 2841,
      "my ": 2842,
      "ast": 2843,
      "but ": 2844,
      "his ": 2845,
      "cre": 2846,
      "anc": 2847,
      "s to ": 2848,
      "ar ": 2849,
      " to the ": 2850,
      "ust ": 2851,
      ". Th": 2852,
      "ight ": 2853,
      "..": 2854,
      "es, ": 2855,
      "whic": 2856,
      " their ": 2857,
      "at the ": 2858,
      "ack": 2859,
      "Ch": 2860,
      "on the ": 2861,
      "lik": 2862,
      "ser": 2863,
      ". A": 2864,
      "ight": 2865,
      "br": 2866,
      "ment": 2867,
      "port": 2868,
      ". The ": 2869,
      "year": 2870,
      "pos": 2871,
      "Wh": 2872,
      "s.\n": 2873,
      "fer": 2874,
      "her ": 2875,
      "e and ": 2876,
      "mak": 2877,
      "e.\n": 2878,
      " they ": 2879,
      "ter ": 2880,
      "par": 2881,
      "der": 2882,
      "duc": 2883,
      "which ": 2884,
      "\n- ": 2885,
      "el ": 2886,
      "dis": 2887,
      "ial ": 2888,
      "me": 2889,
      "other ": 2890,
      "do": 2891,
      "kn": 2892,
      "ost ": 2893,
      "e s": 2894,
      "vi": 2895,
      "ad ": 2896,
      "st ": 2897,
      "m ": 2898,
      "ess ": 2899,
      "lin": 2900,
      "vid": 2901,
      "ever": 2902,
      "ens": 2903,
      "ated ": 2904,
      "ough": 2905,
      "fl": 2906,
      "p ": 2907,
      "ult": 2908,
      "ment ": 2909,
      "who ": 2910,
      "her": 2911,
      "able ": 2912,
      "pre": 2913,
      "po": 2914,
      "201": 2915,
      "id ": 2916,
      "fir": 2917,
      " tim": 2918,
      "comm": 2919,
      "” ": 2920,
      "ook": 2921,
      "ure": 2922,
      "if ": 2923,
      "--": 2924,
      "also ": 2925,
      "more ": 2926,
      "pres": 2927,
      "its ": 2928,
      "any ": 2929,
      "ing to ": 2930,
      "ast ": 2931,
      "sc": 2932,
      "ure ": 2933,
      "am ": 2934,
      "dr": 2935,
      "ust": 2936,
      "ph": 2937,
      "oll": 2938,
      "for the ": 2939,
      "inter": 2940,
      "ey ": 2941,
      "fe": 2942,
      "tr": 2943,
      "and the ": 2944,
      "comp": 2945,
      "ice ": 2946,
      "ch ": 2947,
      "ib": 2948,
      "work": 2949,
      "00": 2950,
      "//": 2951,
      "A ": 2952,
      "about ": 2953,
      "fin": 2954,
      "a l": 2955,
      "ical ": 2956,
      "ign": 2957,
      "sel": 2958,
      "19": 2959,
      "de": 2960,
      "age ": 2961,
      "day": 2962,
      "ple ": 2963,
      "been ": 2964,
      "bec": 2965,
      "min": 2966,
      "uch ": 2967,
      "i ": 2968,
      "hel": 2969,
      "acc": 2970,
      "sa": 2971,
      "em ": 2972,
      "ant ": 2973,
      "off": 2974,
      "An": 2975,
      "up ": 2976,
      "were ": 2977,
      "ug": 2978,
      "us ": 2979,
      "ood ": 2980,
      "ound": 2981,
      "ach": 2982,
      "’t ": 2983,
      "ain ": 2984,
      "a s": 2985,
      "would ": 2986,
      "tion": 2987,
      "arg": 2988,
      "\" ": 2989,
      "own ": 2990,
      "eas": 2991,
      "itt": 2992,
      "aus": 2993,
      "ely ": 2994,
      "go": 2995,
      "way": 2996,
      "ly": 2997,
      "ary ": 2998,
      "ence ": 2999,
      ");\n": 3000,
      "ition": 3001,
      "own": 3002,
      "ame ": 3003,
      "clud": 3004,
      "gre": 3005,
      "ity": 3006,
      "eth": 3007,
      "sid": 3008,
      "\t\t": 3009,
      "had ": 3010,
      "mon": 3011,
      "ite ": 3012,
      "emb": 3013,
      "= ": 3014,
      "; ": 3015,
      "att": 3016,
      "ack ": 3017,
      "We ": 3018,
      "ese ": 3019,
      "row": 3020,
      "ous ": 3021,
      "ous": 3022,
      "des": 3023,
      "peo": 3024,
      "part": 3025,
      "eg": 3026,
      ". S": 3027,
      "mar": 3028,
      "when ": 3029,
      "2 ": 3030,
      "just ": 3031,
      "serv": 3032,
      "what ": 3033,
      "includ": 3034,
      "? ": 3035,
      "::": 3036,
      "ish": 3037,
      "ard ": 3038,
      "cr": 3039,
      "ord": 3040,
      "ut ": 3041,
      "with the ": 3042,
      "most ": 3043,
      "ed the ": 3044,
      "ick": 3045,
      "ans": 3046,
      ". H": 3047,
      "ents ": 3048,
      "do ": 3049,
      "some ": 3050,
      "lo": 3051,
      "ire": 3052,
      "ook ": 3053,
      "new ": 3054,
      "You": 3055,
      "get": 3056,
      "a f": 3057,
      "ret": 3058,
      "ell ": 3059,
      "add": 3060,
      "abl": 3061,
      "1 ": 3062,
      "co": 3063,
      "by": 3064,
      "ies": 3065,
      " that": 3066,
      "5 ": 3067,
      " tak": 3068,
      "ose ": 3069,
      "ough ": 3070,
      "but": 3071,
      "ing, ": 3072,
      "ile ": 3073,
      "ound ": 3074,
      "vers": 3075,
      "sup": 3076,
      "ance ": 3077,
      "not": 3078,
      "\n    ": 3079,
      "Un": 3080,
      "er, ": 3081,
      "ect ": 3082,
      "bet": 3083,
      "rem": 3084,
      "read": 3085,
      "produc": 3086,
      "\n        ": 3087,
      "Con": 3088,
      "get ": 3089,
      "like ": 3090,
      "eng": 3091,
      "no ": 3092,
      "bo": 3093,
      "very ": 3094,
      "– ": 3095,
      "don": 3096,
      "ong ": 3097,
      "Al": 3098,
      "s the ": 3099,
      "ey": 3100,
      "car": 3101,
      "ach ": 3102,
      "e that ": 3103,
      "e-": 3104,
      "is a ": 3105,
      "ount": 3106,
      "x ": 3107,
      "ed by ": 3108,
      "ed in ": 3109,
      "may ": 3110,
      "reg": 3111,
      "from the ": 3112,
      "s are ": 3113,
      "ann": 3114,
      "plac": 3115,
      "sy": 3116,
      "S ": 3117,
      "dat": 3118,
      "es and ": 3119,
      "s in ": 3120,
      "bas": 3121,
      "'t ": 3122,
      "re ": 3123,
      "vis": 3124,
      "ort ": 3125,
      "dec": 3126,
      "day ": 3127,
      "Com": 3128,
      "dev": 3129,
      ".\nThe ": 3130,
      ". B": 3131,
      "only ": 3132,
      " thr": 3133,
      "**": 3134,
      "mat": 3135,
      "end ": 3136,
      "! ": 3137,
      "ener": 3138,
      "s that ": 3139,
      "cas": 3140,
      " there ": 3141,
      "mer": 3142,
      "old ": 3143,
      "ree ": 3144,
      "You ": 3145,
      "tion ": 3146,
      "gl": 3147,
      ". I ": 3148,
      "rel": 3149,
      "o the ": 3150,
      "provid": 3151,
      "dif": 3152,
      "wo ": 3153,
      "ome ": 3154,
      "son": 3155,
      "200": 3156,
      "sur": 3157,
      "ship": 3158,
      "ing a ": 3159,
      "This ": 3160,
      "inv": 3161,
      "loc": 3162,
      "wr": 3163,
      "ubl": 3164,
      "stor": 3165,
      "ul ": 3166,
      "play": 3167,
      "10": 3168,
      "a, ": 3169,
      "ial": 3170,
      "want": 3171,
      "him": 3172,
      "& ": 3173,
      "3 ": 3174,
      "ed, ": 3175,
      "ood": 3176,
      "oy": 3177,
      "pp": 3178,
      "ert": 3179,
      "ine ": 3180,
      "ia ": 3181,
      "ever ": 3182,
      "il ": 3183,
      "gu": 3184,
      "compl": 3185,
      "urn": 3186,
      "om ": 3187,
      "any": 3188,
      "lif": 3189,
      "into ": 3190,
      "t of ": 3191,
      "||": 3192,
      "yp": 3193,
      "first ": 3194,
      "sec": 3195,
      "4 ": 3196,
      "med": 3197,
      "ade ": 3198,
      "peri": 3199,
      "requ": 3200,
      "ext": 3201,
      "was": 3202,
      "ing and ": 3203,
      "so": 3204,
      "fun": 3205,
      "people ": 3206,
      "many ": 3207,
      "becaus": 3208,
      "ek": 3209,
      "over ": 3210,
      "Fr": 3211,
      "cur": 3212,
      "fac": 3213,
      "op ": 3214,
      "under": 3215,
      "umb": 3216,
      "En": 3217,
      "ech": 3218,
      "work ": 3219,
      "?\n": 3220,
      "ub": 3221,
      "olog": 3222,
      "could ": 3223,
      "org": 3224,
      "old": 3225,
      "ma": 3226,
      "), ": 3227,
      "is the ": 3228,
      "stat": 3229,
      "inc": 3230,
      "wat": 3231,
      "chang": 3232,
      "ari": 3233,
      "ath": 3234,
      " te": 3235,
      "app": 3236,
      "On": 3237,
      "Tr": 3238,
      "will be ": 3239,
      "iss": 3240,
      "even ": 3241,
      "spec": 3242,
      "riv": 3243,
      "leg": 3244,
      "ings ": 3245,
      "ement ": 3246,
      "a b": 3247,
      "a c": 3248,
      "ual ": 3249,
      "Ar": 3250,
      "she ": 3251,
      "inn": 3252,
      "E ": 3253,
      "how ": 3254,
      "inform": 3255,
      "y to ": 3256,
      "sub": 3257,
      "ue ": 3258,
      "usin": 3259,
      "ful": 3260,
      "Pro": 3261,
      "def": 3262,
      "ement": 3263,
      "bel": 3264,
      "mark": 3265,
      "ions ": 3266,
      "pol": 3267,
      "to ": 3268,
      ")\n": 3269,
      "au": 3270,
      "by the ": 3271,
      "should ": 3272,
      "back": 3273,
      "ational ": 3274,
      "can": 3275,
      " them": 3276,
      "tim": 3277,
      "um ": 3278,
      "make ": 3279,
      "ations ": 3280,
      " these ": 3281,
      "ject": 3282,
      "Mar": 3283,
      "exp": 3284,
      "sch": 3285,
      "ere": 3286,
      "befor": 3287,
      "fect": 3288,
      "rat": 3289,
      "nam": 3290,
      "the ": 3291,
      "!\n": 3292,
      "es of ": 3293,
      "differ": 3294,
      " thin": 3295,
      "ist ": 3296,
      "sl": 3297,
      "lear": 3298,
      "amil": 3299,
      "y and ": 3300,
      "stud": 3301,
      "worl": 3302,
      "proc": 3303,
      ".\n- ": 3304,
      "ers": 3305,
      "ost": 3306,
      "ank": 3307,
      "such ": 3308,
      "about": 3309,
      "ific": 3310,
      "ond": 3311,
      ". It ": 3312,
      ". M": 3313,
      "air": 3314,
      "D ": 3315,
      "resp": 3316,
      "----": 3317,
      "ish ": 3318,
      "look": 3319,
      "ll ": 3320,
      "es to ": 3321,
      "sol": 3322,
      "e\n": 3323,
      "where ": 3324,
      "sm": 3325,
      "6 ": 3326,
      "ock": 3327,
      "mod": 3328,
      "It ": 3329,
      "val": 3330,
      "eb": 3331,
      "e.": 3332,
      "ep ": 3333,
      "s for ": 3334,
      "ative ": 3335,
      "me ": 3336,
      "how": 3337,
      "elop": 3338,
      "aut": 3339,
      "ool ": 3340,
      "In ": 3341,
      "cor": 3342,
      "8 ": 3343,
      "ating ": 3344,
      "ett": 3345,
      "ild": 3346,
      "well ": 3347,
      "ict": 3348,
      "->": 3349,
      ", but ": 3350,
      "sit": 3351,
      "said": 3352,
      "say": 3353,
      "T ": 3354,
      "sk": 3355,
      "amp": 3356,
      "az": 3357,
      "much ": 3358,
      "are": 3359,
      "ros": 3360,
      "Cl": 3361,
      "publ": 3362,
      "fil": 3363,
      "col": 3364,
      "good ": 3365,
      "start": 3366,
      "after ": 3367,
      "ick ": 3368,
      "Ex": 3369,
      "Br": 3370,
      "inst": 3371,
      "ke": 3372,
      " them ": 3373,
      "fact": 3374,
      ". This ": 3375,
      "in a ": 3376,
      "high": 3377,
      " two ": 3378,
      "cour": 3379,
      "ory ": 3380,
      "busin": 3381,
      "det": 3382,
      "ian ": 3383,
      "know": 3384,
      "stand": 3385,
      " that the ": 3386,
      "n’t ": 3387,
      "cent": 3388,
      "”\n": 3389,
      ":\n": 3390,
      "s\n": 3391,
      "se ": 3392,
      "ER": 3393,
      "struc": 3394,
      "ors ": 3395,
      "need": 3396,
      "oft": 3397,
      "run": 3398,
      "a t": 3399,
      "ase ": 3400,
      " than ": 3401,
      "Re": 3402,
      " then ": 3403,
      "ff": 3404,
      "7 ": 3405,
      "with a ": 3406,
      "en the ": 3407,
      "again": 3408,
      "experi": 3409,
      "er of ": 3410,
      "Sh": 3411,
      "line ": 3412,
      "ans ": 3413,
      "lev": 3414,
      "abil": 3415,
      "being ": 3416,
      "see ": 3417,
      "echn": 3418,
      "C ": 3419,
      "lat": 3420,
      "each ": 3421,
      "rect": 3422,
      "now ": 3423,
      "s, and ": 3424,
      "Pr": 3425,
      "unt": 3426,
      " time ": 3427,
      "bre": 3428,
      "appl": 3429,
      "as a ": 3430,
      "hand": 3431,
      "hear": 3432,
      "del": 3433,
      "mov": 3434,
      "ition ": 3435,
      "foll": 3436,
      "IN": 3437,
      "tern": 3438,
      "act ": 3439,
      "ik": 3440,
      "down": 3441,
      "every": 3442,
      "ok": 3443,
      "pat": 3444,
      ". F": 3445,
      "Ac": 3446,
      "If ": 3447,
      "hom": 3448,
      "use ": 3449,
      "can be ": 3450,
      "other": 3451,
      "as the ": 3452,
      "er and ": 3453,
      "best ": 3454,
      "ities ": 3455,
      "Ad": 3456,
      "new": 3457,
      "help ": 3458,
      "prof": 3459,
      "back ": 3460,
      "pt": 3461,
      "sib": 3462,
      "famil": 3463,
      "exc": 3464,
      "ash": 3465,
      "person": 3466,
      "ually ": 3467,
      "impl": 3468,
      "fi": 3469,
      "syst": 3470,
      "Gr": 3471,
      "es.\n": 3472,
      "develop": 3473,
      "atur": 3474,
      "pur": 3475,
      "\"\n": 3476,
      "really ": 3477,
      "call": 3478,
      "both": 3479,
      "commun": 3480,
      "disc": 3481,
      "dep": 3482,
      "point": 3483,
      "you can ": 3484,
      "it is ": 3485,
      "ed and ": 3486,
      "ident": 3487,
      "betwe": 3488,
      "pow": 3489,
      "view": 3490,
      "son ": 3491,
      "err": 3492,
      "I’": 3493,
      "e,": 3494,
      "heal": 3495,
      "made ": 3496,
      "int ": 3497,
      "dur": 3498,
      "meric": 3499,
      "und": 3500,
      "gam": 3501,
      "servic": 3502,
      "tt": 3503,
      "numb": 3504,
      " take ": 3505,
      "cons": 3506,
      "ide ": 3507,
      "It": 3508,
      "because ": 3509,
      "able": 3510,
      "port ": 3511,
      "know ": 3512,
      "lead": 3513,
      " those ": 3514,
      "week": 3515,
      "last ": 3516,
      "art ": 3517,
      "Americ": 3518,
      "happ": 3519,
      "alk": 3520,
      "progr": 3521,
      " to be ": 3522,
      "web": 3523,
      "giv": 3524,
      "ask": 3525,
      "g ": 3526,
      "soc": 3527,
      "y of ": 3528,
      "right ": 3529,
      "ave ": 3530,
      "way ": 3531,
      "ection ": 3532,
      "still ": 3533,
      "show": 3534,
      "gener": 3535,
      "ys": 3536,
      "ign ": 3537,
      "great ": 3538,
      "arm": 3539,
      "rol": 3540,
      "ited ": 3541,
      "ide": 3542,
      "cap": 3543,
      "erv": 3544,
      "help": 3545,
      "12": 3546,
      "said ": 3547,
      "ise ": 3548,
      "fri": 3549,
      "o, ": 3550,
      "ress": 3551,
      ". P": 3552,
      "es the ": 3553,
      "issu": 3554,
      "chil": 3555,
      "follow": 3556,
      ". W": 3557,
      "New ": 3558,
      "ept": 3559,
      "import": 3560,
      "appro": 3561,
      "curr": 3562,
      "coun": 3563,
      "’ ": 3564,
      "qual": 3565,
      "liv": 3566,
      "ful ": 3567,
      "hav": 3568,
      "ular ": 3569,
      "ed with ": 3570,
      "exam": 3571,
      "igh ": 3572,
      "ove ": 3573,
      "ember ": 3574,
      "overn": 3575,
      "cho": 3576,
      "ently ": 3577,
      "ivers": 3578,
      "arr": 3579,
      "miss": 3580,
      "while ": 3581,
      "able to ": 3582,
      "ustr": 3583,
      "avail": 3584,
      "urn ": 3585,
      "incre": 3586,
      "beg": 3587,
      "adv": 3588,
      "contin": 3589,
      "ra": 3590,
      "}\n": 3591,
      "ext ": 3592,
      "Jo": 3593,
      ". Wh": 3594,
      "for a ": 3595,
      "fre": 3596,
      "ation, ": 3597,
      "ason": 3598,
      "18": 3599,
      "prot": 3600,
      "man ": 3601,
      "put": 3602,
      "Ph": 3603,
      ". We ": 3604,
      "every ": 3605,
      ".\nS": 3606,
      "quest": 3607,
      "reat": 3608,
      "ittle ": 3609,
      "ici": 3610,
      ". D": 3611,
      "right": 3612,
      ",” ": 3613,
      "9 ": 3614,
      "ed a ": 3615,
      "mus": 3616,
      "has been ": 3617,
      "ation of ": 3618,
      "ott": 3619,
      "...": 3620,
      "sign": 3621,
      "now": 3622,
      "ind ": 3623,
      "empl": 3624,
      "ia": 3625,
      "partic": 3626,
      "ustom": 3627,
      " through ": 3628,
      "pert": 3629,
      "// ": 3630,
      "ed on ": 3631,
      "someth": 3632,
      "grou": 3633,
      "ould": 3634,
      "|\n": 3635,
      "manag": 3636,
      "ting ": 3637,
      "ways ": 3638,
      "ear ": 3639,
      "self": 3640,
      "ern": 3641,
      "both ": 3642,
      "e: ": 3643,
      "ON": 3644,
      "als ": 3645,
      "per ": 3646,
      "’re ": 3647,
      "information ": 3648,
      "ie ": 3649,
      "vir": 3650,
      "Sp": 3651,
      ". An": 3652,
      "organ": 3653,
      "ire ": 3654,
      "complet": 3655,
      " through": 3656,
      "()": 3657,
      "ail ": 3658,
      "vari": 3659,
      "earch ": 3660,
      "jo": 3661,
      ". N": 3662,
      "Bl": 3663,
      "wom": 3664,
      "ates ": 3665,
      " this": 3666,
      "n't ": 3667,
      "before ": 3668,
      "grow": 3669,
      "e tr": 3670,
      "go ": 3671,
      "ond ": 3672,
      "e, and ": 3673,
      "find ": 3674,
      "15": 3675,
      "it’s ": 3676,
      "come ": 3677,
      "ally": 3678,
      "% ": 3679,
      "' ": 3680,
      ". O": 3681,
      "* ": 3682,
      "conc": 3683,
      "Pl": 3684,
      "well": 3685,
      "list": 3686,
      "ed for ": 3687,
      "As": 3688,
      "siz": 3689,
      "ace ": 3690,
      "year ": 3691,
      ".”\n": 3692,
      "clos": 3693,
      "He": 3694,
      "****": 3695,
      "fort": 3696,
      "product": 3697,
      "ional ": 3698,
      "To ": 3699,
      "did ": 3700,
      "ern ": 3701,
      "I'": 3702,
      "coll": 3703,
      "writ": 3704,
      "RE": 3705,
      "less ": 3706,
      "rece": 3707,
      "es in ": 3708,
      "press": 3709,
      "ity of ": 3710,
      "design": 3711,
      "For": 3712,
      "have been ": 3713,
      "AN": 3714,
      "law": 3715,
      ", I ": 3716,
      "peopl": 3717,
      "different ": 3718,
      "11": 3719,
      "ship ": 3720,
      "need to ": 3721,
      "Res": 3722,
      "did": 3723,
      "must ": 3724,
      "ers, ": 3725,
      "ww": 3726,
      "ning ": 3727,
      "spe": 3728,
      "Par": 3729,
      "istr": 3730,
      "ucc": 3731,
      "ince ": 3732,
      "and t": 3733,
      "expl": 3734,
      "want to ": 3735,
      "sal": 3736,
      "30": 3737,
      "ric": 3738,
      "ass ": 3739,
      "ig ": 3740,
      "y.\n": 3741,
      "Sc": 3742,
      "pass": 3743,
      "world": 3744,
      ". L": 3745,
      "ur ": 3746,
      "aph": 3747,
      "set": 3748,
      "ifi": 3749,
      "month": 3750,
      "Col": 3751,
      "ing in ": 3752,
      "probl": 3753,
      "look ": 3754,
      "rist": 3755,
      "might ": 3756,
      "years ": 3757,
      "s,": 3758,
      "US": 3759,
      "e than ": 3760,
      "ake ": 3761,
      ", 201": 3762,
      "oper": 3763,
      "pa": 3764,
      "OR": 3765,
      "L ": 3766,
      "all the ": 3767,
      "iqu": 3768,
      "post": 3769,
      "P ": 3770,
      "long": 3771,
      "him ": 3772,
      "friend": 3773,
      "ax": 3774,
      "ribut": 3775,
      "into the ": 3776,
      ". He ": 3777,
      "ie": 3778,
      "50": 3779,
      "por": 3780,
      "Wor": 3781,
      "larg": 3782,
      " think ": 3783,
      ",00": 3784,
      "continu": 3785,
      "activ": 3786,
      "es are ": 3787,
      "e_": 3788,
      "ed.\n": 3789,
      "my": 3790,
      "you are ": 3791,
      "without ": 3792,
      "your": 3793,
      "present": 3794,
      "ool": 3795,
      "es that ": 3796,
      "custom": 3797,
      "love ": 3798,
      "ith ": 3799,
      "aim": 3800,
      "consid": 3801,
      "require": 3802,
      "edg": 3803,
      "side ": 3804,
      "let": 3805,
      "always ": 3806,
      "en, ": 3807,
      "dem": 3808,
      "la": 3809,
      "prom": 3810,
      "allow": 3811,
      "rip": 3812,
      ". In ": 3813,
      "M ": 3814,
      "off ": 3815,
      "char": 3816,
      "ing for ": 3817,
      "offic": 3818,
      "about the ": 3819,
      "For ": 3820,
      "ink": 3821,
      "O ": 3822,
      " though": 3823,
      "s.": 3824,
      "lim": 3825,
      "give ": 3826,
      "dist": 3827,
      "od ": 3828,
      "ix": 3829,
      "order": 3830,
      "16": 3831,
      "cert": 3832,
      "never ": 3833,
      "land": 3834,
      "report": 3835,
      "What ": 3836,
      "high ": 3837,
      "have to ": 3838,
      "divid": 3839,
      ", which ": 3840,
      "AR": 3841,
      "cle": 3842,
      "ity, ": 3843,
      "hous": 3844,
      "a m": 3845,
      "don’t ": 3846,
      "does ": 3847,
      " trans": 3848,
      "ST": 3849,
      "set ": 3850,
      "self ": 3851,
      "equ": 3852,
      "first": 3853,
      "down ": 3854,
      "ith": 3855,
      "ah": 3856,
      "ris": 3857,
      "another ": 3858,
      "book": 3859,
      "real": 3860,
      "hist": 3861,
      "govern": 3862,
      "one of the ": 3863,
      "effect": 3864,
      "bod": 3865,
      "what": 3866,
      "between ": 3867,
      ", M": 3868,
      "program": 3869,
      "ourc": 3870,
      "AT": 3871,
      "invest": 3872,
      "pri": 3873,
      "s. The ": 3874,
      "possib": 3875,
      "hum": 3876,
      "head": 3877,
      "uck": 3878,
      "s of the ": 3879,
      "childr": 3880,
      "ed in the ": 3881,
      "it was ": 3882,
      "o-": 3883,
      "result": 3884,
      "same ": 3885,
      "ore ": 3886,
      "elect": 3887,
      "if (": 3888,
      "ature": 3889,
      "ing that ": 3890,
      ". C": 3891,
      "had": 3892,
      "eir ": 3893,
      "ther ": 3894,
      "pop": 3895,
      "Qu": 3896,
      "as well ": 3897,
      "ed by the ": 3898,
      "Le": 3899,
      "ativ": 3900,
      "chec": 3901,
      "vent": 3902,
      "10 ": 3903,
      "direct": 3904,
      "echnolog": 3905,
      ". You ": 3906,
      "uss": 3907,
      "ion, ": 3908,
      "ers and ": 3909,
      "system": 3910,
      "just": 3911,
      "bro": 3912,
      "e(": 3913,
      "job": 3914,
      "rib": 3915,
      ") {": 3916,
      "\n  ": 3917,
      "respon": 3918,
      "doc": 3919,
      "ing of ": 3920,
      "market": 3921,
      "mill": 3922,
      "0x": 3923,
      "conn": 3924,
      "s on ": 3925,
      "erg": 3926,
      "Mon": 3927,
      "using ": 3928,
      "e to the ": 3929,
      "ed that ": 3930,
      ");\n    ": 3931,
      "sever": 3932,
      "— ": 3933,
      "ically ": 3934,
      "ve": 3935,
      "ush": 3936,
      "ek ": 3937,
      "bor": 3938,
      "phot": 3939,
      "build": 3940,
      "Or": 3941,
      "war": 3942,
      ". E": 3943,
      ".\nA": 3944,
      "valu": 3945,
      "experienc": 3946,
      "ank ": 3947,
      "including ": 3948,
      "put ": 3949,
      "And ": 3950,
      "pract": 3951,
      "place ": 3952,
      "|\n|": 3953,
      "wer": 3954,
      "next ": 3955,
      "ward": 3956,
      "prov": 3957,
      "auth": 3958,
      "count": 3959,
      "mil": 3960,
      "on-": 3961,
      "intern": 3962,
      "light": 3963,
      "going to ": 3964,
      "ital ": 3965,
      "s (": 3966,
      "include ": 3967,
      "enn": 3968,
      "==": 3969,
      "interest": 3970,
      "ially ": 3971,
      "14": 3972,
      "He ": 3973,
      "Cont": 3974,
      "form ": 3975,
      "met": 3976,
      ". If ": 3977,
      "memb": 3978,
      "employ": 3979,
      "home ": 3980,
      "have a ": 3981,
      "pleas": 3982,
      "199": 3983,
      "s a ": 3984,
      "exampl": 3985,
      "yst": 3986,
      "fiel": 3987,
      ", t": 3988,
      "lef": 3989,
      "business ": 3990,
      "over the ": 3991,
      "if you ": 3992,
      "cat": 3993,
      "ious ": 3994,
      "hop": 3995,
      "vide": 3996,
      "There ": 3997,
      "pay": 3998,
      "TH": 3999,
      "bab": 4000,
      "around ": 4001,
      "shar": 4002,
      "ugh": 4003,
      "some": 4004,
      "init": 4005,
      "ing t": 4006,
      "ult ": 4007,
      "find": 4008,
      "ion of ": 4009,
      "ben": 4010,
      "Cent": 4011,
      "is not ": 4012,
      "e this ": 4013,
      "more than ": 4014,
      "struct": 4015,
      "succ": 4016,
      "ator": 4017,
      "pi": 4018,
      "thing ": 4019,
      "ether ": 4020,
      "room": 4021,
      "Univers": 4022,
      "Man": 4023,
      "--------": 4024,
      "site ": 4025,
      "addition": 4026,
      "al, ": 4027,
      "s with ": 4028,
      "here ": 4029,
      "hap": 4030,
      "graph": 4031,
      "educ": 4032,
      "hal": 4033,
      ". R": 4034,
      "won": 4035,
      ".S": 4036,
      "13": 4037,
      "red": 4038,
      "seem": 4039,
      "itut": 4040,
      "Be": 4041,
      "esp": 4042,
      "ies, ": 4043,
      "a lot ": 4044,
      "17": 4045,
      "red ": 4046,
      "profess": 4047,
      "e to": 4048,
      " three ": 4049,
      "of this ": 4050,
      "vo": 4051,
      "ities": 4052,
      "Nor": 4053,
      "olv": 4054,
      "ly, ": 4055,
      "minut": 4056,
      ". “": 4057,
      "early ": 4058,
      "play ": 4059,
      "dition": 4060,
      "s: ": 4061,
      "ry ": 4062,
      "ounc": 4063,
      "support": 4064,
      "ump": 4065,
      "25": 4066,
      "ee ": 4067,
      "ular": 4068,
      "s in the ": 4069,
      " think": 4070,
      "e. The ": 4071,
      "hard": 4072,
      "ready ": 4073,
      "ime ": 4074,
      "erc": 4075,
      "return ": 4076,
      "open": 4077,
      "ident ": 4078,
      "applic": 4079,
      "ing.\n": 4080,
      "part ": 4081,
      "I was ": 4082,
      "oot": 4083,
      "ven": 4084,
      ",\" ": 4085,
      "ject ": 4086,
      "caus": 4087,
      "nor": 4088,
      "Joh": 4089,
      "life ": 4090,
      "on, ": 4091,
      "            ": 4092,
      ". T": 4093,
      "Di": 4094,
      "EN": 4095,
      "offer": 4096,
      "word": 4097,
      ".com": 4098,
      "onom": 4099,
      ". In": 4100,
      "ste": 4101,
      "ebr": 4102,
      "Car": 4103,
      "s t": 4104,
      "ine": 4105,
      "wher": 4106,
      "igin": 4107,
      "low": 4108,
      ". They ": 4109,
      "Pres": 4110,
      "fect ": 4111,
      "a few ": 4112,
      "u ": 4113,
      "imag": 4114,
      "expect": 4115,
      "used ": 4116,
      "ient": 4117,
      "out the ": 4118,
      "does": 4119,
      " there": 4120,
      "plan": 4121,
      "world ": 4122,
      "rang": 4123,
      "dro": 4124,
      "/ ": 4125,
      "such as ": 4126,
      "Christ": 4127,
      "ures": 4128,
      "ying ": 4129,
      "stu": 4130,
      "0.": 4131,
      "> ": 4132,
      ". It": 4133,
      "something ": 4134,
      "after": 4135,
      "hol": 4136,
      "increas": 4137,
      "ity to ": 4138,
      "er to ": 4139,
      "organiz": 4140,
      "individ": 4141,
      "earch": 4142,
      "We": 4143,
      "available ": 4144,
      "ation and ": 4145,
      ", S": 4146,
      "event": 4147,
      "net": 4148,
      "got ": 4149,
      "yl": 4150,
      "hour": 4151,
      "ily ": 4152,
      "ex ": 4153,
      "ics ": 4154,
      "class": 4155,
      "found ": 4156,
      "oub": 4157,
      "state ": 4158,
      "view ": 4159,
      "provide ": 4160,
      "feel": 4161,
      "rele": 4162,
      "e they ": 4163,
      "medi": 4164,
      "lov": 4165,
      "ull": 4166,
      "Gre": 4167,
      "of a ": 4168,
      "ak ": 4169,
      "buil": 4170,
      "consider": 4171,
      "solut": 4172,
      "in this ": 4173,
      ". A ": 4174,
      "aining ": 4175,
      "20 ": 4176,
      "compan": 4177,
      " typ": 4178,
      ".\n“": 4179,
      "vol": 4180,
      "Dr": 4181,
      "ner": 4182,
      "////": 4183,
      "great": 4184,
      "long ": 4185,
      "1, ": 4186,
      "maj": 4187,
      "Ap": 4188,
      "erm": 4189,
      "better ": 4190,
      "working ": 4191,
      "AL": 4192,
      "it's ": 4193,
      "return": 4194,
      "e’s ": 4195,
      "foc": 4196,
      ",\n": 4197,
      "on a ": 4198,
      "] ": 4199,
      "But ": 4200,
      "less": 4201,
      "around": 4202,
      "When ": 4203,
      "iet": 4204,
      "1.": 4205,
      "aw ": 4206,
      "care ": 4207,
      "ton ": 4208,
      ", a ": 4209,
      "ale ": 4210,
      "ieve ": 4211,
      " too ": 4212,
      "simpl": 4213,
      "const ": 4214,
      "Y ": 4215,
      "sam": 4216,
      "Stat": 4217,
      "meet": 4218,
      "viron": 4219,
      "os ": 4220,
      ".\nM": 4221,
      "saf": 4222,
      "pot": 4223,
      "ap ": 4224,
      "roll": 4225,
      "ason ": 4226,
      "AS": 4227,
      "El": 4228,
      "online ": 4229,
      "found": 4230,
      "countr": 4231,
      "cli": 4232,
      "si": 4233,
      "problem": 4234,
      "will": 4235,
      "day, ": 4236,
      "ed to the ": 4237,
      "stre": 4238,
      ". But ": 4239,
      "public ": 4240,
      "nec": 4241,
      "rest": 4242,
      "cover": 4243,
      "ock ": 4244,
      "health": 4245,
      "portun": 4246,
      "iver": 4247,
      "a and ": 4248,
      "24": 4249,
      "'re ": 4250,
      "ual": 4251,
      "conf": 4252,
      "es for ": 4253,
      "feel ": 4254,
      "Comm": 4255,
      "sim": 4256,
      "fron": 4257,
      "\t\t\t\t": 4258,
      "would be ": 4259,
      "ever, ": 4260,
      ".\"\n": 4261,
      "i-": 4262,
      "fic": 4263,
      "sug": 4264,
      "artic": 4265,
      ",000 ": 4266,
      "opp": 4267,
      "good": 4268,
      "free ": 4269,
      "project": 4270,
      "air ": 4271,
      "charg": 4272,
      "American ": 4273,
      "access": 4274,
      " tog": 4275,
      "ely": 4276,
      "benef": 4277,
      "itor": 4278,
      "company ": 4279,
      "og ": 4280,
      "appear": 4281,
      "grad": 4282,
      "option": 4283,
      "level": 4284,
      "... ": 4285,
      "nes": 4286,
      "mater": 4287,
      "Sch": 4288,
      "keep ": 4289,
      "uro": 4290,
      "wa": 4291,
      "func": 4292,
      "F ": 4293,
      "pris": 4294,
      "acros": 4295,
      "charact": 4296,
      "claim": 4297,
      "local ": 4298,
      "mag": 4299,
      "happen": 4300,
      "has": 4301,
      " to t": 4302,
      "even": 4303,
      "I’m ": 4304,
      "case ": 4305,
      "opportun": 4306,
      "don't ": 4307,
      "U.S": 4308,
      "anal": 4309,
      "One ": 4310,
      "imp": 4311,
      "youn": 4312,
      "__": 4313,
      "since ": 4314,
      "\n            ": 4315,
      "against ": 4316,
      "Fl": 4317,
      "fut": 4318,
      "water ": 4319,
      "\nThe ": 4320,
      "mean": 4321,
      "experience ": 4322,
      "desc": 4323,
      "ately ": 4324,
      "forc": 4325,
      "support ": 4326,
      "00 ": 4327,
      "read ": 4328,
      "under ": 4329,
      "ers. ": 4330,
      "I have ": 4331,
      "ific ": 4332,
      ".\nH": 4333,
      "alleng": 4334,
      "detail": 4335,
      "econom": 4336,
      "ection": 4337,
      "pag": 4338,
      "ins": 4339,
      "ct": 4340,
      "pric": 4341,
      "., ": 4342,
      "often ": 4343,
      "augh": 4344,
      "based ": 4345,
      "already ": 4346,
      "process": 4347,
      "They ": 4348,
      "ermin": 4349,
      "let ": 4350,
      "sum": 4351,
      "break": 4352,
      "e, the ": 4353,
      "Rep": 4354,
      "30 ": 4355,
      "du": 4356,
      "los": 4357,
      "I am ": 4358,
      "ity and ": 4359,
      "cam": 4360,
      "Med": 4361,
      "may be ": 4362,
      "idd": 4363,
      "ending ": 4364,
      "data ": 4365,
      "\n      ": 4366,
      "fav": 4367,
      "les ": 4368,
      ";\n    ": 4369,
      "B ": 4370,
      "contr": 4371,
      "Val": 4372,
      "s or ": 4373,
      "+ ": 4374,
      "game ": 4375,
      "is an ": 4376,
      "Serv": 4377,
      "ary": 4378,
      "polic": 4379,
      "head ": 4380,
      "Sou": 4381,
      "Bu": 4382,
      "Dec": 4383,
      "mult": 4384,
      "G ": 4385,
      "several ": 4386,
      "receiv": 4387,
      "sing": 4388,
      "| ": 4389,
      "making ": 4390,
      "bar": 4391,
      "beaut": 4392,
      "itch": 4393,
      "reason": 4394,
      "origin": 4395,
      "priv": 4396,
      "away ": 4397,
      "te": 4398,
      " they": 4399,
      "forman": 4400,
      "it, ": 4401,
      "Your ": 4402,
      "bur": 4403,
      "whol": 4404,
      "group": 4405,
      "ency ": 4406,
      "iev": 4407,
      "’ll ": 4408,
      "real ": 4409,
      ". And ": 4410,
      "std": 4411,
      "Gu": 4412,
      "full ": 4413,
      "ism": 4414,
      "bin": 4415,
      "Mic": 4416,
      "polit": 4417,
      "Co": 4418,
      "z ": 4419,
      "is to ": 4420,
      "compet": 4421,
      "become ": 4422,
      "CO": 4423,
      "cost": 4424,
      "number of ": 4425,
      "Intern": 4426,
      ") and ": 4427,
      "as well as ": 4428,
      "ali": 4429,
      "ress ": 4430,
      "natur": 4431,
      "live ": 4432,
      " trad": 4433,
      "dom": 4434,
      "t and ": 4435,
      "bi": 4436,
      "propert": 4437,
      "ature ": 4438,
      "fund": 4439,
      "ized ": 4440,
      "ather": 4441,
      "actually ": 4442,
      "ated": 4443,
      "why ": 4444,
      "book ": 4445,
      "reduc": 4446,
      "out of ": 4447,
      "ef ": 4448,
      "Bo": 4449,
      ", they ": 4450,
      "ograph": 4451,
      "you have ": 4452,
      "-t": 4453,
      "< ": 4454,
      "22": 4455,
      "R ": 4456,
      "camp": 4457,
      "ype": 4458,
      "iter": 4459,
      "s from ": 4460,
      "igg": 4461,
      "start ": 4462,
      "was the ": 4463,
      "ired ": 4464,
      "\r\n": 4465,
      "until ": 4466,
      "V ": 4467,
      "Cor": 4468,
      "need ": 4469,
      ", or ": 4470,
      "adi": 4471,
      "Cr": 4472,
      "itive ": 4473,
      "environ": 4474,
      "ible ": 4475,
      "room ": 4476,
      "vert": 4477,
      "show ": 4478,
      "aff": 4479,
      "ge ": 4480,
      "De": 4481,
      "std::": 4482,
      "four ": 4483,
      "pack": 4484,
      "time ": 4485,
      "up to ": 4486,
      "hold": 4487,
      "Jun": 4488,
      "of t": 4489,
      "keep": 4490,
      "ior ": 4491,
      "whil": 4492,
      "of their ": 4493,
      ". \"": 4494,
      "IT": 4495,
      "he was ": 4496,
      "extr": 4497,
      "ument": 4498,
      " ther": 4499,
      "ber": 4500,
      "joy": 4501,
      "refer": 4502,
      "financ": 4503,
      ", we ": 4504,
      "driv": 4505,
      "100": 4506,
      ". G": 4507,
      "Is": 4508,
      "ron": 4509,
      ").\n": 4510,
      "sw": 4511,
      "United ": 4512,
      "action": 4513,
      "service ": 4514,
      "Dis": 4515,
      " tru": 4516,
      "’ve ": 4517,
      "piec": 4518,
      "second ": 4519,
      "gen": 4520,
      "change ": 4521,
      "New": 4522,
      "ential ": 4523,
      "ledg": 4524,
      "school ": 4525,
      "hon": 4526,
      "eit": 4527,
      "relation": 4528,
      "cop": 4529,
      "cal": 4530,
      "pap": 4531,
      "challeng": 4532,
      "Per": 4533,
      "LE": 4534,
      "const": 4535,
      "known ": 4536,
      "flo": 4537,
      "meth": 4538,
      "Can": 4539,
      "important ": 4540,
      "fur": 4541,
      "power": 4542,
      "strat": 4543,
      "mad": 4544,
      "osp": 4545,
      "AC": 4546,
      "fter ": 4547,
      "ery ": 4548,
      "land ": 4549,
      "cent ": 4550,
      "Sup": 4551,
      "spir": 4552,
      "ount ": 4553,
      "Indi": 4554,
      "le, ": 4555,
      ". (": 4556,
      "Op": 4557,
      "purch": 4558,
      "should be ": 4559,
      "personal ": 4560,
      "32": 4561,
      "health ": 4562,
      "create ": 4563,
      "sens": 4564,
      "ously ": 4565,
      "industr": 4566,
      "mom": 4567,
      "suppl": 4568,
      "family ": 4569,
      "learn": 4570,
      "ical": 4571,
      "cod": 4572,
      "involv": 4573,
      "ory": 4574,
      "makes ": 4575,
      "you to ": 4576,
      "e their ": 4577,
      "ator ": 4578,
      "ID": 4579,
      "ally, ": 4580,
      "hor": 4581,
      "scre": 4582,
      "condition": 4583,
      "dri": 4584,
      "rol ": 4585,
      "decis": 4586,
      "cred": 4587,
      "ished ": 4588,
      "che": 4589,
      "gir": 4590,
      "alk ": 4591,
      "w ": 4592,
      "Yor": 4593,
      "record": 4594,
      "spect": 4595,
      "t the ": 4596,
      "energ": 4597,
      "-- ": 4598,
      "Our ": 4599,
      "les": 4600,
      "school": 4601,
      " through the ": 4602,
      "K ": 4603,
      "releas": 4604,
      " team": 4605,
      "performan": 4606,
      ");\n  ": 4607,
      "called ": 4608,
      "ensive ": 4609,
      "Str": 4610,
      "how to ": 4611,
      ". There ": 4612,
      "an, ": 4613,
      "Pol": 4614,
      ", this ": 4615,
      "IC": 4616,
      "ird ": 4617,
      "night": 4618,
      "social ": 4619,
      "wid": 4620,
      "Rec": 4621,
      "}\n\n": 4622,
      "a little ": 4623,
      "rac": 4624,
      "kind ": 4625,
      "hy": 4626,
      "sport": 4627,
      "group ": 4628,
      "you’re ": 4629,
      "selv": 4630,
      "IS": 4631,
      "ather ": 4632,
      "ept ": 4633,
      "in t": 4634,
      "phys": 4635,
      "person ": 4636,
      "little ": 4637,
      "Reg": 4638,
      "(\"": 4639,
      "aur": 4640,
      "ments ": 4641,
      "agre": 4642,
      "ed as ": 4643,
      "sett": 4644,
      "Ob": 4645,
      "season": 4646,
      "ize ": 4647,
      ".m": 4648,
      "do not ": 4649,
      "Off": 4650,
      "when": 4651,
      "kid": 4652,
      "lab": 4653,
      "AM": 4654,
      "empt": 4655,
      "is, ": 4656,
      "mot": 4657,
      ".\n\"": 4658,
      "say ": 4659,
      "light ": 4660,
      " thing": 4661,
      "iel": 4662,
      "cult": 4663,
      "2.": 4664,
      "es\n": 4665,
      "Engl": 4666,
      "system ": 4667,
      "I'm ": 4668,
      "And": 4669,
      "flu": 4670,
      "ttp": 4671,
      "necess": 4672,
      "at le": 4673,
      "ing with ": 4674,
      "alth": 4675,
      "Jan": 4676,
      "Euro": 4677,
      "recomm": 4678,
      "five ": 4679,
      "uary ": 4680,
      "_t": 4681,
      "Sun": 4682,
      "current ": 4683,
      " team ": 4684,
      "ogn": 4685,
      "imm": 4686,
      "not be ": 4687,
      "ought ": 4688,
      ".” ": 4689,
      "during the ": 4690,
      "mem": 4691,
      "Ro": 4692,
      "only": 4693,
      "ment of ": 4694,
      "y the ": 4695,
      "was a ": 4696,
      "feature": 4697,
      "gest": 4698,
      "looking ": 4699,
      "23": 4700,
      "point ": 4701,
      "load": 4702,
      "www": 4703,
      "iting ": 4704,
      "mess": 4705,
      "accord": 4706,
      "irc": 4707,
      "ing to the ": 4708,
      "item": 4709,
      "or, ": 4710,
      "which": 4711,
      "action ": 4712,
      "research ": 4713,
      "link": 4714,
      "All ": 4715,
      ".\nB": 4716,
      "way to ": 4717,
      "http": 4718,
      "pict": 4719,
      "children ": 4720,
      "eral ": 4721,
      "********": 4722,
      "40": 4723,
      "check": 4724,
      "Dat": 4725,
      "s, the ": 4726,
      "wind": 4727,
      "Tim": 4728,
      "\", ": 4729,
      " there are ": 4730,
      "getting ": 4731,
      ".\nTh": 4732,
      "clear": 4733,
      "eat": 4734,
      "food ": 4735,
      "maint": 4736,
      "ed at ": 4737,
      "key": 4738,
      " they are ": 4739,
      ", to ": 4740,
      "s were ": 4741,
      "EC": 4742,
      "non-": 4743,
      "meas": 4744,
      "believe ": 4745,
      "cel": 4746,
      "coming ": 4747,
      "comput": 4748,
      "ing your ": 4749,
      "ax ": 4750,
      "exist": 4751,
      "sess": 4752,
      "open ": 4753,
      "Ed": 4754,
      "Count": 4755,
      "espec": 4756,
      "illi": 4757,
      "As ": 4758,
      "://": 4759,
      "doub": 4760,
      "students ": 4761,
      "e's ": 4762,
      "last": 4763,
      "apt": 4764,
      "rul": 4765,
      "question": 4766,
      "Worl": 4767,
      "Chin": 4768,
      "dig": 4769,
      "money ": 4770,
      "e, but ": 4771,
      " things ": 4772,
      "secur": 4773,
      "ware ": 4774,
      "offer ": 4775,
      "once ": 4776,
      "99": 4777,
      "are the ": 4778,
      "author": 4779,
      "New Yor": 4780,
      "e in ": 4781,
      "websit": 4782,
      "If you ": 4783,
      "no": 4784,
      "dam": 4785,
      ", you ": 4786,
      "etim": 4787,
      "market ": 4788,
      "e tim": 4789,
      "decid": 4790,
      "My ": 4791,
      "Dep": 4792,
      "level ": 4793,
      "80": 4794,
      "left ": 4795,
      "\nS": 4796,
      "ES": 4797,
      "Im": 4798,
      "Nov": 4799,
      "www.": 4800,
      "ecut": 4801,
      "aid": 4802,
      "business": 4803,
      " than": 4804,
      "a lot of ": 4805,
      "cours": 4806,
      "be the ": 4807,
      "Min": 4808,
      "quality ": 4809,
      "body ": 4810,
      "review": 4811,
      "ym": 4812,
      "spac": 4813,
      "soft": 4814,
      "cut": 4815,
      "pati": 4816,
      "came ": 4817,
      "ord ": 4818,
      "week ": 4819,
      "fail": 4820,
      "ards ": 4821,
      "pan": 4822,
      "walk": 4823,
      "following ": 4824,
      "ural ": 4825,
      "mis": 4826,
      "one of ": 4827,
      "becom": 4828,
      "enjoy": 4829,
      "Se": 4830,
      "ness ": 4831,
      ");\n        ": 4832,
      "Mc": 4833,
      "ask ": 4834,
      "hard ": 4835,
      "e that": 4836,
      "ton": 4837,
      "going ": 4838,
      "60": 4839,
      "small ": 4840,
      "watch": 4841,
      "roc": 4842,
      "name ": 4843,
      "12 ": 4844,
      "step": 4845,
      "ether": 4846,
      "million ": 4847,
      "stand ": 4848,
      "connect": 4849,
      "plat": 4850,
      "particip": 4851,
      "1-": 4852,
      "video ": 4853,
      "vot": 4854,
      "ike ": 4855,
      "bill": 4856,
      "direc": 4857,
      "position": 4858,
      "big ": 4859,
      " trav": 4860,
      "run ": 4861,
      "Sec": 4862,
      "compar": 4863,
      "during ": 4864,
      "National ": 4865,
      "important": 4866,
      "Inst": 4867,
      "imin": 4868,
      "account": 4869,
      "How": 4870,
      "done ": 4871,
      "ers are ": 4872,
      "firm": 4873,
      "ified ": 4874,
      "aver": 4875,
      "ath ": 4876,
      ". J": 4877,
      "ants ": 4878,
      "ourn": 4879,
      "olut": 4880,
      "State ": 4881,
      "angu": 4882,
      "ink ": 4883,
      "strateg": 4884,
      "ains ": 4885,
      "face ": 4886,
      "ed t": 4887,
      "having ": 4888,
      "does not ": 4889,
      "quick": 4890,
      "urs": 4891,
      "understand": 4892,
      "es, and ": 4893,
      "Des": 4894,
      "mind": 4895,
      " the t": 4896,
      "and then ": 4897,
      "in their ": 4898,
      "ty ": 4899,
      "y t": 4900,
      "design ": 4901,
      " that is ": 4902,
      ". She ": 4903,
      "ipl": 4904,
      "almost ": 4905,
      "ward ": 4906,
      "t, ": 4907,
      "y-": 4908,
      "ministr": 4909,
      "audi": 4910,
      "m_": 4911,
      "diffic": 4912,
      "short": 4913,
      "...\n": 4914,
      "Mus": 4915,
      "ices ": 4916,
      "ength": 4917,
      "probab": 4918,
      "determin": 4919,
      "beh": 4920,
      "uniqu": 4921,
      "fig": 4922,
      "oci": 4923,
      "Ge": 4924,
      "ate the ": 4925,
      "Ab": 4926,
      "es a ": 4927,
      "ained ": 4928,
      "call ": 4929,
      "anim": 4930,
      "prett": 4931,
      "government ": 4932,
      "s to the ": 4933,
      "ility ": 4934,
      "Aug": 4935,
      ":\n- ": 4936,
      "beautif": 4937,
      "John ": 4938,
      "women ": 4939,
      "lease ": 4940,
      ". For ": 4941,
      "success": 4942,
      "ney ": 4943,
      "How ": 4944,
      "Get": 4945,
      "it to ": 4946,
      "in your ": 4947,
      "please ": 4948,
      "Gl": 4949,
      "we are ": 4950,
      "far ": 4951,
      "ing this ": 4952,
      "Don": 4953,
      "aint": 4954,
      "noth": 4955,
      "CH": 4956,
      "along ": 4957,
      "improv": 4958,
      "ts ": 4959,
      "ric ": 4960,
      "unch": 4961,
      "ism ": 4962,
      "got": 4963,
      "27": 4964,
      ". Al": 4965,
      "fill": 4966,
      "   ": 4967,
      "past ": 4968,
      "major ": 4969,
      "key ": 4970,
      "RO": 4971,
      "special ": 4972,
      "responsib": 4973,
      "un ": 4974,
      "human ": 4975,
      "ended ": 4976,
      "regard": 4977,
      "Em": 4978,
      "is that ": 4979,
      "used to ": 4980,
      "ering ": 4981,
      "e is ": 4982,
      "function": 4983,
      "15 ": 4984,
      "kill": 4985,
      "With ": 4986,
      "field": 4987,
      "26": 4988,
      "sty": 4989,
      "went ": 4990,
      "er in ": 4991,
      "50 ": 4992,
      "someone ": 4993,
      "previ": 4994,
      "ian": 4995,
      "er is ": 4996,
      "ets ": 4997,
      "ured ": 4998,
      "studi": 4999,
      "cy": 5000,
      "data": 5001,
      "area ": 5002,
      "Bar": 5003,
      "around the ": 5004,
      "ley ": 5005,
      "spr": 5006,
      "It’s ": 5007,
      "ox": 5008,
      "ouse": 5009,
      "of these ": 5010,
      "s\n- ": 5011,
      " tri": 5012,
      "norm": 5013,
      "rot": 5014,
      "has a ": 5015,
      "comes ": 5016,
      "im ": 5017,
      "ffer": 5018,
      "er.\n": 5019,
      "oog": 5020,
      "seen ": 5021,
      "mu": 5022,
      "win": 5023,
      " thes": 5024,
      "clus": 5025,
      "hot": 5026,
      "b ": 5027,
      "print": 5028,
      "rid": 5029,
      "part of ": 5030,
      "combin": 5031,
      "young ": 5032,
      "may": 5033,
      "sequ": 5034,
      "ered ": 5035,
      "associ": 5036,
      "Dev": 5037,
      "draw": 5038,
      "and, ": 5039,
      "enough": 5040,
      "crit": 5041,
      "plann": 5042,
      "control ": 5043,
      "s.\nThe ": 5044,
      "ate": 5045,
      "road": 5046,
      "ital": 5047,
      "care": 5048,
      "ull ": 5049,
      "28": 5050,
      "represent": 5051,
      "but the ": 5052,
      " there is ": 5053,
      "2, ": 5054,
      "Am": 5055,
      "log": 5056,
      "various ": 5057,
      "night ": 5058,
      "contact ": 5059,
      "material": 5060,
      "quite ": 5061,
      "mental ": 5062,
      "dest": 5063,
      "establ": 5064,
      "suggest": 5065,
      "active ": 5066,
      "U ": 5067,
      "ures ": 5068,
      "xim": 5069,
      "purpos": 5070,
      "e. S": 5071,
      "round": 5072,
      "favor": 5073,
      "cast": 5074,
      "histor": 5075,
      "discuss": 5076,
      "public": 5077,
      "ed from ": 5078,
      "har": 5079,
      "ying to ": 5080,
      "SE": 5081,
      "better": 5082,
      "arch": 5083,
      " to a ": 5084,
      "Dav": 5085,
      "especially ": 5086,
      "want ": 5087,
      "es in the ": 5088,
      " turn": 5089,
      "ball ": 5090,
      "fully ": 5091,
      "ements ": 5092,
      "UN": 5093,
      "ense ": 5094,
      "doing ": 5095,
      "er for ": 5096,
      " today": 5097,
      "bat": 5098,
      "concern": 5099,
      "roduc": 5100,
      "program ": 5101,
      "jur": 5102,
      "Fin": 5103,
      "eful": 5104,
      "bir": 5105,
      "prepar": 5106,
      "consum": 5107,
      "aking ": 5108,
      "er-": 5109,
      "pretty ": 5110,
      "inf": 5111,
      "recogn": 5112,
      ". How": 5113,
      "whole ": 5114,
      "second": 5115,
      "Tu": 5116,
      "ing their ": 5117,
      "Te": 5118,
      "guid": 5119,
      "God": 5120,
      "glob": 5121,
      "Stre": 5122,
      "at least ": 5123,
      "Oct": 5124,
      "promot": 5125,
      "== ": 5126,
      "ource ": 5127,
      "men": 5128,
      "s at ": 5129,
      "ufact": 5130,
      "bit": 5131,
      "date ": 5132,
      "yn": 5133,
      "announc": 5134,
      "move ": 5135,
      "prove ": 5136,
      "Apr": 5137,
      "you will ": 5138,
      ", C": 5139,
      "ash ": 5140,
      "either ": 5141,
      "communic": 5142,
      "198": 5143,
      "hic": 5144,
      "product ": 5145,
      "skill": 5146,
      "perfect ": 5147,
      "student": 5148,
      "within ": 5149,
      "wel": 5150,
      "AP": 5151,
      "special": 5152,
      "members ": 5153,
      "pay ": 5154,
      "den": 5155,
      "power ": 5156,
      "In the ": 5157,
      "s. S": 5158,
      "otal ": 5159,
      "Fac": 5160,
      "ont": 5161,
      "'ll ": 5162,
      ", that ": 5163,
      ", it ": 5164,
      "sor": 5165,
      "knowledg": 5166,
      "• ": 5167,
      "ies and ": 5168,
      "ion and ": 5169,
      "winn": 5170,
      " test": 5171,
      "29": 5172,
      "ark": 5173,
      "when the ": 5174,
      "ipp": 5175,
      "ists ": 5176,
      "s. Th": 5177,
      "past": 5178,
      "ers to ": 5179,
      "Rev": 5180,
      "host": 5181,
      "house ": 5182,
      "bal": 5183,
      "egr": 5184,
      "Ju": 5185,
      "percent ": 5186,
      "ay, ": 5187,
      "or the ": 5188,
      "ner ": 5189,
      "on your ": 5190,
      "or of ": 5191,
      "Vi": 5192,
      "70": 5193,
      "Rob": 5194,
      "edd": 5195,
      "Mat": 5196,
      "ation of the ": 5197,
      "would": 5198,
      "model": 5199,
      "kind of ": 5200,
      "es (": 5201,
      "Web": 5202,
      "etc": 5203,
      "Manag": 5204,
      "fel": 5205,
      "omat": 5206,
      "half ": 5207,
      "Wat": 5208,
      "didn’t ": 5209,
      "3.": 5210,
      "probably ": 5211,
      "music ": 5212,
      "reach": 5213,
      "far": 5214,
      "io ": 5215,
      "\t\t\t": 5216,
      "main ": 5217,
      "defin": 5218,
      "we have ": 5219,
      "cell": 5220,
      "ental ": 5221,
      "reli": 5222,
      "contribut": 5223,
      "project ": 5224,
      "financial ": 5225,
      "64": 5226,
      "ness": 5227,
      "lock": 5228,
      "hib": 5229,
      "information": 5230,
      "load ": 5231,
      "Mod": 5232,
      "men ": 5233,
      "prim": 5234,
      "LO": 5235,
      "community ": 5236,
      "soci": 5237,
      "ing\n": 5238,
      "No": 5239,
      "and to ": 5240,
      "jud": 5241,
      "y is ": 5242,
      "best": 5243,
      "eed": 5244,
      "ral ": 5245,
      "job ": 5246,
      "fast": 5247,
      "W ": 5248,
      "situ": 5249,
      "May ": 5250,
      "path": 5251,
      "visit": 5252,
      "for your ": 5253,
      "row ": 5254,
      "which is ": 5255,
      "ther": 5256,
      "company": 5257,
      "bott": 5258,
      "age": 5259,
      "en to ": 5260,
      "days ": 5261,
      "No ": 5262,
      "Frid": 5263,
      "share ": 5264,
      "viol": 5265,
      "circ": 5266,
      "cou": 5267,
      "On ": 5268,
      "effort": 5269,
      "ing is ": 5270,
      "====": 5271,
      "Fir": 5272,
      "ground ": 5273,
      "T_": 5274,
      "ub ": 5275,
      "e. Th": 5276,
      "ground": 5277,
      "ations, ": 5278,
      "field ": 5279,
      "leav": 5280,
      "sle": 5281,
      "3-": 5282,
      "e. I ": 5283,
      "ion to ": 5284,
      " to take ": 5285,
      "says ": 5286,
      "ge": 5287,
      "specific ": 5288,
      "ages ": 5289,
      " tw": 5290,
      ";\n        ": 5291,
      "aren": 5292,
      "install": 5293,
      "mach": 5294,
      "sci": 5295,
      "asp": 5296,
      "Acc": 5297,
      "above ": 5298,
      "age of ": 5299,
      "could": 5300,
      "purchas": 5301,
      "sell": 5302,
      "check ": 5303,
      "led ": 5304,
      "deliver": 5305,
      "scen": 5306,
      "Fil": 5307,
      "recent ": 5308,
      "ability ": 5309,
      "flow": 5310,
      "ens ": 5311,
      ".\nI ": 5312,
      "Comp": 5313,
      "Us": 5314,
      "object": 5315,
      "heav": 5316,
      "offers ": 5317,
      "wonder": 5318,
      "0, ": 5319,
      "process ": 5320,
      "i, ": 5321,
      "y, and ": 5322,
      "a sm": 5323,
      "whether ": 5324,
      "Sm": 5325,
      " that they ": 5326,
      "simply ": 5327,
      "ry": 5328,
      "board ": 5329,
      "e.\nThe ": 5330,
      "<< ": 5331,
      "natural ": 5332,
      "Cour": 5333,
      "Ev": 5334,
      "practic": 5335,
      "cost ": 5336,
      "Mor": 5337,
      "cook": 5338,
      "block": 5339,
      "ball": 5340,
      "Pe": 5341,
      "part of the ": 5342,
      "writt": 5343,
      "after the ": 5344,
      "position ": 5345,
      "de ": 5346,
      "everything ": 5347,
      "phone ": 5348,
      ", th": 5349,
      "deal": 5350,
      "ess, ": 5351,
      "again ": 5352,
      "eff": 5353,
      "quart": 5354,
      "usually ": 5355,
      "learn ": 5356,
      "perform": 5357,
      "2-": 5358,
      "God ": 5359,
      "ordin": 5360,
      "indic": 5361,
      "ember": 5362,
      "pick": 5363,
      "like to ": 5364,
      "'ve ": 5365,
      "mer ": 5366,
      "inste": 5367,
      "wide ": 5368,
      "order to ": 5369,
      "ren": 5370,
      "US ": 5371,
      "present ": 5372,
      "surv": 5373,
      "research": 5374,
      "canc": 5375,
      "girl": 5376,
      "below": 5377,
      "protect": 5378,
      "scor": 5379,
      "ict ": 5380,
      "s to be ": 5381,
      "I’ve ": 5382,
      "imate ": 5383,
      ". When ": 5384,
      "season ": 5385,
      "adem": 5386,
      "NO": 5387,
      "sav": 5388,
      "vehic": 5389,
      "low ": 5390,
      "receive ": 5391,
      ".\nL": 5392,
      "ier ": 5393,
      ", 200": 5394,
      "few ": 5395,
      "resourc": 5396,
      "given ": 5397,
      "held ": 5398,
      "eter": 5399,
      "LL": 5400,
      "Ger": 5401,
      "event ": 5402,
      "series ": 5403,
      "under the ": 5404,
      "langu": 5405,
      "It is ": 5406,
      "ed to be ": 5407,
      "dre": 5408,
      "ez": 5409,
      "prec": 5410,
      "introduc": 5411,
      "ift": 5412,
      "ru": 5413,
      "ector": 5414,
      "star": 5415,
      "further ": 5416,
      "phon": 5417,
      "Ind": 5418,
      "21": 5419,
      "Ag": 5420,
      "media ": 5421,
      "degre": 5422,
      "sen": 5423,
      "Publ": 5424,
      "e for ": 5425,
      "agg": 5426,
      "signific": 5427,
      "ystem": 5428,
      "lex": 5429,
      "legal ": 5430,
      "in-": 5431,
      "ing on ": 5432,
      "age, ": 5433,
      " thre": 5434,
      "ION": 5435,
      "hug": 5436,
      "North ": 5437,
      "order ": 5438,
      ". It is ": 5439,
      "a new ": 5440,
      "else ": 5441,
      "could be ": 5442,
      "regul": 5443,
      "lic": 5444,
      "in, ": 5445,
      "accept": 5446,
      "some of the ": 5447,
      "professional ": 5448,
      "World ": 5449,
      "Up": 5450,
      "foot": 5451,
      "sou": 5452,
      "South ": 5453,
      "5-": 5454,
      "Char": 5455,
      "doesn’t ": 5456,
      "fric": 5457,
      "assist": 5458,
      "ment, ": 5459,
      ", then ": 5460,
      "method": 5461,
      "film": 5462,
      "uck ": 5463,
      "did not ": 5464,
      "ify ": 5465,
      "But": 5466,
      "Hous": 5467,
      "color": 5468,
      "March ": 5469,
      ",\n        ": 5470,
      ".\" ": 5471,
      "mob": 5472,
      "ainly ": 5473,
      "X ": 5474,
      "y\n": 5475,
      "ip ": 5476,
      "e)": 5477,
      "common ": 5478,
      "es of the ": 5479,
      "ouch": 5480,
      "word ": 5481,
      "possible ": 5482,
      "amaz": 5483,
      "email": 5484,
      "ol ": 5485,
      "( ": 5486,
      "ino ": 5487,
      "variet": 5488,
      "most": 5489,
      "manufact": 5490,
      "much": 5491,
      "have the ": 5492,
      "leave ": 5493,
      "fa": 5494,
      "particular": 5495,
      "us, ": 5496,
      "3, ": 5497,
      "uk": 5498,
      "water": 5499,
      "ah ": 5500,
      "s like ": 5501,
      "Not": 5502,
      "class ": 5503,
      "All": 5504,
      "post ": 5505,
      "others ": 5506,
      "rup": 5507,
      "AD": 5508,
      "large ": 5509,
      "ia, ": 5510,
      "et, ": 5511,
      "e of the ": 5512,
      "yet ": 5513,
      "squ": 5514,
      "At": 5515,
      "board": 5516,
      "bud": 5517,
      "Gener": 5518,
      "rough": 5519,
      "food": 5520,
      "course ": 5521,
      "insur": 5522,
      "amb": 5523,
      ". As ": 5524,
      "she": 5525,
      "11 ": 5526,
      "original ": 5527,
      "Po": 5528,
      "es with ": 5529,
      "match": 5530,
      "d, ": 5531,
      "sun": 5532,
      "ong the ": 5533,
      "content ": 5534,
      "es on ": 5535,
      "respond": 5536,
      "box": 5537,
      "fall": 5538,
      "black ": 5539,
      "Inter": 5540,
      "and that ": 5541,
      "rate ": 5542,
      "final ": 5543,
      " together ": 5544,
      "mitt": 5545,
      "Canad": 5546,
      "drug": 5547,
      "limit": 5548,
      "N ": 5549,
      "wall": 5550,
      "ert ": 5551,
      "y’s ": 5552,
      "hand ": 5553,
      "ark ": 5554,
      "avo": 5555,
      ".\nThis ": 5556,
      "attent": 5557,
      "currently ": 5558,
      "http://": 5559,
      "celebr": 5560,
      "Mr": 5561,
      "short ": 5562,
      ".\nD": 5563,
      "at a ": 5564,
      "execut": 5565,
      "////////": 5566,
      "void ": 5567,
      "Pa": 5568,
      "sex": 5569,
      "strong ": 5570,
      "I think ": 5571,
      "within the ": 5572,
      "integr": 5573,
      "Associ": 5574,
      "immedi": 5575,
      "respect": 5576,
      "ag ": 5577,
      "ich": 5578,
      "#include ": 5579,
      "ederal ": 5580,
      "can’t ": 5581,
      "request": 5582,
      "diseas": 5583,
      "all of ": 5584,
      "ers of ": 5585,
      "echnology ": 5586,
      "You can ": 5587,
      "allow ": 5588,
      "Mark": 5589,
      "ium ": 5590,
      "consist": 5591,
      "simil": 5592,
      "ush ": 5593,
      "Goog": 5594,
      "development ": 5595,
      "everyone ": 5596,
      "must be ": 5597,
      "lot": 5598,
      "approach": 5599,
      "blog": 5600,
      "s, but ": 5601,
      "private ": 5602,
      ". On": 5603,
      "email ": 5604,
      "add ": 5605,
      "U.S. ": 5606,
      "story ": 5607,
      "TE": 5608,
      "ance, ": 5609,
      "fol": 5610,
      "near": 5611,
      "his": 5612,
      "IM": 5613,
      "1/": 5614,
      "100 ": 5615,
      "like the ": 5616,
      "website ": 5617,
      "rais": 5618,
      "deal ": 5619,
      "fal": 5620,
      "stay ": 5621,
      "analys": 5622,
      "additional ": 5623,
      ". K": 5624,
      "comfort": 5625,
      "sil": 5626,
      "Part": 5627,
      "medical ": 5628,
      "edul": 5629,
      ". It’s ": 5630,
      "marri": 5631,
      "oil": 5632,
      "urr": 5633,
      "had been ": 5634,
      ". So ": 5635,
      "make s": 5636,
      "ers.\n": 5637,
      "ling ": 5638,
      "law ": 5639,
      "Octob": 5640,
      "unch ": 5641,
      "Austr": 5642,
      "role ": 5643,
      "report ": 5644,
      "speak": 5645,
      "Sept": 5646,
      ".\nIn ": 5647,
      "rap": 5648,
      "sist": 5649,
      "countri": 5650,
      "enter": 5651,
      "up the ": 5652,
      "started ": 5653,
      "UR": 5654,
      "Isl": 5655,
      "June ": 5656,
      "Pat": 5657,
      "rout": 5658,
      "agu": 5659,
      "remov": 5660,
      "deb": 5661,
      "alt": 5662,
      "brow": 5663,
      "swe": 5664,
      "Soc": 5665,
      "page ": 5666,
      "extrem": 5667,
      "April ": 5668,
      "or to ": 5669,
      "buy ": 5670,
      "former ": 5671,
      "plan ": 5672,
      "means ": 5673,
      "express": 5674,
      "against": 5675,
      "had a ": 5676,
      "rit": 5677,
      "Jam": 5678,
      "effici": 5679,
      " took ": 5680,
      "super": 5681,
      "cand": 5682,
      "lay": 5683,
      " tran": 5684,
      "4.": 5685,
      "forward": 5686,
      "mission ": 5687,
      "hold ": 5688,
      "ref": 5689,
      ")\n- ": 5690,
      "investig": 5691,
      "shall ": 5692,
      "36": 5693,
      "e.</w>": 5694,
      "interest ": 5695,
      "conduc": 5696,
      "when you ": 5697,
      "sym": 5698,
      "different": 5699,
      "clean": 5700,
      "that ": 5701,
      "sat": 5702,
      "sinc": 5703,
      "ed to": 5704,
      "political ": 5705,
      "separ": 5706,
      "Cre": 5707,
      "parent": 5708,
      "Afric": 5709,
      "problem ": 5710,
      "performance ": 5711,
      "car ": 5712,
      "uring ": 5713,
      "we can ": 5714,
      "Satur": 5715,
      "anything ": 5716,
      "recommend": 5717,
      "from a ": 5718,
      "Brit": 5719,
      "ic, ": 5720,
      "eful ": 5721,
      "study ": 5722,
      "it and ": 5723,
      "Chec": 5724,
      "ins ": 5725,
      "national ": 5726,
      "5, ": 5727,
      "if the ": 5728,
      "Art": 5729,
      "child": 5730,
      "devic": 5731,
      "appoint": 5732,
      "sent": 5733,
      "ustri": 5734,
      "beautiful ": 5735,
      "a’s ": 5736,
      "There are ": 5737,
      "facil": 5738,
      "select": 5739,
      "idence ": 5740,
      "expert": 5741,
      "employe": 5742,
      "between the ": 5743,
      "encour": 5744,
      "’t": 5745,
      "committ": 5746,
      "complete ": 5747,
      "describ": 5748,
      "cit": 5749,
      "aily ": 5750,
      "enough ": 5751,
      "Int": 5752,
      "alth ": 5753,
      "Wind": 5754,
      "individual ": 5755,
      "CE": 5756,
      "management ": 5757,
      "usp": 5758,
      "bon": 5759,
      "ago": 5760,
      ". These ": 5761,
      "in my ": 5762,
      "services ": 5763,
      "ing, and ": 5764,
      "cup": 5765,
      "abor": 5766,
      "Rel": 5767,
      "July ": 5768,
      "six ": 5769,
      "difficult": 5770,
      " themselv": 5771,
      "gave ": 5772,
      "der ": 5773,
      "propos": 5774,
      "shop": 5775,
      "away": 5776,
      "risk ": 5777,
      "a-": 5778,
      "front ": 5779,
      "white ": 5780,
      "Grou": 5781,
      "distribut": 5782,
      "Depart": 5783,
      "joy ": 5784,
      "agn": 5785,
      "Har": 5786,
      "on this ": 5787,
      "ingly ": 5788,
      "er’s ": 5789,
      "created ": 5790,
      "entire ": 5791,
      ", B": 5792,
      " train": 5793,
      ". That ": 5794,
      "astic ": 5795,
      "emerg": 5796,
      "Direct": 5797,
      "collect": 5798,
      "Type": 5799,
      "attr": 5800,
      "ence, ": 5801,
      "s on the ": 5802,
      "rough ": 5803,
      "President ": 5804,
      "colleg": 5805,
      "companies ": 5806,
      "!!": 5807,
      "are t": 5808,
      "s-": 5809,
      "Ste": 5810,
      "push": 5811,
      "New York ": 5812,
      "ing in the ": 5813,
      "() ": 5814,
      "energy ": 5815,
      "get the ": 5816,
      "num": 5817,
      "antly ": 5818,
      " tow": 5819,
      "written ": 5820,
      "IL": 5821,
      "a\n": 5822,
      "beginn": 5823,
      "else": 5824,
      "Del": 5825,
      "door ": 5826,
      "top ": 5827,
      "provides ": 5828,
      "s) ": 5829,
      "card": 5830,
      "anch": 5831,
      "ed up ": 5832,
      "e? ": 5833,
      "mix": 5834,
      "general ": 5835,
      "who are ": 5836,
      "nic": 5837,
      "build ": 5838,
      "ing of the ": 5839,
      "SC": 5840,
      "ively ": 5841,
      "AB": 5842,
      "sn": 5843,
      "4, ": 5844,
      "ion of the ": 5845,
      "sometim": 5846,
      "pet": 5847,
      "eption": 5848,
      "matter ": 5849,
      " treat": 5850,
      "Commun": 5851,
      "cros": 5852,
      "who": 5853,
      ".\nP": 5854,
      "kind": 5855,
      "25 ": 5856,
      "affect": 5857,
      "next": 5858,
      "havi": 5859,
      "aff ": 5860,
      "ang ": 5861,
      "across the ": 5862,
      "itional ": 5863,
      "....": 5864,
      "ift ": 5865,
      "future ": 5866,
      "campa": 5867,
      "popular ": 5868,
      "advant": 5869,
      "child ": 5870,
      "prog": 5871,
      " teach": 5872,
      "win ": 5873,
      "onlin": 5874,
      "chanc": 5875,
      "ier": 5876,
      "Def": 5877,
      "park": 5878,
      "radi": 5879,
      "as an ": 5880,
      "space ": 5881,
      "latest ": 5882,
      "bigg": 5883,
      ", so ": 5884,
      " that’s ": 5885,
      "Ir": 5886,
      "for this ": 5887,
      "weight ": 5888,
      "ance of ": 5889,
      ".\nT": 5890,
      "uth": 5891,
      "sourc": 5892,
      "Me": 5893,
      "Inc": 5894,
      "in 201": 5895,
      "stri": 5896,
      "plant": 5897,
      "idea ": 5898,
      "excell": 5899,
      "forn": 5900,
      "influ": 5901,
      "nation": 5902,
      "comment": 5903,
      "international ": 5904,
      "Sal": 5905,
      "tion of ": 5906,
      "house": 5907,
      "band ": 5908,
      "ix ": 5909,
      "web ": 5910,
      " tool": 5911,
      "aliforn": 5912,
      "sound": 5913,
      "4-": 5914,
      "els ": 5915,
      "35": 5916,
      "From ": 5917,
      "back to ": 5918,
      "197": 5919,
      "self-": 5920,
      "With": 5921,
      "mid": 5922,
      "iction": 5923,
      "document": 5924,
      "Add": 5925,
      "sure ": 5926,
      "bank": 5927,
      "Prof": 5928,
      "aid ": 5929,
      "thern ": 5930,
      "Europe": 5931,
      "focus ": 5932,
      "use of ": 5933,
      "chur": 5934,
      "believ": 5935,
      "error": 5936,
      "advanc": 5937,
      "ago ": 5938,
      "had to ": 5939,
      ".\nC": 5940,
      "potential ": 5941,
      ", he ": 5942,
      "ife ": 5943,
      "univers": 5944,
      "effective ": 5945,
      "popul": 5946,
      "Wash": 5947,
      "acy ": 5948,
      "via ": 5949,
      "ably ": 5950,
      "craf": 5951,
      "s’ ": 5952,
      "based on ": 5953,
      "acqu": 5954,
      "Do ": 5955,
      "convers": 5956,
      "cul": 5957,
      "West": 5958,
      "es. ": 5959,
      "ech ": 5960,
      "replac": 5961,
      "Out": 5962,
      "DE": 5963,
      "strong": 5964,
      "anyone ": 5965,
      "Ser": 5966,
      "ess. ": 5967,
      "THE ": 5968,
      "children": 5969,
      "s)": 5970,
      "Ne": 5971,
      "gradu": 5972,
      "minim": 5973,
      "as well": 5974,
      ".h": 5975,
      "and th": 5976,
      ".\nF": 5977,
      "1,": 5978,
      "wood": 5979,
      "ed his ": 5980,
      "subject": 5981,
      ";\n  ": 5982,
      "es. The ": 5983,
      "didn't ": 5984,
      "four": 5985,
      "ability to ": 5986,
      "building ": 5987,
      "into a ": 5988,
      "creat": 5989,
      "fram": 5990,
      "control": 5991,
      "global ": 5992,
      "wood ": 5993,
      "improve ": 5994,
      "earn": 5995,
      "Vis": 5996,
      "ons ": 5997,
      "Sk": 5998,
      "profession": 5999,
      "ford": 6000,
      "udi": 6001,
      "it of ": 6002,
      "rest ": 6003,
      "util": 6004,
      "suit": 6005,
      "emot": 6006,
      "Ang": 6007,
      "ic and ": 6008,
      "8, ": 6009,
      "late ": 6010,
      "city ": 6011,
      "90": 6012,
      "refl": 6013,
      "ure, ": 6014,
      "Colleg": 6015,
      "went": 6016,
      "School ": 6017,
      "step ": 6018,
      "in our ": 6019,
      "aj": 6020,
      "bed": 6021,
      "unc": 6022,
      "To": 6023,
      "publish": 6024,
      "a good ": 6025,
      "mission": 6026,
      "sych": 6027,
      "iddle ": 6028,
      "regist": 6029,
      "paint": 6030,
      "e there ": 6031,
      "Ear": 6032,
      "meet ": 6033,
      "ript": 6034,
      "ys ": 6035,
      "Act": 6036,
      "be t": 6037,
      "recently ": 6038,
      "appropri": 6039,
      "oud": 6040,
      "yt": 6041,
      "ings, ": 6042,
      "attempt": 6043,
      "you're ": 6044,
      "running ": 6045,
      "Bas": 6046,
      "relat": 6047,
      "emper": 6048,
      "a larg": 6049,
      " trying to ": 6050,
      "TR": 6051,
      "shap": 6052,
      "updat": 6053,
      "nov": 6054,
      "\\n": 6055,
      "at’s ": 6056,
      "It's ": 6057,
      "chem": 6058,
      "particular ": 6059,
      "ation is ": 6060,
      "gar": 6061,
      "fore ": 6062,
      "bring ": 6063,
      "conv": 6064,
      "small": 6065,
      "Mo": 6066,
      "ted ": 6067,
      "IG": 6068,
      "amm": 6069,
      "iple ": 6070,
      "discover": 6071,
      "Pal": 6072,
      "should": 6073,
      "areas ": 6074,
      "construc": 6075,
      "equip": 6076,
      "Loc": 6077,
      "depart": 6078,
      ", “": 6079,
      "fix": 6080,
      "Sen": 6081,
      "value ": 6082,
      "dog": 6083,
      " taking ": 6084,
      "rop": 6085,
      " talk": 6086,
      "Faceb": 6087,
      ", who ": 6088,
      "among ": 6089,
      "stop ": 6090,
      "II": 6091,
      "s is ": 6092,
      "Dem": 6093,
      "enh": 6094,
      "By ": 6095,
      "search ": 6096,
      "Georg": 6097,
      "mic": 6098,
      "doct": 6099,
      "with your ": 6100,
      "))": 6101,
      "Post": 6102,
      "exper": 6103,
      "s.\n- ": 6104,
      "includes ": 6105,
      "been": 6106,
      ". If you ": 6107,
      "on and ": 6108,
      "ype ": 6109,
      ": The ": 6110,
      "commerc": 6111,
      "Work": 6112,
      "exact": 6113,
      "37": 6114,
      "in his ": 6115,
      "ief ": 6116,
      "ference ": 6117,
      "ony ": 6118,
      "attack": 6119,
      "John": 6120,
      "or and ": 6121,
      "out of the ": 6122,
      "rather": 6123,
      "subst": 6124,
      "cannot ": 6125,
      "unique ": 6126,
      "pain": 6127,
      "Net": 6128,
      "ought": 6129,
      "administr": 6130,
      "save ": 6131,
      "6-": 6132,
      "specific": 6133,
      "agr": 6134,
      "notic": 6135,
      "style ": 6136,
      " that I ": 6137,
      "history ": 6138,
      "party ": 6139,
      "es from ": 6140,
      "brid": 6141,
      "restaur": 6142,
      "ump ": 6143,
      "finish": 6144,
      "hosp": 6145,
      "s.</w>": 6146,
      "IP": 6147,
      "goal": 6148,
      "H ": 6149,
      "carri": 6150,
      "urb": 6151,
      "join": 6152,
      "neigh": 6153,
      "camer": 6154,
      "c ": 6155,
      "result ": 6156,
      "and they ": 6157,
      "safet": 6158,
      "ab ": 6159,
      "medic": 6160,
      "and their ": 6161,
      "engag": 6162,
      "address": 6163,
      "oot ": 6164,
      "aster ": 6165,
      "Of ": 6166,
      "NE": 6167,
      "io": 6168,
      "depend": 6169,
      "th of ": 6170,
      ". But": 6171,
      "Austral": 6172,
      "University of ": 6173,
      "Fre": 6174,
      "ster": 6175,
      "e. This ": 6176,
      "a great ": 6177,
      "with an ": 6178,
      "ed with the ": 6179,
      "arriv": 6180,
      "Hol": 6181,
      "ers in ": 6182,
      "clin": 6183,
      "earli": 6184,
      "arget": 6185,
      "Jap": 6186,
      "Not ": 6187,
      "Well": 6188,
      "ina ": 6189,
      "ver ": 6190,
      "high-": 6191,
      "behavi": 6192,
      "choos": 6193,
      "brok": 6194,
      ", as ": 6195,
      " that you ": 6196,
      "oil ": 6197,
      "oft ": 6198,
      "located ": 6199,
      "help you ": 6200,
      "Chr": 6201,
      "s have ": 6202,
      "er than ": 6203,
      ", L": 6204,
      ". St": 6205,
      "ce": 6206,
      "wear": 6207,
      "ington ": 6208,
      "International ": 6209,
      "War": 6210,
      "urg": 6211,
      "ones ": 6212,
      "mind ": 6213,
      "article ": 6214,
      "content": 6215,
      "eph": 6216,
      "price ": 6217,
      "ed\n": 6218,
      "pen": 6219,
      "s/": 6220,
      "due to ": 6221,
      "ows ": 6222,
      "igr": 6223,
      "drive ": 6224,
      "occur": 6225,
      "contract": 6226,
      "client": 6227,
      "ount of ": 6228,
      "e that the ": 6229,
      "stra": 6230,
      "Read": 6231,
      "Russ": 6232,
      "an and ": 6233,
      "ER ": 6234,
      "see the ": 6235,
      "area": 6236,
      "oud ": 6237,
      "ore": 6238,
      "8-": 6239,
      "later ": 6240,
      "capt": 6241,
      "Californ": 6242,
      "elev": 6243,
      "princ": 6244,
      " thought ": 6245,
      "money": 6246,
      "instead ": 6247,
      "became ": 6248,
      "obt": 6249,
      "ednes": 6250,
      "May": 6251,
      "recip": 6252,
      "higher ": 6253,
      "{\n": 6254,
      "in and ": 6255,
      "’s": 6256,
      "distr": 6257,
      "map": 6258,
      "visit ": 6259,
      "After ": 6260,
      "ing up ": 6261,
      "serve ": 6262,
      "Nam": 6263,
      "questions ": 6264,
      "bey": 6265,
      "January ": 6266,
      "list ": 6267,
      "zz": 6268,
      "one, ": 6269,
      "syn": 6270,
      "where the ": 6271,
      "number ": 6272,
      "plic": 6273,
      "nothing ": 6274,
      "digital ": 6275,
      "ingle ": 6276,
      "Rom": 6277,
      "p.m": 6278,
      "e) ": 6279,
      "exerc": 6280,
      "ais": 6281,
      "schedul": 6282,
      "ester": 6283,
      "ological ": 6284,
      "very": 6285,
      "ed on the ": 6286,
      "Pre": 6287,
      "alu": 6288,
      "milit": 6289,
      "certain ": 6290,
      ",000": 6291,
      "road ": 6292,
      "OR ": 6293,
      "film ": 6294,
      "answer": 6295,
      "itud": 6296,
      "on their ": 6297,
      ", and the ": 6298,
      "promis": 6299,
      "in an ": 6300,
      "Er": 6301,
      "press ": 6302,
      "credit ": 6303,
      "ama ": 6304,
      "ana ": 6305,
      "City ": 6306,
      "wanted to ": 6307,
      "ED": 6308,
      "I've ": 6309,
      "is also ": 6310,
      "AG": 6311,
      "innov": 6312,
      "for their ": 6313,
      "completely ": 6314,
      "of your ": 6315,
      "ation to ": 6316,
      "Febr": 6317,
      "reve": 6318,
      "oph": 6319,
      "brand": 6320,
      "stay": 6321,
      "en and ": 6322,
      "wis": 6323,
      "insp": 6324,
      "Produc": 6325,
      "relationship": 6326,
      "fast ": 6327,
      "epend": 6328,
      "Tues": 6329,
      "y that ": 6330,
      "choic": 6331,
      "soon ": 6332,
      "mo": 6333,
      "sibl": 6334,
      "5.": 6335,
      "susp": 6336,
      ".\nA ": 6337,
      "country ": 6338,
      "office ": 6339,
      "e (": 6340,
      "record ": 6341,
      "e.\n- ": 6342,
      "cut ": 6343,
      "emp": 6344,
      "definit": 6345,
      "ensur": 6346,
      "us to ": 6347,
      "to": 6348,
      "industry ": 6349,
      "you’ll ": 6350,
      "also": 6351,
      "Pet": 6352,
      "Google ": 6353,
      "6, ": 6354,
      "16 ": 6355,
      "altern": 6356,
      "es or ": 6357,
      "easy ": 6358,
      "Do": 6359,
      "West ": 6360,
      " top": 6361,
      "easily ": 6362,
      "increase ": 6363,
      "independ": 6364,
      "o and ": 6365,
      "range of ": 6366,
      "before the ": 6367,
      "staff ": 6368,
      "highly ": 6369,
      "injur": 6370,
      "An ": 6371,
      "echniqu": 6372,
      "relig": 6373,
      "ecaus": 6374,
      "Progr": 6375,
      "Thurs": 6376,
      "Trans": 6377,
      "s. This ": 6378,
      "ai": 6379,
      "off the ": 6380,
      "ely, ": 6381,
      "estim": 6382,
      "across ": 6383,
      "August ": 6384,
      " thos": 6385,
      "'t": 6386,
      "asked ": 6387,
      "I would ": 6388,
      "period": 6389,
      "f the ": 6390,
      "fight": 6391,
      "unn": 6392,
      "feed": 6393,
      "vil": 6394,
      "nut": 6395,
      "40 ": 6396,
      "October ": 6397,
      "year-": 6398,
      "writing ": 6399,
      "edic": 6400,
      ", \"": 6401,
      "economic ": 6402,
      "fortun": 6403,
      ". You can ": 6404,
      "I can ": 6405,
      "centur": 6406,
      "Ann": 6407,
      "County ": 6408,
      "empor": 6409,
      " time to ": 6410,
      "Bro": 6411,
      "mention": 6412,
      " thought": 6413,
      "felt ": 6414,
      "irt": 6415,
      "ed out ": 6416,
      "cloth": 6417,
      ". All ": 6418,
      "answ": 6419,
      "according to ": 6420,
      " takes ": 6421,
      "security ": 6422,
      "mount": 6423,
      "ely to ": 6424,
      "he said": 6425,
      "ue": 6426,
      "ane ": 6427,
      "Park": 6428,
      "sem": 6429,
      "seek": 6430,
      "usiness ": 6431,
      ".\nWe ": 6432,
      "24 ": 6433,
      "(S": 6434,
      "resh ": 6435,
      "institut": 6436,
      "Willi": 6437,
      "use the ": 6438,
      "moment": 6439,
      "ux": 6440,
      "risk": 6441,
      "7, ": 6442,
      "Pow": 6443,
      "student ": 6444,
      "into": 6445,
      "living ": 6446,
      "s; ": 6447,
      "alb": 6448,
      "can't ": 6449,
      "of them ": 6450,
      "demon": 6451,
      "es: ": 6452,
      "upon ": 6453,
      "ient ": 6454,
      "ate, ": 6455,
      "EX": 6456,
      "e time ": 6457,
      "(C": 6458,
      "explor": 6459,
      "ung": 6460,
      " than the ": 6461,
      "Hel": 6462,
      " time, ": 6463,
      "Franc": 6464,
      "His ": 6465,
      "{\n        ": 6466,
      "Tex": 6467,
      "vertis": 6468,
      "not to ": 6469,
      "up and ": 6470,
      "’d ": 6471,
      "14 ": 6472,
      ". To ": 6473,
      "built ": 6474,
      "period ": 6475,
      "respons": 6476,
      "University ": 6477,
      "ership ": 6478,
      "a tr": 6479,
      "Servic": 6480,
      "arant": 6481,
      "Test": 6482,
      "heart": 6483,
      "a cou": 6484,
      "cle ": 6485,
      "band": 6486,
      "as they ": 6487,
      "a small ": 6488,
      "e. It ": 6489,
      "example, ": 6490,
      "iver ": 6491,
      "when I ": 6492,
      "istic ": 6493,
      "s you ": 6494,
      "positive ": 6495,
      "prefer": 6496,
      "Wednes": 6497,
      "e\n- ": 6498,
      "PC": 6499,
      "perfect": 6500,
      "sure": 6501,
      "insid": 6502,
      "surpris": 6503,
      "Flor": 6504,
      "45": 6505,
      "Cam": 6506,
      "buy": 6507,
      "e te": 6508,
      "18 ": 6509,
      "Govern": 6510,
      "against the ": 6511,
      "in S": 6512,
      "bad ": 6513,
      "works ": 6514,
      "er\n": 6515,
      "erry ": 6516,
      "ations. ": 6517,
      "understand ": 6518,
      "variety of ": 6519,
      "standard ": 6520,
      "iff": 6521,
      "liter": 6522,
      " told ": 6523,
      "see": 6524,
      "ied ": 6525,
      "spok": 6526,
      "Af": 6527,
      "non": 6528,
      "offe": 6529,
      "previous ": 6530,
      "establish": 6531,
      "certainly ": 6532,
      "doesn't ": 6533,
      "++": 6534,
      "TV ": 6535,
      "E_": 6536,
      "it the ": 6537,
      "ation for ": 6538,
      "cover ": 6539,
      "Jes": 6540,
      "reci": 6541,
      "atory ": 6542,
      "woman ": 6543,
      "ines ": 6544,
      "al and ": 6545,
      " today ": 6546,
      "quickly ": 6547,
      "opin": 6548,
      "ing from ": 6549,
      "fire": 6550,
      "in L": 6551,
      "stain": 6552,
      "asc": 6553,
      "ode ": 6554,
      "Her": 6555,
      "While ": 6556,
      "y's ": 6557,
      "month ": 6558,
      "software ": 6559,
      "Republ": 6560,
      "Ric": 6561,
      "{\n    ": 6562,
      "hair ": 6563,
      "easy to ": 6564,
      "impress": 6565,
      "19 ": 6566,
      "frequ": 6567,
      "lost ": 6568,
      "ure of ": 6569,
      "e them ": 6570,
      "hur": 6571,
      "s will ": 6572,
      "e said": 6573,
      "ories ": 6574,
      "daugh": 6575,
      "amount of ": 6576,
      "= 0": 6577,
      "wish": 6578,
      "ions, ": 6579,
      "Ke": 6580,
      "-to-": 6581,
      "ection of ": 6582,
      "ist of ": 6583,
      "quot": 6584,
      "card ": 6585,
      "Offic": 6586,
      "regular ": 6587,
      "batt": 6588,
      "outsid": 6589,
      "Isra": 6590,
      "ing them ": 6591,
      " the\n": 6592,
      " thing ": 6593,
      "me to ": 6594,
      "required": 6595,
      "partner": 6596,
      "ing an ": 6597,
      "s that are ": 6598,
      " to your ": 6599,
      "not the ": 6600,
      "advis": 6601,
      "13 ": 6602,
      "huge ": 6603,
      " to get ": 6604,
      "customer ": 6605,
      "erous ": 6606,
      " tre": 6607,
      "fore": 6608,
      "doll": 6609,
      "ess of ": 6610,
      " times ": 6611,
      "ere’s ": 6612,
      "ations and ": 6613,
      "physical ": 6614,
      "categ": 6615,
      "9, ": 6616,
      "ence of ": 6617,
      "enjoy ": 6618,
      "gets ": 6619,
      "38": 6620,
      "Cap": 6621,
      " too": 6622,
      "e them": 6623,
      "fall ": 6624,
      "corpor": 6625,
      "box ": 6626,
      "That ": 6627,
      "property ": 6628,
      "example.": 6629,
      "related ": 6630,
      "song": 6631,
      "reason ": 6632,
      "eat ": 6633,
      "character": 6634,
      "begin": 6635,
      "engine": 6636,
      "hit ": 6637,
      "ield": 6638,
      "write ": 6639,
      ", there ": 6640,
      "near ": 6641,
      "make the ": 6642,
      "learning ": 6643,
      "Met": 6644,
      "leading ": 6645,
      "e! ": 6646,
      "pred": 6647,
      "dib": 6648,
      "ential": 6649,
      "th, ": 6650,
      "heart ": 6651,
      "well-": 6652,
      "s as ": 6653,
      "7-": 6654,
      "Spec": 6655,
      "November ": 6656,
      "Day ": 6657,
      "ation in ": 6658,
      "goal ": 6659,
      "environment": 6660,
      "echan": 6661,
      "production ": 6662,
      "mal": 6663,
      "David ": 6664,
      "dy": 6665,
      "saw ": 6666,
      "hair": 6667,
      "Sci": 6668,
      "implement": 6669,
      "Bel": 6670,
      "attend": 6671,
      "strug": 6672,
      "Please ": 6673,
      "worth ": 6674,
      "expos": 6675,
      " their": 6676,
      "estiv": 6677,
      " though ": 6678,
      "scient": 6679,
      "gard": 6680,
      "achiev": 6681,
      "Phil": 6682,
      "ll": 6683,
      "lip": 6684,
      " those who ": 6685,
      "accur": 6686,
      "major": 6687,
      "years, ": 6688,
      "longer ": 6689,
      "hot ": 6690,
      "er of the ": 6691,
      "Siz": 6692,
      "nearly ": 6693,
      "ions of ": 6694,
      "modern ": 6695,
      "contain": 6696,
      "favorite ": 6697,
      "Id": 6698,
      "proced": 6699,
      "door": 6700,
      "@example.": 6701,
      "question ": 6702,
      "until": 6703,
      " travel": 6704,
      "ild ": 6705,
      "daily ": 6706,
      "continue to ": 6707,
      "er (": 6708,
      "crimin": 6709,
      "two ": 6710,
      "ody ": 6711,
      "virt": 6712,
      "hus": 6713,
      "brand ": 6714,
      "co-": 6715,
      "ing it ": 6716,
      "a p": 6717,
      "From": 6718,
      "evalu": 6719,
      "not only ": 6720,
      "gives ": 6721,
      "intell": 6722,
      "ed: ": 6723,
      " taken ": 6724,
      ". However, ": 6725,
      "ode": 6726,
      "\nM": 6727,
      "yet": 6728,
      "approv": 6729,
      "ed this ": 6730,
      "mass": 6731,
      "Port": 6732,
      "aud": 6733,
      "veg": 6734,
      "ptr": 6735,
      "prev": 6736,
      "OS": 6737,
      "hab": 6738,
      "Li": 6739,
      "zon": 6740,
      "model ": 6741,
      "might be ": 6742,
      ". This is ": 6743,
      "behind ": 6744,
      "ation.\n": 6745,
      "account ": 6746,
      "isc": 6747,
      "born ": 6748,
      "using the ": 6749,
      "judg": 6750,
      "wrot": 6751,
      ". Our ": 6752,
      "single ": 6753,
      "a B": 6754,
      "OU": 6755,
      " tell ": 6756,
      "click ": 6757,
      "Mac": 6758,
      ". In the ": 6759,
      "review ": 6760,
      "December ": 6761,
      " top ": 6762,
      "absolut": 6763,
      "compon": 6764,
      "ine, ": 6765,
      " this is ": 6766,
      "Why ": 6767,
      "finally ": 6768,
      "So ": 6769,
      "left": 6770,
      "months ": 6771,
      "issue ": 6772,
      "First ": 6773,
      "Eng": 6774,
      "likely ": 6775,
      "rob": 6776,
      "dating ": 6777,
      "chool": 6778,
      "rom": 6779,
      "Counc": 6780,
      "ench ": 6781,
      ", with ": 6782,
      "whose ": 6783,
      ", D": 6784,
      "pair ": 6785,
      "news ": 6786,
      "end of ": 6787,
      "perhap": 6788,
      "societ": 6789,
      "IR": 6790,
      "damag": 6791,
      "hund": 6792,
      "ability": 6793,
      "patients ": 6794,
      "Cal": 6795,
      "ess and ": 6796,
      " them to ": 6797,
      "Conn": 6798,
      "allows ": 6799,
      "associated ": 6800,
      "re-": 6801,
      " try to ": 6802,
      "Is ": 6803,
      "Christm": 6804,
      "percent": 6805,
      "idenc": 6806,
      "optim": 6807,
      ", in ": 6808,
      "string": 6809,
      "e two ": 6810,
      "39": 6811,
      "personal": 6812,
      "yourself ": 6813,
      "Gam": 6814,
      "Health ": 6815,
      "thing": 6816,
      "stop": 6817,
      "ju": 6818,
      "Chur": 6819,
      "es were ": 6820,
      "playing ": 6821,
      "prior": 6822,
      "as it ": 6823,
      "material ": 6824,
      "Ret": 6825,
      "paid ": 6826,
      "Stud": 6827,
      "multiple ": 6828,
      "reserv": 6829,
      ". My ": 6830,
      "sometimes ": 6831,
      "21 ": 6832,
      "end of the ": 6833,
      "ision ": 6834,
      "blood ": 6835,
      "insurance ": 6836,
      "ocol": 6837,
      "me, ": 6838,
      "es, the ": 6839,
      "store ": 6840,
      ", T": 6841,
      "dang": 6842,
      "I had ": 6843,
      "contact": 6844,
      "ple of ": 6845,
      "Bre": 6846,
      "possible": 6847,
      "particularly ": 6848,
      "mp": 6849,
      "a th": 6850,
      ". What ": 6851,
      "it.\n": 6852,
      "launch": 6853,
      "United Stat": 6854,
      "crow": 6855,
      "gett": 6856,
      "sound ": 6857,
      "lead ": 6858,
      "consult": 6859,
      "ange ": 6860,
      "SP": 6861,
      "param": 6862,
      "close ": 6863,
      "isn’t ": 6864,
      "neg": 6865,
      "elling ": 6866,
      "police ": 6867,
      "assess": 6868,
      "candid": 6869,
      "Institut": 6870,
      "ology ": 6871,
      "ocrat": 6872,
      "ff ": 6873,
      "satis": 6874,
      "photo": 6875,
      "when it ": 6876,
      "hael ": 6877,
      "death ": 6878,
      "Revi": 6879,
      "divers": 6880,
      "strength": 6881,
      "ly the ": 6882,
      "players ": 6883,
      "English ": 6884,
      "suff": 6885,
      "e. We ": 6886,
      "clear ": 6887,
      "mm": 6888,
      "benefit": 6889,
      "Best ": 6890,
      "34": 6891,
      "uses ": 6892,
      ">(": 6893,
      "arily ": 6894,
      "wast": 6895,
      "opt": 6896,
      "Phot": 6897,
      "people who ": 6898,
      "journ": 6899,
      "IV": 6900,
      "ed an ": 6901,
      "196": 6902,
      "excit": 6903,
      "s_": 6904,
      "Educ": 6905,
      "source ": 6906,
      "chann": 6907,
      "ment and ": 6908,
      "Sub": 6909,
      "omb": 6910,
      "reach ": 6911,
      "ument ": 6912,
      "pull": 6913,
      "High ": 6914,
      "ing or ": 6915,
      "customers ": 6916,
      "\n\n": 6917,
      "search": 6918,
      "er's ": 6919,
      "omin": 6920,
      "mit": 6921,
      "drink": 6922,
      "heard ": 6923,
      "holid": 6924,
      "network ": 6925,
      ". It was ": 6926,
      "phas": 6927,
      "____": 6928,
      "have th": 6929,
      "controll": 6930,
      "hour ": 6931,
      "vest": 6932,
      "Now": 6933,
      "half": 6934,
      "met ": 6935,
      "mit ": 6936,
      "pm": 6937,
      "intend": 6938,
      "come to ": 6939,
      "fem": 6940,
      "a (": 6941,
      "a's ": 6942,
      "PM": 6943,
      "vic": 6944,
      "aught ": 6945,
      "Free ": 6946,
      "Sam": 6947,
      "mobile ": 6948,
      "States ": 6949,
      "ing about ": 6950,
      "send ": 6951,
      "relationship ": 6952,
      "definitely ": 6953,
      "ed it ": 6954,
      "s? ": 6955,
      "make a ": 6956,
      "force ": 6957,
      "giving ": 6958,
      "advertis": 6959,
      "olar": 6960,
      "restr": 6961,
      "ford ": 6962,
      "government": 6963,
      "e; ": 6964,
      "th and ": 6965,
      "young": 6966,
      "shot": 6967,
      ".com/": 6968,
      "bul": 6969,
      "-based ": 6970,
      "Wal": 6971,
      "stream": 6972,
      "styl": 6973,
      ", N": 6974,
      "ellow ": 6975,
      "dedic": 6976,
      "fo": 6977,
      "6.": 6978,
      "nar": 6979,
      "possibl": 6980,
      "required ": 6981,
      "s' ": 6982,
      "Found": 6983,
      "al t": 6984,
      "rock": 6985,
      "February ": 6986,
      "_ ": 6987,
      "blog ": 6988,
      "CA": 6989,
      "however, ": 6990,
      "photograph": 6991,
      "Rem": 6992,
      "available": 6993,
      "Just ": 6994,
      "ends ": 6995,
      "s. I ": 6996,
      "choose ": 6997,
      "’s the ": 6998,
      "fru": 6999,
      "rain": 7000,
      "esh": 7001,
      "At ": 7002,
      "appreci": 7003,
      "member ": 7004,
      "ed that the ": 7005,
      "MA": 7006,
      "requirement": 7007,
      "on to ": 7008,
      "ed, and ": 7009,
      "Great ": 7010,
      "excellent ": 7011,
      "istic": 7012,
      "Over": 7013,
      "ender ": 7014,
      "listen": 7015,
      "Fe": 7016,
      "all, ": 7017,
      "largest ": 7018,
      "network": 7019,
      "\nL": 7020,
      "MP": 7021,
      "Play": 7022,
      "responsible ": 7023,
      "Develop": 7024,
      "what you ": 7025,
      "CL": 7026,
      "iment": 7027,
      "initi": 7028,
      "impact ": 7029,
      "with their ": 7030,
      "screen": 7031,
      "lower ": 7032,
      "Ol": 7033,
      "European ": 7034,
      "fair": 7035,
      "occas": 7036,
      " training ": 7037,
      "of our ": 7038,
      "ure to ": 7039,
      "goes ": 7040,
      " to their ": 7041,
      "obvi": 7042,
      "observ": 7043,
      "enabl": 7044,
      "fam": 7045,
      "bit ": 7046,
      " track": 7047,
      "mean ": 7048,
      "bring": 7049,
      "“The ": 7050,
      "ive, ": 7051,
      "ird": 7052,
      "file ": 7053,
      "ate and ": 7054,
      "name": 7055,
      "in 200": 7056,
      "messag": 7057,
      "sect": 7058,
      "platform": 7059,
      "Ros": 7060,
      "shot ": 7061,
      "Read ": 7062,
      "String": 7063,
      "community": 7064,
      "performanc": 7065,
      "consider ": 7066,
      "ING": 7067,
      ". And": 7068,
      "make it ": 7069,
      "Av": 7070,
      " to this ": 7071,
      "swit": 7072,
      "official": 7073,
      "ences ": 7074,
      "pair": 7075,
      "kitch": 7076,
      "ich ": 7077,
      "he is ": 7078,
      "a bit ": 7079,
      "ure and ": 7080,
      "behind": 7081,
      "morn": 7082,
      ". After ": 7083,
      "one-": 7084,
      "likely to ": 7085,
      "September ": 7086,
      "fu": 7087,
      "annual ": 7088,
      "events ": 7089,
      "display": 7090,
      "enough to ": 7091,
      "bad": 7092,
      "lad": 7093,
      "s(": 7094,
      "false": 7095,
      "elop ": 7096,
      "ed or ": 7097,
      "opportunity to ": 7098,
      "75": 7099,
      "a S": 7100,
      "standard": 7101,
      "7.": 7102,
      "spent ": 7103,
      "ING ": 7104,
      "; and ": 7105,
      "vill": 7106,
      " technolog": 7107,
      "Ref": 7108,
      "civ": 7109,
      "of that ": 7110,
      "for you": 7111,
      "of his ": 7112,
      "Att": 7113,
      "Brow": 7114,
      "of those ": 7115,
      "le-": 7116,
      "user ": 7117,
      "oppos": 7118,
      "effect ": 7119,
      "Black ": 7120,
      "unk": 7121,
      "OF ": 7122,
      "bool ": 7123,
      "individual": 7124,
      ");\n}\n\n": 7125,
      "cause ": 7126,
      "industri": 7127,
      "relev": 7128,
      "along with ": 7129,
      "full": 7130,
      "a M": 7131,
      "directly ": 7132,
      "watch ": 7133,
      "rev": 7134,
      "ague ": 7135,
      "a is ": 7136,
      "term ": 7137,
      "maybe ": 7138,
      "brought ": 7139,
      "down the ": 7140,
      "volunt": 7141,
      "struction": 7142,
      "broad": 7143,
      "so that ": 7144,
      "in M": 7145,
      "aster": 7146,
      "ume ": 7147,
      "it will ": 7148,
      "auto ": 7149,
      "ham": 7150,
      "ray": 7151,
      "years of ": 7152,
      "official ": 7153,
      "cool": 7154,
      ", P": 7155,
      "s by ": 7156,
      "ed in": 7157,
      "s for the ": 7158,
      ");\n\n    ": 7159,
      "death": 7160,
      "pon": 7161,
      "Oh": 7162,
      "resist": 7163,
      "exactly ": 7164,
      "itle ": 7165,
      "libr": 7166,
      "jour": 7167,
      "a sec": 7168,
      "boo": 7169,
      "means": 7170,
      " that's ": 7171,
      "growing ": 7172,
      ". With ": 7173,
      "ength ": 7174,
      "bol": 7175,
      "pick ": 7176,
      ", H": 7177,
      ",0x": 7178,
      "ack of ": 7179,
      "require ": 7180,
      "deep ": 7181,
      "below ": 7182,
      "OO": 7183,
      "e?\n": 7184,
      "do you ": 7185,
      "commercial ": 7186,
      "he’s ": 7187,
      "prevent": 7188,
      "standing ": 7189,
      "so the ": 7190,
      "e/": 7191,
      "ities, ": 7192,
      "she was ": 7193,
      "slow": 7194,
      "cast ": 7195,
      "growth ": 7196,
      "sha": 7197,
      "maxim": 7198,
      "average ": 7199,
      "recover": 7200,
      "are th": 7201,
      "Ver": 7202,
      "began ": 7203,
      "and a ": 7204,
      "ronic ": 7205,
      "rather than ": 7206,
      "48": 7207,
      "500 ": 7208,
      "hear ": 7209,
      "are not ": 7210,
      "guarant": 7211,
      "Jer": 7212,
      "Inform": 7213,
      "ewor": 7214,
      "fit ": 7215,
      "yourself": 7216,
      "extra ": 7217,
      "etic ": 7218,
      "ification ": 7219,
      "like a ": 7220,
      "ene": 7221,
      "49": 7222,
      "games ": 7223,
      "Get ": 7224,
      "paper ": 7225,
      "reas": 7226,
      "what the ": 7227,
      "pret": 7228,
      "yr": 7229,
      "a single ": 7230,
      "ed at the ": 7231,
      "psych": 7232,
      "human": 7233,
      "ousand": 7234,
      "so much ": 7235,
      "award": 7236,
      "ender": 7237,
      "wedd": 7238,
      "Aut": 7239,
      "Profess": 7240,
      "friend ": 7241,
      "suffer": 7242,
      "echnical ": 7243,
      "Tod": 7244,
      "fab": 7245,
      "mou": 7246,
      "infect": 7247,
      "decad": 7248,
      "Jew": 7249,
      "ed their ": 7250,
      "solution": 7251,
      "hood ": 7252,
      "grap": 7253,
      "itting ": 7254,
      "scal": 7255,
      "s. We ": 7256,
      ". It's ": 7257,
      "court": 7258,
      "repe": 7259,
      "size ": 7260,
      "1) ": 7261,
      "San ": 7262,
      ")\n        ": 7263,
      "download ": 7264,
      "features ": 7265,
      "direct ": 7266,
      "22 ": 7267,
      "looking for ": 7268,
      "cer": 7269,
      "as, ": 7270,
      "Hist": 7271,
      "spot": 7272,
      "Cong": 7273,
      "bus": 7274,
      "el, ": 7275,
      "staff": 7276,
      "weight": 7277,
      "capac": 7278,
      "women": 7279,
      "scap": 7280,
      "overall ": 7281,
      "Spr": 7282,
      "rank": 7283,
      "extremely ": 7284,
      "providing ": 7285,
      "17 ": 7286,
      " there’s ": 7287,
      "court ": 7288,
      "federal ": 7289,
      "pre-": 7290,
      "entert": 7291,
      "manufactur": 7292,
      "bri": 7293,
      "ary, ": 7294,
      "patient": 7295,
      "products ": 7296,
      "fun ": 7297,
      "round ": 7298,
      "knew ": 7299,
      "ization ": 7300,
      "a large ": 7301,
      "ed into ": 7302,
      ". Y": 7303,
      "fit": 7304,
      "ai ": 7305,
      "won’t ": 7306,
      "existing ": 7307,
      "PD": 7308,
      "earn ": 7309,
      "ators ": 7310,
      "minutes ": 7311,
      "computer ": 7312,
      "prem": 7313,
      "all of the ": 7314,
      "British ": 7315,
      "wait": 7316,
      "activities ": 7317,
      "ium": 7318,
      "vac": 7319,
      "Cop": 7320,
      "Peo": 7321,
      "able and ": 7322,
      "in B": 7323,
      "though ": 7324,
      "if they ": 7325,
      "ault": 7326,
      "double ": 7327,
      "Det": 7328,
      "exhib": 7329,
      "OP": 7330,
      "reveal": 7331,
      "shipp": 7332,
      "marketing ": 7333,
      "Day": 7334,
      "ideas ": 7335,
      "develop ": 7336,
      "shop ": 7337,
      "uals ": 7338,
      "atic ": 7339,
      "shad": 7340,
      "explain": 7341,
      "fash": 7342,
      "General ": 7343,
      "adjust": 7344,
      "worth": 7345,
      "33": 7346,
      "IS ": 7347,
      "Now ": 7348,
      "s, which ": 7349,
      "we will ": 7350,
      "ror": 7351,
      ") {\n        ": 7352,
      "received ": 7353,
      "Data": 7354,
      "Research ": 7355,
      "These ": 7356,
      "basic ": 7357,
      ". His ": 7358,
      "in order to ": 7359,
      "Set": 7360,
      "van": 7361,
      "burn": 7362,
      "one. ": 7363,
      ", but": 7364,
      "and/": 7365,
      "issues ": 7366,
      "Key": 7367,
      "grand": 7368,
      " time. ": 7369,
      "nice ": 7370,
      "Florid": 7371,
      "Down": 7372,
      "hours ": 7373,
      "top": 7374,
      "year-old ": 7375,
      "ystem ": 7376,
      "ke ": 7377,
      "s. It ": 7378,
      "green ": 7379,
      "gn": 7380,
      "walk ": 7381,
      "Air": 7382,
      "exic": 7383,
      "venu": 7384,
      "domin": 7385,
      "collabor": 7386,
      "ams ": 7387,
      "outside ": 7388,
      "a C": 7389,
      "Twit": 7390,
      "whit": 7391,
      "onc": 7392,
      "we were ": 7393,
      "at's ": 7394,
      "ster ": 7395,
      "has the ": 7396,
      "e to be ": 7397,
      "automat": 7398,
      "we’re ": 7399,
      "added ": 7400,
      "bag": 7401,
      "bound": 7402,
      "sent ": 7403,
      "with this ": 7404,
      "ament": 7405,
      "Go": 7406,
      "65": 7407,
      "future": 7408,
      "appe": 7409,
      "invent": 7410,
      "Hand": 7411,
      "bow": 7412,
      ", 0x": 7413,
      "e!\n": 7414,
      "Class": 7415,
      "seven ": 7416,
      "cris": 7417,
      "agenc": 7418,
      "ated by ": 7419,
      "Hom": 7420,
      "reading ": 7421,
      "matter": 7422,
      "mir": 7423,
      "mechan": 7424,
      "color ": 7425,
      "whe": 7426,
      "United States ": 7427,
      ".C": 7428,
      "on my ": 7429,
      "div": 7430,
      "year, ": 7431,
      "conven": 7432,
      "Japan": 7433,
      "#include \"": 7434,
      "Wom": 7435,
      "mail": 7436,
      " together": 7437,
      "access to ": 7438,
      "surg": 7439,
      "stopp": 7440,
      "underst": 7441,
      "is t": 7442,
      "dead": 7443,
      "ampion": 7444,
      "erve ": 7445,
      "ing: ": 7446,
      "users ": 7447,
      "Just": 7448,
      "academ": 7449,
      "movie ": 7450,
      "serious ": 7451,
      "realiz": 7452,
      "ing at ": 7453,
      "subsc": 7454,
      "udd": 7455,
      "fer ": 7456,
      "haven": 7457,
      "White ": 7458,
      "Republic": 7459,
      "AND ": 7460,
      "parents ": 7461,
      "ies to ": 7462,
      "ouch ": 7463,
      "preh": 7464,
      "also be ": 7465,
      "stock": 7466,
      "” and ": 7467,
      "Ital": 7468,
      "a big ": 7469,
      "East ": 7470,
      "surround": 7471,
      "career ": 7472,
      "Sw": 7473,
      "policy ": 7474,
      "ently": 7475,
      "Angel": 7476,
      "afford": 7477,
      "ually": 7478,
      " try ": 7479,
      "}\n    ": 7480,
      "itor ": 7481,
      "Mag": 7482,
      "ality ": 7483,
      "plus ": 7484,
      "epis": 7485,
      "Mil": 7486,
      "ations of ": 7487,
      "desp": 7488,
      "section ": 7489,
      "feature ": 7490,
      "Europ": 7491,
      "J ": 7492,
      "Facebook ": 7493,
      "8.": 7494,
      "analysis ": 7495,
      "when they ": 7496,
      ":00 ": 7497,
      "warm": 7498,
      "or a ": 7499,
      "spend ": 7500,
      "enhanc": 7501,
      "sell ": 7502,
      "IT ": 7503,
      "healthy ": 7504,
      "ription": 7505,
      "option ": 7506,
      "encourag": 7507,
      "happy ": 7508,
      "System": 7509,
      "military ": 7510,
      "List": 7511,
      "music": 7512,
      "neighbor": 7513,
      "itself ": 7514,
      "legis": 7515,
      "MS": 7516,
      "ics, ": 7517,
      "'s": 7518,
      "Business ": 7519,
      "burg": 7520,
      "Park ": 7521,
      "onn": 7522,
      "amazing ": 7523,
      "Coll": 7524,
      "ready to ": 7525,
      "fresh": 7526,
      "citiz": 7527,
      ". There are ": 7528,
      "ing his ": 7529,
      "coffe": 7530,
      "commod": 7531,
      "clim": 7532,
      "get to ": 7533,
      "this ": 7534,
      "although ": 7535,
      "Thom": 7536,
      "assign": 7537,
      "image ": 7538,
      "oth ": 7539,
      "a long": 7540,
      "->get": 7541,
      "anti-": 7542,
      "inch": 7543,
      "ately": 7544,
      "war ": 7545,
      "course, ": 7546,
      "oubl": 7547,
      "itect": 7548,
      "was not ": 7549,
      "60 ": 7550,
      "'d ": 7551,
      "education ": 7552,
      "interview": 7553,
      "president ": 7554,
      "would have ": 7555,
      "\n\t": 7556,
      "pal": 7557,
      "Chic": 7558,
      "focus": 7559,
      "cu": 7560,
      "age. ": 7561,
      "ed in a ": 7562,
      "plent": 7563,
      "http://www.": 7564,
      "and I ": 7565,
      "elin": 7566,
      "host ": 7567,
      ".com ": 7568,
      "ription ": 7569,
      "farm": 7570,
      "lar": 7571,
      "exclus": 7572,
      "biggest ": 7573,
      "Lo": 7574,
      "inner ": 7575,
      "Gen": 7576,
      "centr": 7577,
      "es to the ": 7578,
      "al of ": 7579,
      "Check ": 7580,
      "remain ": 7581,
      "flav": 7582,
      "Vol": 7583,
      "you may ": 7584,
      "decision": 7585,
      "front": 7586,
      "fort ": 7587,
      "ance and ": 7588,
      "remain": 7589,
      "High": 7590,
      "element": 7591,
      "e of a ": 7592,
      "e::": 7593,
      "Arch": 7594,
      "s:\n": 7595,
      "55": 7596,
      "reflect": 7597,
      "primary ": 7598,
      "long-": 7599,
      "Accord": 7600,
      "ed her ": 7601,
      "ploy": 7602,
      "This is ": 7603,
      ";\r\n": 7604,
      "idential ": 7605,
      ", R": 7606,
      "demand": 7607,
      "amin": 7608,
      "Leg": 7609,
      "spirit": 7610,
      "middle ": 7611,
      "quick ": 7612,
      "Jos": 7613,
      "ors, ": 7614,
      "fresh ": 7615,
      "for an ": 7616,
      "House ": 7617,
      "age and ": 7618,
      "application ": 7619,
      "practice ": 7620,
      "actual ": 7621,
      "in that ": 7622,
      " that, ": 7623,
      "the": 7624,
      "Vir": 7625,
      "Scot": 7626,
      ". . ": 7627,
      "========": 7628,
      "ify": 7629,
      "stick": 7630,
      "incredib": 7631,
      " term": 7632,
      "rig": 7633,
      "zer": 7634,
      "similar": 7635,
      ". Some ": 7636,
      "ed by a ": 7637,
      "any other ": 7638,
      "what is ": 7639,
      "Click ": 7640,
      "lear ": 7641,
      "necessary ": 7642,
      "highest ": 7643,
      "decided to ": 7644,
      "aken ": 7645,
      "Committ": 7646,
      "ed_": 7647,
      "yright ": 7648,
      "purchase ": 7649,
      "Sha": 7650,
      "ief": 7651,
      "atures": 7652,
      "ET": 7653,
      "et and ": 7654,
      "James ": 7655,
      ".\nW": 7656,
      "development": 7657,
      "I think": 7658,
      "normal ": 7659,
      "y: ": 7660,
      "SU": 7661,
      "sign ": 7662,
      "significant ": 7663,
      "oon ": 7664,
      "eal": 7665,
      ". Un": 7666,
      "9-": 7667,
      "grat": 7668,
      "ed of ": 7669,
      "ent and ": 7670,
      "release ": 7671,
[...]
