{
  "version": "1.0",
  "truncation": null,
  "padding": null,
  "added_tokens": [
    {
      "id": 0,
      "content": "<unk>",
      "single_word": false,
      "lstrip": false,
      "rstrip": false,
      "normalized": false,
      "special": true
    },
    {
      "id": 1,
      "content": "<s>",
      "single_word": false,
      "lstrip": false,
      "rstrip": false,
      "normalized": false,
      "special": true
    },
    {
      "id": 2,
      "content": "</s>",
      "single_word": false,
      "lstrip": false,
      "rstrip": false,
      "normalized": false,
      "special": true
    },
    {
      "id": 3,
      "content": "<pad>",
      "single_word": false,
      "lstrip": false,
      "rstrip": false,
      "normalized": false,
      "special": true
    },
    {
      "id": 4,
      "content": "<mask>",
      "single_word": false,
      "lstrip": false,
      "rstrip": false,
      "normalized": false,
      "special": true
    },
    {
      "id": 5,
      "content": "<|fim_prefix|>",
      "single_word": false,
      "lstrip": false,
      "rstrip": false,
      "normalized": false,
      "special": true
    },
    {
      "id": 6,
      "content": "<|fim_middle|>",
      "single_word": false,
      "lstrip": false,
      "rstrip": false,
      "normalized": false,
      "special": true
    },
    {
      "id": 7,
      "content": "<|fim_suffix|>",
      "single_word": false,
      "lstrip": false,
      "rstrip": false,
      "normalized": false,
      "special": true
    },
    {
      "id": 8,
      "content": "<|fim_pad|>",
      "single_word": false,
      "lstrip": false,
      "rstrip": false,
      "normalized": false,
      "special": true
    },
    {
      "id": 9,
      "content": "<|file_separator|>",
      "single_word": false,
      "lstrip": false,
      "rstrip": false,
      "normalized": false,
      "special": true
    },
    {
      "id": 10,
      "content": "<0x00>",
      "single_word": false,
      "lstrip": false,
      "rstrip": false,
      "normalized": false,
      "special": true
    },
    {
      "id": 11,
      "content": "<0x01>",
      "single_word": false,
      "lstrip": false,
      "rstrip": false,
      "normalized": false,
      "special": true
    },
    {
      "id": 12,
      "content": "<0x02>",
      "single_word": false,
      "lstrip": false,
      "rstrip": false,
      "normalized": false,
      "special": true
    },
    {
      "id": 13,
      "content": "<0x03>",
      "single_word": false,
      "lstrip": false,
      "rstrip": false,
      "normalized": false,
      "special": true
    },
    {
      "id": 14,
      "content": "<0x04>",
      "single_word": false,
      "lstrip": false,
      "rstrip": false,
      "normalized": false,
      "special": true
    },
    {
      "id": 15,
      "content": "<0x05>",
      "single_word": false,
      "lstrip": false,
      "rstrip": false,
      "normalized": false,
      "special": true
    },
    {
      "id": 16,
      "content": "<0x06>",
      "single_word": false,
      "lstrip": false,
      "rstrip": false,
      "normalized": false,
      "special": true
    },
    {
      "id": 17,
      "content": "<0x07>",
      "single_word": false,
      "lstrip": false,
      "rstrip": false,
      "normalized": false,
      "special": true
    },
    {
      "id": 18,
      "content": "<0x08>",
      "single_word": false,
      "lstrip": false,
      "rstrip": false,
      "normalized": false,
      "special": true
    },
    {
      "id": 19,
      "content": "<0x09>",
      "single_word": false,
      "lstrip": false,
      "rstrip": false,
      "normalized": false,
      "special": true
    },
    {
      "id": 20,
      "content": "<0x0A>",
      "single_word": false,
      "lstrip": false,
      "rstrip": false,
      "normalized": false,
      "special": true
    },
    {
      "id": 21,
      "content": "<0x0B>",
      "single_word": false,
      "lstrip": false,
      "rstrip": false,
      "normalized": false,
      "special": true
    },
    {
      "id": 22,
      "content": "<0x0C>",
      "single_word": false,
      "lstrip": false,
      "rstrip": false,
      "normalized": false,
      "special": true
    },
    {
      "id": 23,
      "content": "<0x0D>",
      "single_word": false,
      "lstrip": false,
      "rstrip": false,
      "normalized": false,
      "special": true
    },
    {
      "id": 24,
      "content": "<0x0E>",
      "single_word": false,
      "lstrip": false,
      "rstrip": false,
      "normalized": false,
      "special": true
    },
    {
      "id": 25,
      "content": "<0x0F>",
      "single_word": false,
      "lstrip": false,
      "rstrip": false,
      "normalized": false,
      "special": true
    },
    {
      "id": 26,
      "content": "<0x10>",
      "single_word": false,
      "lstrip": false,
      "rstrip": false,
      "normalized": false,
      "special": true
    },
    {
      "id": 27,
      "content": "<0x11>",
      "single_word": false,
      "lstrip": false,
      "rstrip": false,
      "normalized": false,
      "special": true
    },
    {
      "id": 28,
      "content": "<0x12>",
      "single_word": false,
      "lstrip": false,
      "rstrip": false,
      "normalized": false,
      "special": true
    },
    {
      "id": 29,
      "content": "<0x13>",
      "single_word": false,
      "lstrip": false,
      "rstrip": false,
      "normalized": false,
      "special": true
    },
    {
      "id": 30,
      "content": "<0x14>",
      "single_word": false,
      "lstrip": false,
      "rstrip": false,
      "normalized": false,
      "special": true
    },
    {
      "id": 31,
      "content": "<0x15>",
      "single_word": false,
      "lstrip": false,
      "rstrip": false,
      "normalized": false,
      "special": true
    },
    {
      "id": 32,
      "content": "<0x16>",
      "single_word": false,
      "lstrip": false,
      "rstrip": false,
      "normalized": false,
      "special": true
    },
    {
      "id": 33,
      "content": "<0x17>",
      "single_word": false,
      "lstrip": false,
      "rstrip": false,
      "normalized": false,
      "special": true
    },
    {
      "id": 34,
      "content": "<0x18>",
      "single_word": false,
      "lstrip": false,
      "rstrip": false,
      "normalized": false,
      "special": true
    },
    {
      "id": 35,
      "content": "<0x19>",
      "single_word": false,
      "lstrip": false,
      "rstrip": false,
      "normalized": false,
      "special": true
    },
    {
      "id": 36,
      "content": "<0x1A>",
      "single_word": false,
      "lstrip": false,
      "rstrip": false,
      "normalized": false,
      "special": true
    },
    {
      "id": 37,
      "content": "<0x1B>",
      "single_word": false,
      "lstrip": false,
      "rstrip": false,
      "normalized": false,
      "special": true
    },
    {
      "id": 38,
      "content": "<0x1C>",
      "single_word": false,
      "lstrip": false,
      "rstrip": false,
      "normalized": false,
      "special": true
    },
    {
      "id": 39,
      "content": "<0x1D>",
      "single_word": false,
      "lstrip": false,
      "rstrip": false,
      "normalized": false,
      "special": true
    },
    {
      "id": 40,
      "content": "<0x1E>",
      "single_word": false,
      "lstrip": false,
      "rstrip": false,
      "normalized": false,
      "special": true
    },
    {
      "id": 41,
      "content": "<0x1F>",
      "single_word": false,
      "lstrip": false,
      "rstrip": false,
      "normalized": false,
      "special": true
    },
    {
      "id": 42,
      "content": "<0x20>",
      "single_word": false,
      "lstrip": false,
      "rstrip": false,
      "normalized": false,
      "special": true
    },
    {
      "id": 43,
      "content": "<0x21>",
      "single_word": false,
      "lstrip": false,
      "rstrip": false,
      "normalized": false,
      "special": true
    },
    {
      "id": 44,
      "content": "<0x22>",
      "single_word": false,
      "lstrip": false,
      "rstrip": false,
      "normalized": false,
      "special": true
    },
    {
      "id": 45,
      "content": "<0x23>",
      "single_word": false,
      "lstrip": false,
      "rstrip": false,
      "normalized": false,
      "special": true
    },
    {
      "id": 46,
      "content": "<0x24>",
      "single_word": false,
      "lstrip": false,
      "rstrip": false,
      "normalized": false,
      "special": true
    },
    {
      "id": 47,
      "content": "<0x25>",
      "single_word": false,
      "lstrip": false,
      "rstrip": false,
      "normalized": false,
      "special": true
    },
    {
      "id": 48,
      "content": "<0x26>",
      "single_word": false,
      "lstrip": false,
      "rstrip": false,
      "normalized": false,
      "special": true
    },
    {
      "id": 49,
      "content": "<0x27>",
      "single_word": false,
      "lstrip": false,
      "rstrip": false,
      "normalized": false,
      "special": true
    },
    {
      "id": 50,
      "content": "<0x28>",
      "single_word": false,
      "lstrip": false,
      "rstrip": false,
      "normalized": false,
      "special": true
    },
    {
      "id": 51,
      "content": "<0x29>",
      "single_word": false,
      "lstrip": false,
      "rstrip": false,
      "normalized": false,
      "special": true
    },
    {
      "id": 52,
      "content": "<0x2A>",
      "single_word": false,
      "lstrip": false,
      "rstrip": false,
      "normalized": false,
      "special": true
    },
    {
      "id": 53,
      "content": "<0x2B>",
      "single_word": false,
      "lstrip": false,
      "rstrip": false,
      "normalized": false,
      "special": true
    },
    {
      "id": 54,
      "content": "<0x2C>",
      "single_word": false,
      "lstrip": false,
      "rstrip": false,
      "normalized": false,
      "special": true
    },
    {
      "id": 55,
      "content": "<0x2D>",
      "single_word": false,
      "lstrip": false,
      "rstrip": false,
      "normalized": false,
      "special": true
    },
    {
      "id": 56,
      "content": "<0x2E>",
      "single_word": false,
      "lstrip": false,
      "rstrip": false,
      "normalized": false,
      "special": true
    },
    {
      "id": 57,
      "content": "<0x2F>",
      "single_word": false,
      "lstrip": false,
      "rstrip": false,
      "normalized": false,
      "special": true
    },
    {
      "id": 58,
      "content": "<0x30>",
      "single_word": false,
      "lstrip": false,
      "rstrip": false,
      "normalized": false,
      "special": true
    },
    {
      "id": 59,
      "content": "<0x31>",
      "single_word": false,
      "lstrip": false,
      "rstrip": false,
      "normalized": false,
      "special": true
    },
    {
      "id": 60,
      "content": "<0x32>",
      "single_word": false,
      "lstrip": false,
      "rstrip": false,
      "normalized": false,
      "special": true
    },
    {
      "id": 61,
      "content": "<0x33>",
      "single_word": false,
      "lstrip": false,
      "rstrip": false,
      "normalized": false,
      "special": true
    },
    {
      "id": 62,
      "content": "<0x34>",
      "single_word": false,
      "lstrip": false,
      "rstrip": false,
      "normalized": false,
      "special": true
    },
    {
      "id": 63,
      "content": "<0x35>",
      "single_word": false,
      "lstrip": false,
      "rstrip": false,
      "normalized": false,
      "special": true
    },
    {
      "id": 64,
      "content": "<0x36>",
      "single_word": false,
      "lstrip": false,
      "rstrip": false,
      "normalized": false,
      "special": true
    },
    {
      "id": 65,
      "content": "<0x37>",
      "single_word": false,
      "lstrip": false,
      "rstrip": false,
      "normalized": false,
      "special": true
    },
    {
      "id": 66,
      "content": "<0x38>",
      "single_word": false,
      "lstrip": false,
      "rstrip": false,
      "normalized": false,
      "special": true
    },
    {
      "id": 67,
      "content": "<0x39>",
      "single_word": false,
      "lstrip": false,
      "rstrip": false,
      "normalized": false,
      "special": true
    },
    {
      "id": 68,
      "content": "<0x3A>",
      "single_word": false,
      "lstrip": false,
      "rstrip": false,
      "normalized": false,
      "special": true
    },
    {
      "id": 69,
      "content": "<0x3B>",
      "single_word": false,
      "lstrip": false,
      "rstrip": false,
      "normalized": false,
      "special": true
    },
    {
      "id": 70,
      "content": "<0x3C>",
      "single_word": false,
      "lstrip": false,
      "rstrip": false,
      "normalized": false,
      "special": true
    },
    {
      "id": 71,
      "content": "<0x3D>",
      "single_word": false,
      "lstrip": false,
      "rstrip": false,
      "normalized": false,
      "special": true
    },
    {
      "id": 72,
      "content": "<0x3E>",
      "single_word": false,
      "lstrip": false,
      "rstrip": false,
      "normalized": false,
      "special": true
    },
    {
      "id": 73,
      "content": "<0x3F>",
      "single_word": false,
      "lstrip": false,
      "rstrip": false,
      "normalized": false,
      "special": true
    },
    {
      "id": 74,
      "content": "<0x40>",
      "single_word": false,
      "lstrip": false,
      "rstrip": false,
      "normalized": false,
      "special": true
    },
    {
      "id": 75,
      "content": "<0x41>",
      "single_word": false,
      "lstrip": false,
      "rstrip": false,
      "normalized": false,
      "special": true
    },
    {
      "id": 76,
      "content": "<0x42>",
      "single_word": false,
      "lstrip": false,
      "rstrip": false,
      "normalized": false,
      "special": true
    },
    {
      "id": 77,
      "content": "<0x43>",
      "single_word": false,
      "lstrip": false,
      "rstrip": false,
      "normalized": false,
      "special": true
    },
    {
      "id": 78,
      "content": "<0x44>",
      "single_word": false,
      "lstrip": false,
      "rstrip": false,
      "normalized": false,
      "special": true
    },
    {
      "id": 79,
      "content": "<0x45>",
      "single_word": false,
      "lstrip": false,
      "rstrip": false,
      "normalized": false,
      "special": true
    },
    {
      "id": 80,
      "content": "<0x46>",
      "single_word": false,
      "lstrip": false,
      "rstrip": false,
      "normalized": false,
      "special": true
    },
    {
      "id": 81,
      "content": "<0x47>",
      "single_word": false,
      "lstrip": false,
      "rstrip": false,
      "normalized": false,
      "special": true
    },
    {
      "id": 82,
      "content": "<0x48>",
      "single_word": false,
      "lstrip": false,
      "rstrip": false,
      "normalized": false,
      "special": true
    },
    {
      "id": 83,
      "content": "<0x49>",
      "single_word": false,
      "lstrip": false,
      "rstrip": false,
      "normalized": false,
      "special": true
    },
    {
      "id": 84,
      "content": "<0x4A>",
      "single_word": false,
      "lstrip": false,
      "rstrip": false,
      "normalized": false,
      "special": true
    },
    {
      "id": 85,
      "content": "<0x4B>",
      "single_word": false,
      "lstrip": false,
      "rstrip": false,
      "normalized": false,
      "special": true
    },
    {
      "id": 86,
      "content": "<0x4C>",
      "single_word": false,
      "lstrip": false,
      "rstrip": false,
      "normalized": false,
      "special": true
    },
    {
      "id": 87,
      "content": "<0x4D>",
      "single_word": false,
      "lstrip": false,
      "rstrip": false,
      "normalized": false,
      "special": true
    },
    {
      "id": 88,
      "content": "<0x4E>",
      "single_word": false,
      "lstrip": false,
      "rstrip": false,
      "normalized": false,
      "special": true
    },
    {
      "id": 89,
      "content": "<0x4F>",
      "single_word": false,
      "lstrip": false,
      "rstrip": false,
      "normalized": false,
      "special": true
    },
    {
      "id": 90,
      "content": "<0x50>",
      "single_word": false,
      "lstrip": false,
      "rstrip": false,
      "normalized": false,
      "special": true
    },
    {
      "id": 91,
      "content": "<0x51>",
      "single_word": false,
      "lstrip": false,
      "rstrip": false,
      "normalized": false,
      "special": true
    },
    {
      "id": 92,
      "content": "<0x52>",
      "single_word": false,
      "lstrip": false,
      "rstrip": false,
      "normalized": false,
      "special": true
    },
    {
      "id": 93,
      "content": "<0x53>",
      "single_word": false,
      "lstrip": false,
      "rstrip": false,
      "normalized": false,
      "special": true
    },
    {
      "id": 94,
      "content": "<0x54>",
      "single_word": false,
      "lstrip": false,
      "rstrip": false,
      "normalized": false,
      "special": true
    },
    {
      "id": 95,
      "content": "<0x55>",
      "single_word": false,
      "lstrip": false,
      "rstrip": false,
      "normalized": false,
      "special": true
    },
    {
      "id": 96,
      "content": "<0x56>",
      "single_word": false,
      "lstrip": false,
      "rstrip": false,
      "normalized": false,
      "special": true
    },
    {
      "id": 97,
      "content": "<0x57>",
      "single_word": false,
      "lstrip": false,
      "rstrip": false,
      "normalized": false,
      "special": true
    },
    {
      "id": 98,
      "content": "<0x58>",
      "single_word": false,
      "lstrip": false,
      "rstrip": false,
      "normalized": false,
      "special": true
    },
    {
      "id": 99,
      "content": "<0x59>",
      "single_word": false,
      "lstrip": false,
      "rstrip": false,
      "normalized": false,
      "special": true
    },
    {
      "id": 100,
      "content": "<0x5A>",
      "single_word": false,
      "lstrip": false,
      "rstrip": false,
      "normalized": false,
      "special": true
    },
    {
      "id": 101,
      "content": "<0x5B>",
      "single_word": false,
      "lstrip": false,
      "rstrip": false,
      "normalized": false,
      "special": true
    },
    {
      "id": 102,
      "content": "<0x5C>",
      "single_word": false,
      "lstrip": false,
      "rstrip": false,
      "normalized": false,
      "special": true
    },
    {
      "id": 103,
      "content": "<0x5D>",
      "single_word": false,
      "lstrip": false,
      "rstrip": false,
      "normalized": false,
      "special": true
    },
    {
      "id": 104,
      "content": "<0x5E>",
      "single_word": false,
      "lstrip": false,
      "rstrip": false,
      "normalized": false,
      "special": true
    },
    {
      "id": 105,
      "content": "<0x5F>",
      "single_word": false,
      "lstrip": false,
      "rstrip": false,
      "normalized": false,
      "special": true
    },
    {
      "id": 106,
      "content": "<0x60>",
      "single_word": false,
      "lstrip": false,
      "rstrip": false,
      "normalized": false,
      "special": true
    },
    {
      "id": 107,
      "content": "<0x61>",
      "single_word": false,
      "lstrip": false,
      "rstrip": false,
      "normalized": false,
      "special": true
    },
    {
      "id": 108,
      "content": "<0x62>",
      "single_word": false,
      "lstrip": false,
      "rstrip": false,
      "normalized": false,
      "special": true
    },
    {
      "id": 109,
      "content": "<0x63>",
      "single_word": false,
      "lstrip": false,
      "rstrip": false,
      "normalized": false,
      "special": true
    },
    {
      "id": 110,
      "content": "<0x64>",
      "single_word": false,
      "lstrip": false,
      "rstrip": false,
      "normalized": false,
      "special": true
    },
    {
      "id": 111,
      "content": "<0x65>",
      "single_word": false,
      "lstrip": false,
      "rstrip": false,
      "normalized": false,
      "special": true
    },
    {
      "id": 112,
      "content": "<0x66>",
      "single_word": false,
      "lstrip": false,
      "rstrip": false,
      "normalized": false,
      "special": true
    },
    {
      "id": 113,
      "content": "<0x67>",
      "single_word": false,
      "lstrip": false,
      "rstrip": false,
      "normalized": false,
      "special": true
    },
    {
      "id": 114,
      "content": "<0x68>",
      "single_word": false,
      "lstrip": false,
      "rstrip": false,
      "normalized": false,
      "special": true
    },
    {
      "id": 115,
      "content": "<0x69>",
      "single_word": false,
      "lstrip": false,
      "rstrip": false,
      "normalized": false,
      "special": true
    },
    {
      "id": 116,
      "content": "<0x6A>",
      "single_word": false,
      "lstrip": false,
      "rstrip": false,
      "normalized": false,
      "special": true
    },
    {
      "id": 117,
      "content": "<0x6B>",
      "single_word": false,
      "lstrip": false,
      "rstrip": false,
      "normalized": false,
      "special": true
    },
    {
      "id": 118,
      "content": "<0x6C>",
      "single_word": false,
      "lstrip": false,
      "rstrip": false,
      "normalized": false,
      "special": true
    },
    {
      "id": 119,
      "content": "<0x6D>",
      "single_word": false,
      "lstrip": false,
      "rstrip": false,
      "normalized": false,
      "special": true
    },
    {
      "id": 120,
      "content": "<0x6E>",
      "single_word": false,
      "lstrip": false,
      "rstrip": false,
      "normalized": false,
      "special": true
    },
    {
      "id": 121,
      "content": "<0x6F>",
      "single_word": false,
      "lstrip": false,
      "rstrip": false,
      "normalized": false,
      "special": true
    },
    {
      "id": 122,
      "content": "<0x70>",
      "single_word": false,
      "lstrip": false,
      "rstrip": false,
      "normalized": false,
      "special": true
    },
    {
      "id": 123,
      "content": "<0x71>",
      "single_word": false,
      "lstrip": false,
      "rstrip": false,
      "normalized": false,
      "special": true
    },
    {
      "id": 124,
      "content": "<0x72>",
      "single_word": false,
      "lstrip": false,
      "rstrip": false,
      "normalized": false,
      "special": true
    },
    {
      "id": 125,
      "content": "<0x73>",
      "single_word": false,
      "lstrip": false,
      "rstrip": false,
      "normalized": false,
      "special": true
    },
    {
      "id": 126,
      "content": "<0x74>",
      "single_word": false,
      "lstrip": false,
      "rstrip": false,
      "normalized": false,
      "special": true
    },
    {
      "id": 127,
      "content": "<0x75>",
      "single_word": false,
      "lstrip": false,
      "rstrip": false,
      "normalized": false,
      "special": true
    },
    {
      "id": 128,
      "content": "<0x76>",
      "single_word": false,
      "lstrip": false,
      "rstrip": false,
      "normalized": false,
      "special": true
    },
    {
      "id": 129,
      "content": "<0x77>",
      "single_word": false,
      "lstrip": false,
      "rstrip": false,
      "normalized": false,
      "special": true
    },
    {
      "id": 130,
      "content": "<0x78>",
      "single_word": false,
      "lstrip": false,
      "rstrip": false,
      "normalized": false,
      "special": true
    },
    {
      "id": 131,
      "content": "<0x79>",
      "single_word": false,
      "lstrip": false,
      "rstrip": false,
      "normalized": false,
      "special": true
    },
    {
      "id": 132,
      "content": "<0x7A>",
      "single_word": false,
      "lstrip": false,
      "rstrip": false,
      "normalized": false,
      "special": true
    },
    {
      "id": 133,
      "content": "<0x7B>",
      "single_word": false,
      "lstrip": false,
      "rstrip": false,
      "normalized": false,
      "special": true
    },
    {
      "id": 134,
      "content": "<0x7C>",
      "single_word": false,
      "lstrip": false,
      "rstrip": false,
      "normalized": false,
      "special": true
    },
    {
      "id": 135,
      "content": "<0x7D>",
      "single_word": false,
      "lstrip": false,
      "rstrip": false,
      "normalized": false,
      "special": true
    },
    {
      "id": 136,
      "content": "<0x7E>",
      "single_word": false,
      "lstrip": false,
      "rstrip": false,
      "normalized": false,
      "special": true
    },
    {
      "id": 137,
      "content": "<0x7F>",
      "single_word": false,
      "lstrip": false,
      "rstrip": false,
      "normalized": false,
      "special": true
    },
    {
      "id": 138,
      "content": "<0x80>",
      "single_word": false,
      "lstrip": false,
      "rstrip": false,
      "normalized": false,
      "special": true
    },
    {
      "id": 139,
      "content": "<0x81>",
      "single_word": false,
      "lstrip": false,
      "rstrip": false,
      "normalized": false,
      "special": true
    },
    {
      "id": 140,
      "content": "<0x82>",
      "single_word": false,
      "lstrip": false,
      "rstrip": false,
      "normalized": false,
      "special": true
    },
    {
      "id": 141,
      "content": "<0x83>",
      "single_word": false,
      "lstrip": false,
      "rstrip": false,
      "normalized": false,
      "special": true
    },
    {
      "id": 142,
      "content": "<0x84>",
      "single_word": false,
      "lstrip": false,
      "rstrip": false,
      "normalized": false,
      "special": true
    },
    {
      "id": 143,
      "content": "<0x85>",
      "single_word": false,
      "lstrip": false,
      "rstrip": false,
      "normalized": false,
      "special": true
    },
    {
      "id": 144,
      "content": "<0x86>",
      "single_word": false,
      "lstrip": false,
      "rstrip": false,
      "normalized": false,
      "special": true
    },
    {
      "id": 145,
      "content": "<0x87>",
      "single_word": false,
      "lstrip": false,
      "rstrip": false,
      "normalized": false,
      "special": true
    },
    {
      "id": 146,
      "content": "<0x88>",
      "single_word": false,
      "lstrip": false,
      "rstrip": false,
      "normalized": false,
      "special": true
    },
    {
      "id": 147,
      "content": "<0x89>",
      "single_word": false,
      "lstrip": false,
      "rstrip": false,
      "normalized": false,
      "special": true
    },
    {
      "id": 148,
      "content": "<0x8A>",
      "single_word": false,
      "lstrip": false,
      "rstrip": false,
      "normalized": false,
      "special": true
    },
    {
      "id": 149,
      "content": "<0x8B>",
      "single_word": false,
      "lstrip": false,
      "rstrip": false,
      "normalized": false,
      "special": true
    },
    {
      "id": 150,
      "content": "<0x8C>",
      "single_word": false,
      "lstrip": false,
      "rstrip": false,
      "normalized": false,
      "special": true
    },
    {
      "id": 151,
      "content": "<0x8D>",
      "single_word": false,
      "lstrip": false,
      "rstrip": false,
      "normalized": false,
      "special": true
    },
    {
      "id": 152,
      "content": "<0x8E>",
      "single_word": false,
      "lstrip": false,
      "rstrip": false,
      "normalized": false,
      "special": true
    },
    {
      "id": 153,
      "content": "<0x8F>",
      "single_word": false,
      "lstrip": false,
      "rstrip": false,
      "normalized": false,
      "special": true
    },
    {
      "id": 154,
      "content": "<0x90>",
      "single_word": false,
      "lstrip": false,
      "rstrip": false,
      "normalized": false,
      "special": true
    },
    {
      "id": 155,
      "content": "<0x91>",
      "single_word": false,
      "lstrip": false,
      "rstrip": false,
      "normalized": false,
      "special": true
    },
    {
      "id": 156,
      "content": "<0x92>",
      "single_word": false,
      "lstrip": false,
      "rstrip": false,
      "normalized": false,
      "special": true
    },
    {
      "id": 157,
      "content": "<0x93>",
      "single_word": false,
      "lstrip": false,
      "rstrip": false,
      "normalized": false,
      "special": true
    },
    {
      "id": 158,
      "content": "<0x94>",
      "single_word": false,
      "lstrip": false,
      "rstrip": false,
      "normalized": false,
      "special": true
    },
    {
      "id": 159,
      "content": "<0x95>",
      "single_word": false,
      "lstrip": false,
      "rstrip": false,
      "normalized": false,
      "special": true
    },
    {
      "id": 160,
      "content": "<0x96>",
      "single_word": false,
      "lstrip": false,
      "rstrip": false,
      "normalized": false,
      "special": true
    },
    {
      "id": 161,
      "content": "<0x97>",
      "single_word": false,
      "lstrip": false,
      "rstrip": false,
      "normalized": false,
      "special": true
    },
    {
      "id": 162,
      "content": "<0x98>",
      "single_word": false,
      "lstrip": false,
      "rstrip": false,
      "normalized": false,
      "special": true
    },
    {
      "id": 163,
      "content": "<0x99>",
      "single_word": false,
      "lstrip": false,
      "rstrip": false,
      "normalized": false,
      "special": true
    },
    {
      "id": 164,
      "content": "<0x9A>",
      "single_word": false,
      "lstrip": false,
      "rstrip": false,
      "normalized": false,
      "special": true
    },
    {
      "id": 165,
      "content": "<0x9B>",
      "single_word": false,
      "lstrip": false,
      "rstrip": false,
      "normalized": false,
      "special": true
    },
    {
      "id": 166,
      "content": "<0x9C>",
      "single_word": false,
      "lstrip": false,
      "rstrip": false,
      "normalized": false,
      "special": true
    },
    {
      "id": 167,
      "content": "<0x9D>",
      "single_word": false,
      "lstrip": false,
      "rstrip": false,
      "normalized": false,
      "special": true
    },
    {
      "id": 168,
      "content": "<0x9E>",
      "single_word": false,
      "lstrip": false,
      "rstrip": false,
      "normalized": false,
      "special": true
    },
    {
      "id": 169,
      "content": "<0x9F>",
      "single_word": false,
      "lstrip": false,
      "rstrip": false,
      "normalized": false,
      "special": true
    },
    {
      "id": 170,
      "content": "<0xA0>",
      "single_word": false,
      "lstrip": false,
      "rstrip": false,
      "normalized": false,
      "special": true
    },
    {
      "id": 171,
      "content": "<0xA1>",
      "single_word": false,
      "lstrip": false,
      "rstrip": false,
      "normalized": false,
      "special": true
    },
    {
      "id": 172,
      "content": "<0xA2>",
      "single_word": false,
      "lstrip": false,
      "rstrip": false,
      "normalized": false,
      "special": true
    },
    {
      "id": 173,
      "content": "<0xA3>",
      "single_word": false,
      "lstrip": false,
      "rstrip": false,
      "normalized": false,
      "special": true
    },
    {
      "id": 174,
      "content": "<0xA4>",
      "single_word": false,
      "lstrip": false,
      "rstrip": false,
      "normalized": false,
      "special": true
    },
    {
      "id": 175,
      "content": "<0xA5>",
      "single_word": false,
      "lstrip": false,
      "rstrip": false,
      "normalized": false,
      "special": true
    },
    {
      "id": 176,
      "content": "<0xA6>",
      "single_word": false,
      "lstrip": false,
      "rstrip": false,
      "normalized": false,
      "special": true
    },
    {
      "id": 177,
      "content": "<0xA7>",
      "single_word": false,
      "lstrip": false,
      "rstrip": false,
      "normalized": false,
      "special": true
    },
    {
      "id": 178,
      "content": "<0xA8>",
      "single_word": false,
      "lstrip": false,
      "rstrip": false,
      "normalized": false,
      "special": true
    },
    {
      "id": 179,
      "content": "<0xA9>",
      "single_word": false,
      "lstrip": false,
      "rstrip": false,
      "normalized": false,
      "special": true
    },
    {
      "id": 180,
      "content": "<0xAA>",
      "single_word": false,
      "lstrip": false,
      "rstrip": false,
      "normalized": false,
      "special": true
    },
    {
      "id": 181,
      "content": "<0xAB>",
      "single_word": false,
      "lstrip": false,
      "rstrip": false,
      "normalized": false,
      "special": true
    },
    {
      "id": 182,
      "content": "<0xAC>",
      "single_word": false,
      "lstrip": false,
      "rstrip": false,
      "normalized": false,
      "special": true
    },
    {
      "id": 183,
      "content": "<0xAD>",
      "single_word": false,
      "lstrip": false,
      "rstrip": false,
      "normalized": false,
      "special": true
    },
    {
      "id": 184,
      "content": "<0xAE>",
      "single_word": false,
      "lstrip": false,
      "rstrip": false,
      "normalized": false,
      "special": true
    },
    {
      "id": 185,
      "content": "<0xAF>",
      "single_word": false,
      "lstrip": false,
      "rstrip": false,
      "normalized": false,
      "special": true
    },
    {
      "id": 186,
      "content": "<0xB0>",
      "single_word": false,
      "lstrip": false,
      "rstrip": false,
      "normalized": false,
      "special": true
    },
    {
      "id": 187,
      "content": "<0xB1>",
      "single_word": false,
      "lstrip": false,
      "rstrip": false,
      "normalized": false,
      "special": true
    },
    {
      "id": 188,
      "content": "<0xB2>",
      "single_word": false,
      "lstrip": false,
      "rstrip": false,
      "normalized": false,
      "special": true
    },
    {
      "id": 189,
      "content": "<0xB3>",
      "single_word": false,
      "lstrip": false,
      "rstrip": false,
      "normalized": false,
      "special": true
    },
    {
      "id": 190,
      "content": "<0xB4>",
      "single_word": false,
      "lstrip": false,
      "rstrip": false,
      "normalized": false,
      "special": true
    },
    {
      "id": 191,
      "content": "<0xB5>",
      "single_word": false,
      "lstrip": false,
      "rstrip": false,
      "normalized": false,
      "special": true
    },
    {
      "id": 192,
      "content": "<0xB6>",
      "single_word": false,
      "lstrip": false,
      "rstrip": false,
      "normalized": false,
      "special": true
    },
    {
      "id": 193,
      "content": "<0xB7>",
      "single_word": false,
      "lstrip": false,
      "rstrip": false,
      "normalized": false,
      "special": true
    },
    {
      "id": 194,
      "content": "<0xB8>",
      "single_word": false,
      "lstrip": false,
      "rstrip": false,
      "normalized": false,
      "special": true
    },
    {
      "id": 195,
      "content": "<0xB9>",
      "single_word": false,
      "lstrip": false,
      "rstrip": false,
      "normalized": false,
      "special": true
    },
    {
      "id": 196,
      "content": "<0xBA>",
      "single_word": false,
      "lstrip": false,
      "rstrip": false,
      "normalized": false,
      "special": true
    },
    {
      "id": 197,
      "content": "<0xBB>",
      "single_word": false,
      "lstrip": false,
      "rstrip": false,
      "normalized": false,
      "special": true
    },
    {
      "id": 198,
      "content": "<0xBC>",
      "single_word": false,
      "lstrip": false,
      "rstrip": false,
      "normalized": false,
      "special": true
    },
    {
      "id": 199,
      "content": "<0xBD>",
      "single_word": false,
      "lstrip": false,
      "rstrip": false,
      "normalized": false,
      "special": true
    },
    {
      "id": 200,
      "content": "<0xBE>",
      "single_word": false,
      "lstrip": false,
      "rstrip": false,
      "normalized": false,
      "special": true
    },
    {
      "id": 201,
      "content": "<0xBF>",
      "single_word": false,
      "lstrip": false,
      "rstrip": false,
      "normalized": false,
      "special": true
    },
    {
      "id": 202,
      "content": "<0xC0>",
      "single_word": false,
      "lstrip": false,
      "rstrip": false,
      "normalized": false,
      "special": true
    },
    {
      "id": 203,
      "content": "<0xC1>",
      "single_word": false,
      "lstrip": false,
      "rstrip": false,
      "normalized": false,
      "special": true
    },
    {
      "id": 204,
      "content": "<0xC2>",
      "single_word": false,
      "lstrip": false,
      "rstrip": false,
      "normalized": false,
      "special": true
    },
    {
      "id": 205,
      "content": "<0xC3>",
      "single_word": false,
      "lstrip": false,
      "rstrip": false,
      "normalized": false,
      "special": true
    },
    {
      "id": 206,
      "content": "<0xC4>",
      "single_word": false,
      "lstrip": false,
      "rstrip": false,
      "normalized": false,
      "special": true
    },
    {
      "id": 207,
      "content": "<0xC5>",
      "single_word": false,
      "lstrip": false,
      "rstrip": false,
      "normalized": false,
      "special": true
    },
    {
      "id": 208,
      "content": "<0xC6>",
      "single_word": false,
      "lstrip": false,
      "rstrip": false,
      "normalized": false,
      "special": true
    },
    {
      "id": 209,
      "content": "<0xC7>",
      "single_word": false,
      "lstrip": false,
      "rstrip": false,
      "normalized": false,
      "special": true
    },
    {
      "id": 210,
      "content": "<0xC8>",
      "single_word": false,
      "lstrip": false,
      "rstrip": false,
      "normalized": false,
      "special": true
    },
    {
      "id": 211,
      "content": "<0xC9>",
      "single_word": false,
      "lstrip": false,
      "rstrip": false,
      "normalized": false,
      "special": true
    },
    {
      "id": 212,
      "content": "<0xCA>",
      "single_word": false,
      "lstrip": false,
      "rstrip": false,
      "normalized": false,
      "special": true
    },
    {
      "id": 213,
      "content": "<0xCB>",
      "single_word": false,
      "lstrip": false,
      "rstrip": false,
      "normalized": false,
      "special": true
    },
    {
      "id": 214,
      "content": "<0xCC>",
      "single_word": false,
      "lstrip": false,
      "rstrip": false,
      "normalized": false,
      "special": true
    },
    {
      "id": 215,
      "content": "<0xCD>",
      "single_word": false,
      "lstrip": false,
      "rstrip": false,
      "normalized": false,
      "special": true
    },
    {
      "id": 216,
      "content": "<0xCE>",
      "single_word": false,
      "lstrip": false,
      "rstrip": false,
      "normalized": false,
      "special": true
    },
    {
      "id": 217,
      "content": "<0xCF>",
      "single_word": false,
      "lstrip": false,
      "rstrip": false,
      "normalized": false,
      "special": true
    },
    {
      "id": 218,
      "content": "<0xD0>",
      "single_word": false,
      "lstrip": false,
      "rstrip": false,
      "normalized": false,
      "special": true
    },
    {
      "id": 219,
      "content": "<0xD1>",
      "single_word": false,
      "lstrip": false,
      "rstrip": false,
      "normalized": false,
      "special": true
    },
    {
      "id": 220,
      "content": "<0xD2>",
      "single_word": false,
      "lstrip": false,
      "rstrip": false,
      "normalized": false,
      "special": true
    },
    {
      "id": 221,
      "content": "<0xD3>",
      "single_word": false,
      "lstrip": false,
      "rstrip": false,
      "normalized": false,
      "special": true
    },
    {
      "id": 222,
      "content": "<0xD4>",
      "single_word": false,
      "lstrip": false,
      "rstrip": false,
      "normalized": false,
      "special": true
    },
    {
      "id": 223,
      "content": "<0xD5>",
      "single_word": false,
      "lstrip": false,
      "rstrip": false,
      "normalized": false,
      "special": true
    },
    {
      "id": 224,
      "content": "<0xD6>",
      "single_word": false,
      "lstrip": false,
      "rstrip": false,
      "normalized": false,
      "special": true
    },
    {
      "id": 225,
      "content": "<0xD7>",
      "single_word": false,
      "lstrip": false,
      "rstrip": false,
      "normalized": false,
      "special": true
    },
    {
      "id": 226,
      "content": "<0xD8>",
      "single_word": false,
      "lstrip": false,
      "rstrip": false,
      "normalized": false,
      "special": true
    },
    {
      "id": 227,
      "content": "<0xD9>",
      "single_word": false,
      "lstrip": false,
      "rstrip": false,
      "normalized": false,
      "special": true
    },
    {
      "id": 228,
      "content": "<0xDA>",
      "single_word": false,
      "lstrip": false,
      "rstrip": false,
      "normalized": false,
      "special": true
    },
    {
      "id": 229,
      "content": "<0xDB>",
      "single_word": false,
      "lstrip": false,
      "rstrip": false,
      "normalized": false,
      "special": true
    },
    {
      "id": 230,
      "content": "<0xDC>",
      "single_word": false,
      "lstrip": false,
      "rstrip": false,
      "normalized": false,
      "special": true
    },
    {
      "id": 231,
      "content": "<0xDD>",
      "single_word": false,
      "lstrip": false,
      "rstrip": false,
      "normalized": false,
      "special": true
    },
    {
      "id": 232,
      "content": "<0xDE>",
      "single_word": false,
      "lstrip": false,
      "rstrip": false,
      "normalized": false,
      "special": true
    },
    {
      "id": 233,
      "content": "<0xDF>",
      "single_word": false,
      "lstrip": false,
      "rstrip": false,
      "normalized": false,
      "special": true
    },
    {
      "id": 234,
      "content": "<0xE0>",
      "single_word": false,
      "lstrip": false,
      "rstrip": false,
      "normalized": false,
      "special": true
    },
    {
      "id": 235,
      "content": "<0xE1>",
      "single_word": false,
      "lstrip": false,
      "rstrip": false,
      "normalized": false,
      "special": true
    },
    {
      "id": 236,
      "content": "<0xE2>",
      "single_word": false,
      "lstrip": false,
      "rstrip": false,
      "normalized": false,
      "special": true
    },
    {
      "id": 237,
      "content": "<0xE3>",
      "single_word": false,
      "lstrip": false,
      "rstrip": false,
      "normalized": false,
      "special": true
    },
    {
      "id": 238,
      "content": "<0xE4>",
      "single_word": false,
      "lstrip": false,
      "rstrip": false,
      "normalized": false,
      "special": true
    },
    {
      "id": 239,
      "content": "<0xE5>",
      "single_word": false,
      "lstrip": false,
      "rstrip": false,
      "normalized": false,
      "special": true
    },
    {
      "id": 240,
      "content": "<0xE6>",
      "single_word": false,
      "lstrip": false,
      "rstrip": false,
      "normalized": false,
      "special": true
    },
    {
      "id": 241,
      "content": "<0xE7>",
      "single_word": false,
      "lstrip": false,
      "rstrip": false,
      "normalized": false,
      "special": true
    },
    {
      "id": 242,
      "content": "<0xE8>",
      "single_word": false,
      "lstrip": false,
      "rstrip": false,
      "normalized": false,
      "special": true
    },
    {
      "id": 243,
      "content": "<0xE9>",
      "single_word": false,
      "lstrip": false,
      "rstrip": false,
      "normalized": false,
      "special": true
    },
    {
      "id": 244,
      "content": "<0xEA>",
      "single_word": false,
      "lstrip": false,
      "rstrip": false,
      "normalized": false,
      "special": true
    },
    {
      "id": 245,
      "content": "<0xEB>",
      "single_word": false,
      "lstrip": false,
      "rstrip": false,
      "normalized": false,
      "special": true
    },
    {
      "id": 246,
      "content": "<0xEC>",
      "single_word": false,
      "lstrip": false,
      "rstrip": false,
      "normalized": false,
      "special": true
    },
    {
      "id": 247,
      "content": "<0xED>",
      "single_word": false,
      "lstrip": false,
      "rstrip": false,
      "normalized": false,
      "special": true
    },
    {
      "id": 248,
      "content": "<0xEE>",
      "single_word": false,
      "lstrip": false,
      "rstrip": false,
      "normalized": false,
      "special": true
    },
    {
      "id": 249,
      "content": "<0xEF>",
      "single_word": false,
      "lstrip": false,
      "rstrip": false,
      "normalized": false,
      "special": true
    },
    {
      "id": 250,
      "content": "<0xF0>",
      "single_word": false,
      "lstrip": false,
      "rstrip": false,
      "normalized": false,
      "special": true
    },
    {
      "id": 251,
      "content": "<0xF1>",
      "single_word": false,
      "lstrip": false,
      "rstrip": false,
      "normalized": false,
      "special": true
    },
    {
      "id": 252,
      "content": "<0xF2>",
      "single_word": false,
      "lstrip": false,
      "rstrip": false,
      "normalized": false,
      "special": true
    },
    {
      "id": 253,
      "content": "<0xF3>",
      "single_word": false,
      "lstrip": false,
      "rstrip": false,
      "normalized": false,
      "special": true
    },
    {
      "id": 254,
      "content": "<0xF4>",
      "single_word": false,
      "lstrip": false,
      "rstrip": false,
      "normalized": false,
      "special": true
    },
    {
      "id": 255,
      "content": "<0xF5>",
      "single_word": false,
      "lstrip": false,
      "rstrip": false,
      "normalized": false,
      "special": true
    },
    {
      "id": 256,
      "content": "<0xF6>",
      "single_word": false,
      "lstrip": false,
      "rstrip": false,
      "normalized": false,
      "special": true
    },
    {
      "id": 257,
      "content": "<0xF7>",
      "single_word": false,
      "lstrip": false,
      "rstrip": false,
      "normalized": false,
      "special": true
    },
    {
      "id": 258,
      "content": "<0xF8>",
      "single_word": false,
      "lstrip": false,
      "rstrip": false,
      "normalized": false,
      "special": true
    },
    {
      "id": 259,
      "content": "<0xF9>",
      "single_word": false,
      "lstrip": false,
      "rstrip": false,
      "normalized": false,
      "special": true
    },
    {
      "id": 260,
      "content": "<0xFA>",
      "single_word": false,
      "lstrip": false,
      "rstrip": false,
      "normalized": false,
      "special": true
    },
    {
      "id": 261,
      "content": "<0xFB>",
      "single_word": false,
      "lstrip": false,
      "rstrip": false,
      "normalized": false,
      "special": true
    },
    {
      "id": 262,
      "content": "<0xFC>",
      "single_word": false,
      "lstrip": false,
      "rstrip": false,
      "normalized": false,
      "special": true
    },
    {
      "id": 263,
      "content": "<0xFD>",
      "single_word": false,
      "lstrip": false,
      "rstrip": false,
      "normalized": false,
      "special": true
    },
    {
      "id": 264,
      "content": "<0xFE>",
      "single_word": false,
      "lstrip": false,
      "rstrip": false,
      "normalized": false,
      "special": true
    },
    {
      "id": 265,
      "content": "<0xFF>",
      "single_word": false,
      "lstrip": false,
      "rstrip": false,
      "normalized": false,
      "special": true
    }
  ],
  "normalizer": {
    "type": "NFKC"
  },
  "pre_tokenizer": null,
  "post_processor": null,
  "decoder": {
    "type": "Sequence",
    "decoders": [
      {
        "type": "ByteFallback"
      },
      {
        "type": "BPEDecoder",
        "suffix": "</w>"
      }
    ]
  },
  "model": {
    "type": "BPE",
    "dropout": null,
    "unk_token": "<unk>",
    "continuing_subword_prefix": null,
    "end_of_word_suffix": "</w>",
    "fuse_unk": false,
    "byte_fallback": true,
    "ignore_merges": false,
    "vocab": {
      "<unk>": 0,
      "<s>": 1,
      "</s>": 2,
      "<pad>": 3,
      "<mask>": 4,
      "<|fim_prefix|>": 5,
      "<|fim_middle|>": 6,
      "<|fim_suffix|>": 7,
      "<|fim_pad|>": 8,
      "<|file_separator|>": 9,
      "<0x00>": 10,
      "<0x01>": 11,
      "<0x02>": 12,
      "<0x03>": 13,
      "<0x04>": 14,
      "<0x05>": 15,
      "<0x06>": 16,
      "<0x07>": 17,
      "<0x08>": 18,
      "<0x09>": 19,
      "<0x0A>": 20,
      "<0x0B>": 21,
      "<0x0C>": 22,
      "<0x0D>": 23,
      "<0x0E>": 24,
      "<0x0F>": 25,
      "<0x10>": 26,
      "<0x11>": 27,
      "<0x12>": 28,
      "<0x13>": 29,
      "<0x14>": 30,
      "<0x15>": 31,
      "<0x16>": 32,
      "<0x17>": 33,
      "<0x18>": 34,
      "<0x19>": 35,
      "<0x1A>": 36,
      "<0x1B>": 37,
      "<0x1C>": 38,
      "<0x1D>": 39,
      "<0x1E>": 40,
      "<0x1F>": 41,
      "<0x20>": 42,
      "<0x21>": 43,
      "<0x22>": 44,
      "<0x23>": 45,
      "<0x24>": 46,
      "<0x25>": 47,
      "<0x26>": 48,
      "<0x27>": 49,
      "<0x28>": 50,
      "<0x29>": 51,
      "<0x2A>": 52,
      "<0x2B>": 53,
      "<0x2C>": 54,
      "<0x2D>": 55,
      "<0x2E>": 56,
      "<0x2F>": 57,
      "<0x30>": 58,
      "<0x31>": 59,
      "<0x32>": 60,
      "<0x33>": 61,
      "<0x34>": 62,
      "<0x35>": 63,
      "<0x36>": 64,
      "<0x37>": 65,
      "<0x38>": 66,
      "<0x39>": 67,
      "<0x3A>": 68,
      "<0x3B>": 69,
      "<0x3C>": 70,
      "<0x3D>": 71,
      "<0x3E>": 72,
      "<0x3F>": 73,
      "<0x40>": 74,
      "<0x41>": 75,
      "<0x42>": 76,
      "<0x43>": 77,
      "<0x44>": 78,
      "<0x45>": 79,
      "<0x46>": 80,
      "<0x47>": 81,
      "<0x48>": 82,
      "<0x49>": 83,
      "<0x4A>": 84,
      "<0x4B>": 85,
      "<0x4C>": 86,
      "<0x4D>": 87,
      "<0x4E>": 88,
      "<0x4F>": 89,
      "<0x50>": 90,
      "<0x51>": 91,
      "<0x52>": 92,
      "<0x53>": 93,
      "<0x54>": 94,
      "<0x55>": 95,
      "<0x56>": 96,
      "<0x57>": 97,
      "<0x58>": 98,
      "<0x59>": 99,
      "<0x5A>": 100,
      "<0x5B>": 101,
      "<0x5C>": 102,
      "<0x5D>": 103,
      "<0x5E>": 104,
      "<0x5F>": 105,
      "<0x60>": 106,
      "<0x61>": 107,
      "<0x62>": 108,
      "<0x63>": 109,
      "<0x64>": 110,
      "<0x65>": 111,
      "<0x66>": 112,
      "<0x67>": 113,
      "<0x68>": 114,
      "<0x69>": 115,
      "<0x6A>": 116,
      "<0x6B>": 117,
      "<0x6C>": 118,
      "<0x6D>": 119,
      "<0x6E>": 120,
      "<0x6F>": 121,
      "<0x70>": 122,
      "<0x71>": 123,
      "<0x72>": 124,
      "<0x73>": 125,
      "<0x74>": 126,
      "<0x75>": 127,
      "<0x76>": 128,
      "<0x77>": 129,
      "<0x78>": 130,
      "<0x79>": 131,
      "<0x7A>": 132,
      "<0x7B>": 133,
      "<0x7C>": 134,
      "<0x7D>": 135,
      "<0x7E>": 136,
      "<0x7F>": 137,
      "<0x80>": 138,
      "<0x81>": 139,
      "<0x82>": 140,
      "<0x83>": 141,
      "<0x84>": 142,
      "<0x85>": 143,
      "<0x86>": 144,
      "<0x87>": 145,
      "<0x88>": 146,
      "<0x89>": 147,
      "<0x8A>": 148,
      "<0x8B>": 149,
      "<0x8C>": 150,
      "<0x8D>": 151,
      "<0x8E>": 152,
      "<0x8F>": 153,
      "<0x90>": 154,
      "<0x91>": 155,
      "<0x92>": 156,
      "<0x93>": 157,
      "<0x94>": 158,
      "<0x95>": 159,
      "<0x96>": 160,
      "<0x97>": 161,
      "<0x98>": 162,
      "<0x99>": 163,
      "<0x9A>": 164,
      "<0x9B>": 165,
      "<0x9C>": 166,
      "<0x9D>": 167,
      "<0x9E>": 168,
      "<0x9F>": 169,
      "<0xA0>": 170,
      "<0xA1>": 171,
      "<0xA2>": 172,
      "<0xA3>": 173,
      "<0xA4>": 174,
      "<0xA5>": 175,
      "<0xA6>": 176,
      "<0xA7>": 177,
      "<0xA8>": 178,
      "<0xA9>": 179,
      "<0xAA>": 180,
      "<0xAB>": 181,
      "<0xAC>": 182,
      "<0xAD>": 183,
      "<0xAE>": 184,
      "<0xAF>": 185,
      "<0xB0>": 186,
      "<0xB1>": 187,
      "<0xB2>": 188,
      "<0xB3>": 189,
      "<0xB4>": 190,
      "<0xB5>": 191,
      "<0xB6>": 192,
      "<0xB7>": 193,
      "<0xB8>": 194,
      "<0xB9>": 195,
      "<0xBA>": 196,
      "<0xBB>": 197,
      "<0xBC>": 198,
      "<0xBD>": 199,
      "<0xBE>": 200,
      "<0xBF>": 201,
      "<0xC0>": 202,
      "<0xC1>": 203,
      "<0xC2>": 204,
      "<0xC3>": 205,
      "<0xC4>": 206,
      "<0xC5>": 207,
      "<0xC6>": 208,
      "<0xC7>": 209,
      "<0xC8>": 210,
      "<0xC9>": 211,
      "<0xCA>": 212,
      "<0xCB>": 213,
      "<0xCC>": 214,
      "<0xCD>": 215,
      "<0xCE>": 216,
      "<0xCF>": 217,
      "<0xD0>": 218,
      "<0xD1>": 219,
      "<0xD2>": 220,
      "<0xD3>": 221,
      "<0xD4>": 222,
      "<0xD5>": 223,
      "<0xD6>": 224,
      "<0xD7>": 225,
      "<0xD8>": 226,
      "<0xD9>": 227,
      "<0xDA>": 228,
      "<0xDB>": 229,
      "<0xDC>": 230,
      "<0xDD>": 231,
      "<0xDE>": 232,
      "<0xDF>": 233,
      "<0xE0>": 234,
      "<0xE1>": 235,
      "<0xE2>": 236,
      "<0xE3>": 237,
      "<0xE4>": 238,
      "<0xE5>": 239,
      "<0xE6>": 240,
      "<0xE7>": 241,
      "<0xE8>": 242,
      "<0xE9>": 243,
      "<0xEA>": 244,
      "<0xEB>": 245,
      "<0xEC>": 246,
      "<0xED>": 247,
      "<0xEE>": 248,
      "<0xEF>": 249,
      "<0xF0>": 250,
      "<0xF1>": 251,
      "<0xF2>": 252,
      "<0xF3>": 253,
      "<0xF4>": 254,
      "<0xF5>": 255,
      "<0xF6>": 256,
      "<0xF7>": 257,
      "<0xF8>": 258,
      "<0xF9>": 259,
      "<0xFA>": 260,
      "<0xFB>": 261,
      "<0xFC>": 262,
      "<0xFD>": 263,
      "<0xFE>": 264,
      "<0xFF>": 265,
      "\t": 266,
      "\n": 267,
      "\u000b": 268,
      "\f": 269,
      "\r": 270,
      " ": 271,
      "!": 272,
      "\"": 273,
      "#": 274,
      "$": 275,
      "%": 276,
      "&": 277,
      "'": 278,
      "(": 279,
      ")": 280,
      "*": 281,
      "+": 282,
      ",": 283,
      "-": 284,
      ".": 285,
      "/": 286,
      "0": 287,
      "1": 288,
      "2": 289,
      "3": 290,
      "4": 291,
      "5": 292,
      "6": 293,
      "7": 294,
      "8": 295,
      "9": 296,
      ":": 297,
      ";": 298,
      "<": 299,
      "=": 300,
      ">": 301,
      "?": 302,
      "@": 303,
      "A": 304,
      "B": 305,
      "C": 306,
      "D": 307,
      "E": 308,
      "F": 309,
      "G": 310,
      "H": 311,
      "I": 312,
      "J": 313,
      "K": 314,
      "L": 315,
      "M": 316,
      "N": 317,
      "O": 318,
      "P": 319,
      "Q": 320,
      "R": 321,
      "S": 322,
      "T": 323,
      "U": 324,
      "V": 325,
      "W": 326,
      "X": 327,
      "Y": 328,
      "Z": 329,
      "[": 330,
      "\\": 331,
      "]": 332,
      "^": 333,
      "_": 334,
      "`": 335,
      "a": 336,
      "b": 337,
      "c": 338,
      "d": 339,
      "e": 340,
      "f": 341,
      "g": 342,
      "h": 343,
      "i": 344,
      "j": 345,
      "k": 346,
      "l": 347,
      "m": 348,
      "n": 349,
      "o": 350,
      "p": 351,
      "q": 352,
      "r": 353,
      "s": 354,
      "t": 355,
      "u": 356,
      "v": 357,
      "w": 358,
      "x": 359,
      "y": 360,
      "z": 361,
      "{": 362,
      "|": 363,
      "}": 364,
      "~": 365,
      ".</w>": 366,
      "?</w>": 367,
      "\n</w>": 368,
      "}</w>": 369,
      "!</w>": 370,
      "o</w>": 371,
      "s</w>": 372,
      "f</w>": 373,
      "e</w>": 374,
      "m</w>": 375,
      "'</w>": 376,
      "w</w>": 377,
      "g</w>": 378,
      ")</w>": 379,
      "h</w>": 380,
      ";</w>": 381,
      " </w>": 382,
      "d</w>": 383,
      "></w>": 384,
      "a</w>": 385,
      "/</w>": 386,
      "_</w>": 387,
      "8</w>": 388,
      "7</w>": 389,
      "E</w>": 390,
      "\"</w>": 391,
      "R</w>": 392,
      "i</w>": 393,
      ":</w>": 394,
      "L</w>": 395,
      "P</w>": 396,
      "l</w>": 397,
      "p</w>": 398,
      "n</w>": 399,
      "]</w>": 400,
      "Q</w>": 401,
      "\r</w>": 402,
      "D</w>": 403,
      "b</w>": 404,
      "y</w>": 405,
      "S</w>": 406,
      "5</w>": 407,
      "k</w>": 408,
      "r</w>": 409,
      "2</w>": 410,
      "t</w>": 411,
      "6</w>": 412,
      "c</w>": 413,
      "9</w>": 414,
      "G</w>": 415,
      "1</w>": 416,
      "v</w>": 417,
      "4</w>": 418,
      "3</w>": 419,
      "%</w>": 420,
      "|</w>": 421,
      "x</w>": 422,
      "H</w>": 423,
      "O</w>": 424,
      "=</w>": 425,
      "T</w>": 426,
      "u</w>": 427,
      "\t</w>": 428,
      "{</w>": 429,
      "-</w>": 430,
      "X</w>": 431,
      "0</w>": 432,
      "N</w>": 433,
      "K</w>": 434,
      "I</w>": 435,
      "+</w>": 436,
      "A</w>": 437,
      ",</w>": 438,
      "C</w>": 439,
      "F</w>": 440,
      "M</w>": 441,
      "W</w>": 442,
      "`</w>": 443,
      "q</w>": 444,
      "*</w>": 445,
      "B</w>": 446,
      "Z</w>": 447,
      "  ": 448,
      "    ": 449,
      "        ": 450,
      "in": 451,
      "e ": 452,
      "er": 453,
      ", ": 454,
      ";\n": 455,
      "st": 456,
      "on": 457,
      "re": 458,
      "at": 459,
      "or": 460,
      "--": 461,
      "th": 462,
      "en": 463,
      "s ": 464,
      "al": 465,
      ");\n": 466,
      "an": 467,
      "= ": 468,
      "::": 469,
      "et": 470,
      "//": 471,
      "d ": 472,
      "\n        ": 473,
      "ar": 474,
      "\n    ": 475,
      "t ": 476,
      "\t\t": 477,
      "ion": 478,
      "le": 479,
      "f ": 480,
      "de": 481,
      ") ": 482,
      "it": 483,
      "ct": 484,
      "ou": 485,
      "ing": 486,
      "----": 487,
      "**": 488,
      "ic": 489,
      "se": 490,
      "->": 491,
      "am": 492,
      "con": 493,
      "to": 494,
      "tr": 495,
      "the ": 496,
      "es": 497,
      " = ": 498,
      "()": 499,
      "ro": 500,
      "ur": 501,
      "lo": 502,
      "ch": 503,
      "y ": 504,
      "\n  ": 505,
      "as": 506,
      "ol": 507,
      "te": 508,
      "// ": 509,
      "==": 510,
      "}\n": 511,
      "il": 512,
      "el": 513,
      "ac": 514,
      "ad": 515,
      "st ": 516,
      "is": 517,
      "pe": 518,
      "to ": 519,
      "if ": 520,
      "ig": 521,
      "In": 522,
      "int": 523,
      "ent": 524,
      "im": 525,
      "ing ": 526,
      "ed": 527,
      "str": 528,
      "iz": 529,
      "co": 530,
      "ue": 531,
      "n ": 532,
      "ag": 533,
      "ret": 534,
      ");\n    ": 535,
      ") {": 536,
      "un": 537,
      "if (": 538,
      "or ": 539,
      "--------": 540,
      "id": 541,
      "ul": 542,
      "****": 543,
      "00": 544,
      "* ": 545,
      "mp": 546,
      "ate": 547,
      "            ": 548,
      "of ": 549,
      "retur": 550,
      "get": 551,
      "cl": 552,
      "ut": 553,
      "er ": 554,
      "ap": 555,
      "ab": 556,
      "res": 557,
      "a ": 558,
      "ex": 559,
      "0x": 560,
      "ation": 561,
      "const ": 562,
      "\n\t\t": 563,
      "return ": 564,
      "is ": 565,
      "and ": 566,
      "ect": 567,
      "um": 568,
      "\n            ": 569,
      "ff": 570,
      "ize": 571,
      ";\n    ": 572,
      "no": 573,
      "< ": 574,
      "d::": 575,
      "ty": 576,
      "ck": 577,
      "Re": 578,
      "in ": 579,
      "op": 580,
      "\n      ": 581,
      "T_": 582,
      "ce": 583,
      "us": 584,
      "if": 585,
      ");\n  ": 586,
      "std::": 587,
      "_p": 588,
      "em": 589,
      "////": 590,
      "iv": 591,
      "& ": 592,
      "ed ": 593,
      ": ": 594,
      "set": 595,
      "====": 596,
      "all": 597,
      "end": 598,
      "; ": 599,
      "\n\t": 600,
      "(\"": 601,
      "oun": 602,
      "ay": 603,
      "bo": 604,
      ");\n        ": 605,
      "ction": 606,
      "val": 607,
      "\n#": 608,
      "ER": 609,
      "s.": 610,
      "for ": 611,
      "ame": 612,
      "ver": 613,
      "and": 614,
      "ir": 615,
      "ud": 616,
      "ist": 617,
      "}\n\n": 618,
      "at ": 619,
      "__": 620,
      "Con": 621,
      "ack": 622,
      "m_": 623,
      "pl": 624,
      "al ": 625,
      "vo": 626,
      ", 0x": 627,
      "Ty": 628,
      "ata": 629,
      "int ": 630,
      "bu": 631,
      "St": 632,
      "IN": 633,
      "id ": 634,
      "size": 635,
      "Th": 636,
      "<< ": 637,
      "pro": 638,
      ",\n        ": 639,
      "ew": 640,
      "Get": 641,
      "ter": 642,
      "> ": 643,
      "mo": 644,
      "ma": 645,
      "ha": 646,
      "********": 647,
      "== ": 648,
      ";\n        ": 649,
      "_t": 650,
      "() ": 651,
      "   ": 652,
      "32": 653,
      "ip": 654,
      "ow": 655,
      "incl": 656,
      "E_": 657,
      "\", ": 658,
      "EC": 659,
      "igh": 660,
      "_s": 661,
      "Co": 662,
      "per": 663,
      "tex": 664,
      "ult": 665,
      "an ": 666,
      "ile": 667,
      "includ": 668,
      "bj": 669,
      "orm": 670,
      ";\n  ": 671,
      "be": 672,
      "po": 673,
      "_c": 674,
      "ind": 675,
      "au": 676,
      "include ": 677,
      "stat": 678,
      "s, ": 679,
      "De": 680,
      "ith": 681,
      "fo": 682,
      "ub": 683,
      "out": 684,
      "\r\n": 685,
      " *": 686,
      "age": 687,
      "ON": 688,
      "void ": 689,
      "OR": 690,
      "lock": 691,
      "ess": 692,
      "ast": 693,
      "Type": 694,
      "\" ": 695,
      "ser": 696,
      "Val": 697,
      "pr": 698,
      "ke": 699,
      "\n#include ": 700,
      "able": 701,
      "par": 702,
      "le ": 703,
      "up": 704,
      "wh": 705,
      "se ": 706,
      "our": 707,
      "+ ": 708,
      ".h": 709,
      "put": 710,
      "Str": 711,
      "ang": 712,
      "ve": 713,
      " * ": 714,
      "ic ": 715,
      "RE": 716,
      "Lo": 717,
      "s_": 718,
      "en ": 719,
      "\n{": 720,
      "e = ": 721,
      "_t ": 722,
      "dex": 723,
      "))": 724,
      "ase": 725,
      "EX": 726,
      "ren": 727,
      "ign": 728,
      "////////": 729,
      "( ": 730,
      "qu": 731,
      "AL": 732,
      "ase ": 733,
      "type": 734,
      "ent ": 735,
      "En": 736,
      "rom": 737,
      "es ": 738,
      "_f": 739,
      "tion": 740,
      "0.": 741,
      "gr": 742,
      "_b": 743,
      "0, ": 744,
      "add": 745,
      "o ": 746,
      "ment": 747,
      "{\n        ": 748,
      "om": 749,
      "cr": 750,
      "as ": 751,
      "Ex": 752,
      "========": 753,
      "();\n": 754,
      "Ch": 755,
      "sion": 756,
      "ST": 757,
      "_m": 758,
      "text": 759,
      "it ": 760,
      "ol ": 761,
      "ector": 762,
      "\t\t\t\t": 763,
      "), ": 764,
      "Ar": 765,
      "that ": 766,
      "(), ": 767,
      "der": 768,
      "act": 769,
      "arg": 770,
      "Pro": 771,
      "fal": 772,
      "od": 773,
      "Set": 774,
      "est": 775,
      "with": 776,
      "sh": 777,
      "ib": 778,
      "s(": 779,
      ";\r": 780,
      "ec": 781,
      ">(": 782,
      " the ": 783,
      "ode": 784,
      "ine": 785,
      "64": 786,
      "++": 787,
      "AT": 788,
      "data": 789,
      "To": 790,
      "di": 791,
      "false": 792,
      "\\n": 793,
      "ans": 794,
      "case ": 795,
      "ror": 796,
      "def": 797,
      "ak": 798,
      "ate ": 799,
      "AS": 800,
      "Op": 801,
      "ffer": 802,
      ") {\n        ": 803,
      "Po": 804,
      "are ": 805,
      ")\n        ": 806,
      "auto ": 807,
      "loc": 808,
      "CH": 809,
      "\n    // ": 810,
      "AR": 811,
      "que": 812,
      "EN": 813,
      "1, ": 814,
      "ation ": 815,
      "ure": 816,
      "l ": 817,
      "Tr": 818,
      "Ad": 819,
      "ID": 820,
      "- ": 821,
      "ach": 822,
      "value": 823,
      "this": 824,
      "t(": 825,
      "mm": 826,
      "Un": 827,
      "inter": 828,
      "ath": 829,
      "of the ": 830,
      "bool ": 831,
      "por": 832,
      "new": 833,
      "ime": 834,
      "string": 835,
      "of": 836,
      "Par": 837,
      "comp": 838,
      "UL": 839,
      "ial": 840,
      "ace": 841,
      "The ": 842,
      "num": 843,
      "true": 844,
      "typ": 845,
      "\n// ": 846,
      "bject": 847,
      "ition": 848,
      "s[": 849,
      "read": 850,
      "ull": 851,
      "nam": 852,
      "form": 853,
      "16": 854,
      "ix": 855,
      "be ": 856,
      "pp": 857,
      "sign": 858,
      "!= ": 859,
      "uint": 860,
      "ce ": 861,
      "String": 862,
      "char": 863,
      "\n  // ": 864,
      "ator": 865,
      "ight": 866,
      "ES": 867,
      "}\n    ": 868,
      "Res": 869,
      "wor": 870,
      "AN": 871,
      " (": 872,
      ".get": 873,
      "0000": 874,
      "Bu": 875,
      "_in": 876,
      "ain": 877,
      "ext": 878,
      "\n#include \"": 879,
      "\n\t\t\t": 880,
      "\t\t\t": 881,
      "s::": 882,
      "s = ": 883,
      "Data": 884,
      "rit": 885,
      ") {\n    ": 886,
      "12": 887,
      "ve ": 888,
      "\n\n": 889,
      "ity": 890,
      "Value": 891,
      "on ": 892,
      "name": 893,
      "for (": 894,
      "10": 895,
      "->get": 896,
      "ice": 897,
      "ount": 898,
      "] = ": 899,
      "stru": 900,
      "cal": 901,
      "&& ": 902,
      "atch": 903,
      "IT": 904,
      "from": 905,
      "_S": 906,
      "ptr": 907,
      "low": 908,
      ")\n{": 909,
      ")\n    ": 910,
      "red": 911,
      "row": 912,
      "mpl": 913,
      "ine ": 914,
      "eck": 915,
      "20": 916,
      "cur": 917,
      "t = ": 918,
      "ray": 919,
      "Add": 920,
      "not ": 921,
      "he": 922,
      "ly ": 923,
      ");\n            ": 924,
      "EXP": 925,
      "Al": 926,
      ". ": 927,
      "vi": 928,
      "ost": 929,
      "h ": 930,
      "cre": 931,
      "unction": 932,
      "_C": 933,
      "TR": 934,
      "const": 935,
      ");\n}\n\n": 936,
      "the": 937,
      "Info": 938,
      " = 0": 939,
      "ot": 940,
      "25": 941,
      "} ": 942,
      "if (!": 943,
      "else ": 944,
      "LO": 945,
      "this ": 946,
      "_l": 947,
      "ED": 948,
      ");\n      ": 949,
      ", \"": 950,
      "ant": 951,
      "ev": 952,
      "\n//": 953,
      "(const ": 954,
      "ive": 955,
      "Is": 956,
      "ream": 957,
      "ass": 958,
      ";\n}\n\n": 959,
      "gin": 960,
      "col": 961,
      "0 ": 962,
      "ECT_": 963,
      "0,": 964,
      "rent": 965,
      "vector": 966,
      "\\n\"": 967,
      "Cl": 968,
      "Id": 969,
      "node": 970,
      "].": 971,
      "bre": 972,
      "art": 973,
      "out ": 974,
      "with ": 975,
      "by ": 976,
      "| ": 977,
      "L_": 978,
      ";\n\t": 979,
      "ush": 980,
      "ail": 981,
      ".h\"": 982,
      "}\n        ": 983,
      ");\n\t": 984,
      "in the ": 985,
      "<< \"": 986,
      "TH": 987,
      "ader": 988,
      "ra": 989,
      "key": 990,
      "Name": 991,
      "().": 992,
      ";\n            ": 993,
      "TI": 994,
      "oub": 995,
      "i ": 996,
      "ue ": 997,
      "test": 998,
      "1 ": 999,
      "crip": 1000,
      "EXPECT_": 1001,
      "iel": 1002,
      "EQ": 1003,
      ",\n    ": 1004,
      "break": 1005,
      "ULL": 1006,
      "ffset": 1007,
      "ens": 1008,
      "Col": 1009,
      "\")": 1010,
      "ref": 1011,
      "cess": 1012,
      "] ": 1013,
      "Test": 1014,
      "Im": 1015,
      "k ": 1016,
      "sy": 1017,
      "Reg": 1018,
      ") {\n  ": 1019,
      "())": 1020,
      "Er": 1021,
      "\n#include <": 1022,
      "1.": 1023,
      "tx": 1024,
      "{ ": 1025,
      "ener": 1026,
      "param": 1027,
      "\n * ": 1028,
      "NULL": 1029,
      "ance": 1030,
      "OS": 1031,
      "cont": 1032,
      "ame ": 1033,
      "eth": 1034,
      "ne": 1035,
      "(p": 1036,
      "_d": 1037,
      "Size": 1038,
      "Node": 1039,
      "/ ": 1040,
      "lag": 1041,
      "vice": 1042,
      "ory": 1043,
      "ace ": 1044,
      ");\n\n    ": 1045,
      "reg": 1046,
      "null": 1047,
      "IS": 1048,
      "ild": 1049,
      "fil": 1050,
      "back": 1051,
      "result": 1052,
      "ound": 1053,
      "Se": 1054,
      "Ke": 1055,
      "rc": 1056,
      "use": 1057,
      "flo": 1058,
      "for": 1059,
      "cep": 1060,
      "AC": 1061,
      "Object": 1062,
      "quest": 1063,
      "index": 1064,
      "map": 1065,
      "string ": 1066,
      "19": 1067,
      "}\n  ": 1068,
      "del": 1069,
      "RO": 1070,
      "s.</w>": 1071,
      "static ": 1072,
      "sp": 1073,
      "error": 1074,
      "ong": 1075,
      "we": 1076,
      "oul": 1077,
      "'s ": 1078,
      "eng": 1079,
      "trans": 1080,
      "cond": 1081,
      "oc": 1082,
      "1,": 1083,
      "stem": 1084,
      "ash": 1085,
      "file": 1086,
      "ECK": 1087,
      "CHECK": 1088,
      "}\n\n    ": 1089,
      "sc": 1090,
      "ide": 1091,
      "ASS": 1092,
      "code": 1093,
      "E ": 1094,
      "s and ": 1095,
      "ource": 1096,
      "er_": 1097,
      "(c": 1098,
      "An": 1099,
      "ield": 1100,
      "_F": 1101,
      "port": 1102,
      "doub": 1103,
      "Index": 1104,
      "we ": 1105,
      "IL": 1106,
      "ast<": 1107,
      "\" << ": 1108,
      "block": 1109,
      "ere ": 1110,
      "T ": 1111,
      "->Get": 1112,
      "iter": 1113,
      "Block": 1114,
      "\n *": 1115,
      "vector<": 1116,
      "s of ": 1117,
      "max": 1118,
      "min": 1119,
      "log": 1120,
      "su": 1121,
      "ord": 1122,
      "AM": 1123,
      "_P": 1124,
      "ui": 1125,
      "action": 1126,
      "DE": 1127,
      "indow": 1128,
      "lement": 1129,
      "Key": 1130,
      "Sy": 1131,
      "pec": 1132,
      "_M": 1133,
      "ient": 1134,
      "Param": 1135,
      "esp": 1136,
      "..": 1137,
      "Hand": 1138,
      "[i": 1139,
      "*/": 1140,
      "go": 1141,
      "15": 1142,
      "unsign": 1143,
      "();\n    ": 1144,
      "oth": 1145,
      "fig": 1146,
      "s to ": 1147,
      "new ": 1148,
      "rame": 1149,
      "File": 1150,
      "E(": 1151,
      "AD": 1152,
      "UN": 1153,
      "comm": 1154,
      "Stat": 1155,
      "ard": 1156,
      "\", \"": 1157,
      "begin": 1158,
      "ity ": 1159,
      "pa": 1160,
      "return": 1161,
      "av": 1162,
      ";\n      ": 1163,
      "ubl": 1164,
      "18": 1165,
      "ber": 1166,
      "\\\"": 1167,
      "writ": 1168,
      "_cast<": 1169,
      "nullptr": 1170,
      "push": 1171,
      "fir": 1172,
      "14": 1173,
      "ari": 1174,
      "Arg": 1175,
      "_back": 1176,
      ");\n\n  ": 1177,
      "ange": 1178,
      "He": 1179,
      "ire": 1180,
      "ive ": 1181,
      "<<": 1182,
      "state": 1183,
      "Sh": 1184,
      "ask": 1185,
      "have ": 1186,
      "from ": 1187,
      "ill ": 1188,
      "c_": 1189,
      "able ": 1190,
      "ight ": 1191,
      "[0": 1192,
      "pres": 1193,
      "IC": 1194,
      "amp": 1195,
      "_T": 1196,
      "Gr": 1197,
      "Cre": 1198,
      "er::": 1199,
      " to ": 1200,
      "essage": 1201,
      "ould ": 1202,
      "Error": 1203,
      "As": 1204,
      "((": 1205,
      "ed_": 1206,
      "one": 1207,
      "IG": 1208,
      "Comp": 1209,
      "cript": 1210,
      "ax": 1211,
      "use ": 1212,
      "pre": 1213,
      "arget": 1214,
      "{\n            ": 1215,
      "th ": 1216,
      ".h\"\n#include \"": 1217,
      "_type": 1218,
      "io": 1219,
      "MP": 1220,
      "all ": 1221,
      "clas": 1222,
      "17": 1223,
      "          ": 1224,
      "13": 1225,
      "\r\n    ": 1226,
      ";\n\n    ": 1227,
      "du": 1228,
      "NO": 1229,
      "Num": 1230,
      "try": 1231,
      "(s": 1232,
      "ree": 1233,
      "this->": 1234,
      "ies ": 1235,
      "namesp": 1236,
      "pos": 1237,
      "nect": 1238,
      "unsigned ": 1239,
      "_r": 1240,
      "are": 1241,
      "dis": 1242,
      "{\n\t\t": 1243,
      "Ver": 1244,
      "_h": 1245,
      "Out": 1246,
      "f, ": 1247,
      "List": 1248,
      "At": 1249,
      "emp": 1250,
      "nel": 1251,
      "ies": 1252,
      "mem": 1253,
      "time": 1254,
      "if(": 1255,
      "(&": 1256,
      "ll": 1257,
      "UR": 1258,
      "ASSER": 1259,
      "pu": 1260,
      "ct ": 1261,
      "Vector": 1262,
      "icen": 1263,
      "buffer": 1264,
      "\r\n        ": 1265,
      "tim": 1266,
      "base": 1267,
      "Inter": 1268,
      "EQ(": 1269,
      "can ": 1270,
      "} else ": 1271,
      "2.": 1272,
      "|| ": 1273,
      ";\r\n": 1274,
      "p ": 1275,
      "{\n    ": 1276,
      "ment ": 1277,
      "         ": 1278,
      "af": 1279,
      "OP": 1280,
      "li": 1281,
      "BU": 1282,
      "ault": 1283,
      "()->": 1284,
      "work": 1285,
      "now": 1286,
      ", &": 1287,
      "Trans": 1288,
      "ted ": 1289,
      "Mode": 1290,
      "AG": 1291,
      "pect": 1292,
      "Typ": 1293,
      "Pr": 1294,
      "0)": 1295,
      "/* ": 1296,
      "eter": 1297,
      "ph": 1298,
      "ar ": 1299,
      "State": 1300,
      ";\n\t\t": 1301,
      "else": 1302,
      "oper": 1303,
      "BO": 1304,
      "ore ": 1305,
      "24": 1306,
      "();\n  ": 1307,
      "Pl": 1308,
      ")\n{\n    ": 1309,
      "_id": 1310,
      "}\n\n  ": 1311,
      "ad ": 1312,
      "mb": 1313,
      "def ": 1314,
      "Array": 1315,
      "ated ": 1316,
      ", s": 1317,
      "allet": 1318,
      "ary": 1319,
      "std::vector<": 1320,
      "ces": 1321,
      "age ": 1322,
      "ust": 1323,
      "ure ": 1324,
      "lect": 1325,
      "do": 1326,
      ") {\n      ": 1327,
      "vent": 1328,
      "+= ": 1329,
      "boost": 1330,
      " == ": 1331,
      "check": 1332,
      "input": 1333,
      "ize ": 1334,
      "ence": 1335,
      "cop": 1336,
      "publ": 1337,
      "anag": 1338,
      "push_back": 1339,
      " + ": 1340,
      "2, ": 1341,
      ",\n      ": 1342,
      "Buffer": 1343,
      "ERR": 1344,
      ");\n\t\t": 1345,
      "static": 1346,
      "gl": 1347,
      "namespace ": 1348,
      ">\n#include <": 1349,
      "size_t ": 1350,
      "ect ": 1351,
      ".\n  ": 1352,
      "ok": 1353,
      "Map": 1354,
      "ge": 1355,
      "our ": 1356,
      "On": 1357,
      " = 0; ": 1358,
      "Context": 1359,
      ", const ": 1360,
      "offset": 1361,
      ", and ": 1362,
      "will ": 1363,
      "], ": 1364,
      "ch ": 1365,
      "US": 1366,
      "Int": 1367,
      "           ": 1368,
      "Ptr": 1369,
      "Def": 1370,
      "output": 1371,
      "d_": 1372,
      "Ser": 1373,
      "void": 1374,
      "dat": 1375,
      "99": 1376,
      "err": 1377,
      "lob": 1378,
      "type ": 1379,
      "one ": 1380,
      "Check": 1381,
      "AB": 1382,
      "             ": 1383,
      "obj": 1384,
      "ion ": 1385,
      "stream": 1386,
      "Py": 1387,
      "print": 1388,
      ",  ": 1389,
      "LE": 1390,
      "Call": 1391,
      ".size": 1392,
      "over": 1393,
      "};\n": 1394,
      "ING": 1395,
      "using ": 1396,
      "ly": 1397,
      "to the ": 1398,
      "ress": 1399,
      "sg": 1400,
      "was ": 1401,
      "d = ": 1402,
      "->set": 1403,
      "sub": 1404,
      "nal": 1405,
      "aph": 1406,
      "_ptr": 1407,
      "AP": 1408,
      "\n\t\t\t\t": 1409,
      "templ": 1410,
      "Bo": 1411,
      "uint32": 1412,
      "ifi": 1413,
      ");\r": 1414,
      "Create": 1415,
      "ethod": 1416,
      "whic": 1417,
      "pon": 1418,
      "ell": 1419,
      "This ": 1420,
      "YP": 1421,
      "com": 1422,
      "class ": 1423,
      "OF": 1424,
      "ort": 1425,
      "tw": 1426,
      "(*": 1427,
      "ength": 1428,
      "OD": 1429,
      "function": 1430,
      "std::string ": 1431,
      "option": 1432,
      "ill": 1433,
      "ument": 1434,
      "Ref": 1435,
      "2 ": 1436,
      "ir ": 1437,
      "s/": 1438,
      "Log": 1439,
      "Text": 1440,
      "de ": 1441,
      "Or": 1442,
      "Time": 1443,
      "11": 1444,
      "tp": 1445,
      "endif": 1446,
      "typen": 1447,
      "init": 1448,
      "sert(": 1449,
      "ensor": 1450,
      "context": 1451,
      "son": 1452,
      "_re": 1453,
      "/*": 1454,
      "ou ": 1455,
      "For": 1456,
      "Mem": 1457,
      "_D": 1458,
      ");\n\n        ": 1459,
      "boost::": 1460,
      "oup": 1461,
      "From": 1462,
      "move": 1463,
      "     ": 1464,
      "ile ": 1465,
      "Oper": 1466,
      "raw": 1467,
      "_N": 1468,
      "ayer": 1469,
      "S ": 1470,
      "ock": 1471,
      "object": 1472,
      "mu": 1473,
      "so ": 1474,
      "point": 1475,
      "array": 1476,
      "Des": 1477,
      "Ite": 1478,
      "Function": 1479,
      "\",": 1480,
      "ep": 1481,
      "std::string": 1482,
      "return false": 1483,
      "By": 1484,
      "typename ": 1485,
      "struct": 1486,
      "date": 1487,
      "cle": 1488,
      "              ": 1489,
      "23": 1490,
      "double ": 1491,
      "ial ": 1492,
      "x ": 1493,
      ",0x": 1494,
      "New": 1495,
      ".\n    ": 1496,
      "trol": 1497,
      "Item": 1498,
      "view": 1499,
      "Inst": 1500,
      "ted": 1501,
      "has ": 1502,
      "idth": 1503,
      "which ": 1504,
      "sw": 1505,
      "cp": 1506,
      "mat": 1507,
      "Ac": 1508,
      "A ": 1509,
      "1)": 1510,
      "push_back(": 1511,
      "();\n        ": 1512,
      "any ": 1513,
      "br": 1514,
      "Event": 1515,
      "ibu": 1516,
      "la": 1517,
      "count": 1518,
      "ob": 1519,
      "load": 1520,
      "ception": 1521,
      "Comm": 1522,
      "Obj": 1523,
      "Input": 1524,
      "ally ": 1525,
      "GL": 1526,
      "abel": 1527,
      "Vi": 1528,
      "Attr": 1529,
      "EXPECT_EQ(": 1530,
      "plic": 1531,
      "? ": 1532,
      "hand": 1533,
      "(); ": 1534,
      "oug": 1535,
      "ION": 1536,
      "by": 1537,
      "Mod": 1538,
      "inst": 1539,
      "second": 1540,
      "ca": 1541,
      "start": 1542,
      "own": 1543,
      "tic": 1544,
      "its ": 1545,
      "ink": 1546,
      "0.0": 1547,
      "Cur": 1548,
      "ler": 1549,
      "Writ": 1550,
      "Up": 1551,
      "Mat": 1552,
      "CP": 1553,
      "_de": 1554,
      "fe": 1555,
      "},": 1556,
      "Licen": 1557,
      "_po": 1558,
      ">::": 1559,
      "Init": 1560,
      "alloc": 1561,
      "FF": 1562,
      "());\n  ": 1563,
      "lev": 1564,
      "s the ": 1565,
      "\n   ": 1566,
      "C_": 1567,
      "ample": 1568,
      "T(": 1569,
      "line ": 1570,
      "ter ": 1571,
      "());\n    ": 1572,
      "net": 1573,
      "IM": 1574,
      "s are ": 1575,
      ".Get": 1576,
      "order": 1577,
      "float": 1578,
      "::S": 1579,
      "sha": 1580,
      "spec": 1581,
      "line": 1582,
      "i < ": 1583,
      "28": 1584,
      "y, ": 1585,
      "info": 1586,
      "Point": 1587,
      "app": 1588,
      "ing the ": 1589,
      "enc": 1590,
      "static_cast<": 1591,
      "und": 1592,
      "               ": 1593,
      "ant ": 1594,
      "face": 1595,
      " is ": 1596,
      "5, ": 1597,
      "_v": 1598,
      "Flag": 1599,
      "og": 1600,
      "OST_": 1601,
      "umn": 1602,
      "of(": 1603,
      "bug": 1604,
      "View": 1605,
      "[1": 1606,
      "d to ": 1607,
      "Regist": 1608,
      "ache": 1609,
      " of ": 1610,
      "IP": 1611,
      "ution": 1612,
      "Window": 1613,
      "valid": 1614,
      "Ret": 1615,
      "}\n\t": 1616,
      "make": 1617,
      "connect": 1618,
      "CO": 1619,
      "'t ": 1620,
      ".\n": 1621,
      "define ": 1622,
      "can": 1623,
      "fr": 1624,
      "INT": 1625,
      "}\n}\n\n": 1626,
      "S_": 1627,
      "SE": 1628,
      "Form": 1629,
      "int32": 1630,
      "item": 1631,
      "\r\n\t": 1632,
      "(m": 1633,
      " and ": 1634,
      "unc": 1635,
      "int i": 1636,
      "_to": 1637,
      "src": 1638,
      "() == ": 1639,
      "Dis": 1640,
      "call": 1641,
      "BOOST_": 1642,
      "ule": 1643,
      "ide ": 1644,
      "VER": 1645,
      "config": 1646,
      "imit": 1647,
      "main": 1648,
      "Message": 1649,
      "System": 1650,
      "EXT": 1651,
      "fl": 1652,
      "_.": 1653,
      "Type::": 1654,
      "OR ": 1655,
      "{\n      ": 1656,
      "ded": 1657,
      "long": 1658,
      "is_": 1659,
      "Type ": 1660,
      "ical ": 1661,
      "100": 1662,
      "valu": 1663,
      "db": 1664,
      "Cop": 1665,
      "ay ": 1666,
      "*)": 1667,
      "33": 1668,
      "ie": 1669,
      "}\n\n        ": 1670,
      "you ": 1671,
      "ary ": 1672,
      "rix": 1673,
      "dr": 1674,
      "x, ": 1675,
      "Cont": 1676,
      "Image": 1677,
      "coun": 1678,
      "Sub": 1679,
      "Code": 1680,
      "default": 1681,
      "MA": 1682,
      ";\n\n  ": 1683,
      "ual": 1684,
      "buf": 1685,
      "Base": 1686,
      "us ": 1687,
      ").": 1688,
      "TRU": 1689,
      ":\n        ": 1690,
      "vm": 1691,
      "Handle": 1692,
      "t_": 1693,
      "Bit": 1694,
      "temp": 1695,
      "ed(": 1696,
      "gener": 1697,
      "}\r\n": 1698,
      "version": 1699,
      "me": 1700,
      "current": 1701,
      "\");\n    ": 1702,
      "));\n    ": 1703,
      "gram": 1704,
      "ger": 1705,
      "Path": 1706,
      "their ": 1707,
      "ttp": 1708,
      "-1": 1709,
      "ension": 1710,
      "ed to ": 1711,
      "level": 1712,
      "expect": 1713,
      "ult ": 1714,
      "float ": 1715,
      "sel": 1716,
      "ear": 1717,
      "Result": 1718,
      "list": 1719,
      "s in ": 1720,
      "auto": 1721,
      "_size": 1722,
      ", the ": 1723,
      "Frame": 1724,
      "dy": 1725,
      " */": 1726,
      "ific": 1727,
      "ark": 1728,
      "Manag": 1729,
      "more ": 1730,
      "D_": 1731,
      "ator ": 1732,
      "26": 1733,
      "Pa": 1734,
      "create": 1735,
      "sl": 1736,
      "(f": 1737,
      "ins": 1738,
      "EST_": 1739,
      "struct ": 1740,
      "ASSERT_": 1741,
      "_data": 1742,
      "29": 1743,
      "_w": 1744,
      "cor": 1745,
      "ta": 1746,
      "util": 1747,
      "27": 1748,
      "path": 1749,
      "Loc": 1750,
      "ance ": 1751,
      "ick": 1752,
      "request": 1753,
      "attr": 1754,
      "event": 1755,
      "let": 1756,
      "34": 1757,
      "_name": 1758,
      "Offset": 1759,
      "Option": 1760,
      "}, ": 1761,
      "defin": 1762,
      "ded ": 1763,
      "If ": 1764,
      "TION": 1765,
      ">\n": 1766,
      "nc": 1767,
      ",\n            ": 1768,
      "vir": 1769,
      "Max": 1770,
      "' ": 1771,
      "30": 1772,
      "Table": 1773,
      "ting": 1774,
      "50": 1775,
      "know": 1776,
      "addr": 1777,
      "Request": 1778,
      "other ": 1779,
      "Count": 1780,
      "Field": 1781,
      "____": 1782,
      "Sp": 1783,
      "ence ": 1784,
      "but ": 1785,
      "\n{\n    ": 1786,
      "wallet": 1787,
      "rect": 1788,
      ".end": 1789,
      "ERROR": 1790,
      "We": 1791,
      "s->": 1792,
      "2,": 1793,
      "may ": 1794,
      "er.": 1795,
      "\n          ": 1796,
      ")\n            ": 1797,
      "lection": 1798,
      ":\n    ": 1799,
      "bit": 1800,
      "Copy": 1801,
      "target": 1802,
      "Y ": 1803,
      "system": 1804,
      "get_": 1805,
      "      ": 1806,
      "Pos": 1807,
      "return true": 1808,
      "ys": 1809,
      ", 0x00": 1810,
      "_pro": 1811,
      "child": 1812,
      "itch": 1813,
      "Read": 1814,
      "run": 1815,
      "Stream": 1816,
      "Const": 1817,
      "er the ": 1818,
      ".begin": 1819,
      "IF": 1820,
      "right ": 1821,
      "); ": 1822,
      "PC": 1823,
      " s": 1824,
      "requ": 1825,
      "Model": 1826,
      "ke ": 1827,
      "sizeof(": 1828,
      "thread": 1829,
      "end ": 1830,
      ".f": 1831,
      "Color": 1832,
      "ber ": 1833,
      "s that ": 1834,
      "\n\t{\n\t\t": 1835,
      "ken": 1836,
      "edi": 1837,
      " = 0; i < ": 1838,
      "ender": 1839,
      "00000000": 1840,
      "With": 1841,
      "CL": 1842,
      "CON": 1843,
      "for the ": 1844,
      "struction": 1845,
      "UI": 1846,
      "ish": 1847,
      "first": 1848,
      "Gui": 1849,
      "ite": 1850,
      "EL": 1851,
      "_B": 1852,
      "empty": 1853,
      "only ": 1854,
      "86": 1855,
      "etr": 1856,
      "0, 0, ": 1857,
      "::k": 1858,
      "Run": 1859,
      "200": 1860,
      "\r\n\t\t": 1861,
      "##": 1862,
      "til": 1863,
      ";\n    }\n    ": 1864,
      ">= ": 1865,
      "UT": 1866,
      "impl": 1867,
      "));\n  ": 1868,
      "int64": 1869,
      "old": 1870,
      "Act": 1871,
      "37": 1872,
      "annel": 1873,
      "write": 1874,
      "lobal": 1875,
      ".hpp": 1876,
      "x_": 1877,
      "Element": 1878,
      "les": 1879,
      "80": 1880,
      "ont": 1881,
      "printf": 1882,
      "rec": 1883,
      " = (": 1884,
      "ature": 1885,
      "OL": 1886,
      "det": 1887,
      "ormal": 1888,
      ") == ": 1889,
      "ere": 1890,
      "%s": 1891,
      "tes": 1892,
      ";\n\t\t\t": 1893,
      "has": 1894,
      "_py": 1895,
      "pol": 1896,
      "md": 1897,
      "Qu": 1898,
      "ld": 1899,
      "No": 1900,
      "LOG": 1901,
      ", S": 1902,
      "uc": 1903,
      "ton": 1904,
      "expr": 1905,
      "D ": 1906,
      "fin": 1907,
      "arch": 1908,
      "assert(": 1909,
      "od ": 1910,
      "ual ": 1911,
      "mis": 1912,
      "ero": 1913,
      "should ": 1914,
      "40": 1915,
      "ilder": 1916,
      "Y_": 1917,
      "ound ": 1918,
      "Gener": 1919,
      "not": 1920,
      "ated": 1921,
      "}\n            ": 1922,
      "Of": 1923,
      "sed ": 1924,
      "\t\t\t\t\t": 1925,
      "Device": 1926,
      "file ": 1927,
      "when ": 1928,
      "  // ": 1929,
      "rel": 1930,
      "while ": 1931,
      "ait": 1932,
      "put ": 1933,
      "JS": 1934,
      "OK": 1935,
      "ers ": 1936,
      "Proper": 1937,
      "[0]": 1938,
      "contin": 1939,
      "3, ": 1940,
      "[i]": 1941,
      "lem": 1942,
      "(i": 1943,
      "y_": 1944,
      "STR": 1945,
      "throw": 1946,
      "status": 1947,
      "36": 1948,
      "();\n}\n\n": 1949,
      "Format": 1950,
      "Fe": 1951,
      "Value ": 1952,
      "addres": 1953,
      "Be": 1954,
      "i++": 1955,
      "value ": 1956,
      "Config": 1957,
      "CC": 1958,
      "ore": 1959,
      "rap": 1960,
      "they ": 1961,
      "sup": 1962,
      "Decl": 1963,
      "double": 1964,
      "_index": 1965,
      "mod": 1966,
      "Ed": 1967,
      "\n            \"": 1968,
      "local": 1969,
      "imp": 1970,
      "sed": 1971,
      "(S": 1972,
      "eff": 1973,
      "DB": 1974,
      "__py": 1975,
      "ImGui": 1976,
      ";\n\n        ": 1977,
      "IR": 1978,
      "PRO": 1979,
      ",\n": 1980,
      "Di": 1981,
      "element": 1982,
      "ices": 1983,
      "play": 1984,
      "Au": 1985,
      "ers": 1986,
      "than ": 1987,
      "tmp": 1988,
      "core": 1989,
      "Wh": 1990,
      "Output": 1991,
      "Min": 1992,
      "56": 1993,
      "Te": 1994,
      "EM": 1995,
      "ponse": 1996,
      "proto": 1997,
      "ibute": 1998,
      ";\n    }\n\n    ": 1999,
      "dim": 2000,
      "::get": 2001,
      "_info": 2002,
      "aw": 2003,
      "Fil": 2004,
      ", p": 2005,
      "39": 2006,
      "Tim": 2007,
      "os": 2008,
      "c_str": 2009,
      "ef": 2010,
      "urn": 2011,
      "_RE": 2012,
      "_par": 2013,
      "Rec": 2014,
      "hash": 2015,
      "des": 2016,
      "arr": 2017,
      "Tx": 2018,
      "#endif": 2019,
      "on the ": 2020,
      "ative": 2021,
      "_n": 2022,
      "hel": 2023,
      "template ": 2024,
      "endl": 2025,
      "window": 2026,
      "ializ": 2027,
      "Write": 2028,
      ") { ": 2029,
      "vari": 2030,
      "s.size": 2031,
      "_H": 2032,
      "||": 2033,
      "_->": 2034,
      "fa": 2035,
      "cons": 2036,
      "77": 2037,
      "Action": 2038,
      "TRUE(": 2039,
      "LI": 2040,
      "\n#define ": 2041,
      "flag": 2042,
      "88": 2043,
      "bl": 2044,
      "LOC": 2045,
      "_ptr<": 2046,
      "ome ": 2047,
      "::Get": 2048,
      "ice ": 2049,
      "graph": 2050,
      "ole": 2051,
      ", 0x0": 2052,
      "++i": 2053,
      "delet": 2054,
      "Thread": 2055,
      "vis": 2056,
      "TEST_": 2057,
      "Ap": 2058,
      "hape": 2059,
      "Am": 2060,
      ");\n\t\t\t": 2061,
      "ET": 2062,
      "ique": 2063,
      "data ": 2064,
      "35": 2065,
      "., ": 2066,
      "Hel": 2067,
      "Line": 2068,
      "(C": 2069,
      "TE": 2070,
      "model": 2071,
      "(r": 2072,
      "inline ": 2073,
      "Status": 2074,
      " m": 2075,
      "thr": 2076,
      "_st": 2077,
      "ute": 2078,
      "Impl": 2079,
      "(\n        ": 2080,
      "Render": 2081,
      "Control": 2082,
      "vec": 2083,
      "loat": 2084,
      "dep": 2085,
      "yp": 2086,
      "tern": 2087,
      "TYP": 2088,
      "image": 2089,
      "___": 2090,
      "LL": 2091,
      "ese ": 2092,
      "[[": 2093,
      "Del": 2094,
      "_string": 2095,
      "qual": 2096,
      "&&": 2097,
      "ayout": 2098,
      ">>": 2099,
      "ernel": 2100,
      "s[i": 2101,
      "Local": 2102,
      "oftw": 2103,
      "itor": 2104,
      "IZ": 2105,
      "<< \" ": 2106,
      "cope": 2107,
      "do ": 2108,
      "no ": 2109,
      "public": 2110,
      "VAL": 2111,
      "esh": 2112,
      "mode": 2113,
      "a_": 2114,
      "\");\n  ": 2115,
      "K_": 2116,
      "ulti": 2117,
      "[2": 2118,
      "44": 2119,
      "X_": 2120,
      "arn": 2121,
      "(n": 2122,
      "coin": 2123,
      "e the ": 2124,
      "cpp": 2125,
      "Sk": 2126,
      "lef": 2127,
      "uint8": 2128,
      "\\x": 2129,
      "your ": 2130,
      "uint32_t ": 2131,
      ".set": 2132,
      "38": 2133,
      "3 ": 2134,
      "dst": 2135,
      "right": 2136,
      "Pre": 2137,
      "sk": 2138,
      "/// ": 2139,
      ".push_back(": 2140,
      "Coun": 2141,
      "\n#if": 2142,
      "PP": 2143,
      "tal": 2144,
      ";\r\n    ": 2145,
      "ise": 2146,
      "stud": 2147,
      "}\n\n\t": 2148,
      "55": 2149,
      "And": 2150,
      "Per": 2151,
      "bet": 2152,
      " < ": 2153,
      "first ": 2154,
      "leg": 2155,
      ">> ": 2156,
      "));\n        ": 2157,
      "part": 2158,
      "idx": 2159,
      "3,": 2160,
      "Target": 2161,
      "llvm": 2162,
      ");\n}\n\nvoid ": 2163,
      ") + ": 2164,
      "group": 2165,
      "with the ": 2166,
      "Class": 2167,
      "entry": 2168,
      "sz": 2169,
      "<= ": 2170,
      "internal": 2171,
      "Method": 2172,
      "ml": 2173,
      "ses": 2174,
      "text::": 2175,
      "Version": 2176,
      "_1": 2177,
      "ocket": 2178,
      "66": 2179,
      "top": 2180,
      "copy": 2181,
      "Wor": 2182,
      "chang": 2183,
      "also ": 2184,
      "Not": 2185,
      "());\n        ": 2186,
      "http": 2187,
      "boost::text::": 2188,
      "------------": 2189,
      "ake": 2190,
      "um ": 2191,
      "ify": 2192,
      "org": 2193,
      "ous ": 2194,
      "_g": 2195,
      "igin": 2196,
      "Hash": 2197,
      "{\"": 2198,
      "must ": 2199,
      "sert": 2200,
      "pc": 2201,
      "CHECK(": 2202,
      ")\n      ": 2203,
      "ical": 2204,
      "Alloc": 2205,
      "ory ": 2206,
      "onent": 2207,
      "er, ": 2208,
      "String ": 2209,
      "been ": 2210,
      "lu": 2211,
      ")\n\t\t": 2212,
      ".m": 2213,
      "transaction": 2214,
      "ject": 2215,
      "Load": 2216,
      "_IN": 2217,
      ";\n\n": 2218,
      "RES": 2219,
      "256": 2220,
      "const char": 2221,
      "utton": 2222,
      "Valid": 2223,
      "))\n        ": 2224,
      "er(": 2225,
      "ave": 2226,
      "ALL": 2227,
      "were ": 2228,
      "_error": 2229,
      "Start": 2230,
      "In ": 2231,
      "ery": 2232,
      "Vari": 2233,
      "Net": 2234,
      ");\n\n\t": 2235,
      "TO": 2236,
      "5,": 2237,
      " - ": 2238,
      "Print": 2239,
      "them": 2240,
      "Parameter": 2241,
      "sor": 2242,
      "continue": 2243,
      "OF ": 2244,
      "a, ": 2245,
      "man": 2246,
      "ibut": 2247,
      "public ": 2248,
      "UM": 2249,
      "frame": 2250,
      "es, ": 2251,
      "T, ": 2252,
      "90": 2253,
      " != ": 2254,
      "),": 2255,
      "3D": 2256,
      "*>(": 2257,
      ")\n  ": 2258,
      "->Set": 2259,
      "high": 2260,
      "48": 2261,
      "ov": 2262,
      "4, ": 2263,
      "lib": 2264,
      "Sc": 2265,
      "produ": 2266,
      "ceiv": 2267,
      "header": 2268,
      "len": 2269,
      "s for ": 2270,
      "DO": 2271,
      "dest": 2272,
      "contain": 2273,
      "field": 2274,
      "_value": 2275,
      "last": 2276,
      ");\n\n  // ": 2277,
      "entr": 2278,
      "Matrix": 2279,
      "fol": 2280,
      "Connect": 2281,
      "length": 2282,
      "Scal": 2283,
      "from the ": 2284,
      "bool": 2285,
      "cho": 2286,
      "about ": 2287,
      "/**": 2288,
      "AA": 2289,
      "Vis": 2290,
      "Expr": 2291,
      "s.h": 2292,
      "(v": 2293,
      "gen": 2294,
      "(std::": 2295,
      "distr": 2296,
      "att": 2297,
      "ialize": 2298,
      "GL_": 2299,
      "Iter": 2300,
      "End": 2301,
      "clo": 2302,
      "}\n      ": 2303,
      "exception": 2304,
      "serv": 2305,
      "refer": 2306,
      "() const ": 2307,
      "is a ": 2308,
      "\",\n        ": 2309,
      "ARR": 2310,
      "ner": 2311,
      "device": 2312,
      "STAT": 2313,
      "led ": 2314,
      "Client": 2315,
      "Do": 2316,
      "name ": 2317,
      "else if (": 2318,
      "\n    {\n        ": 2319,
      "table": 2320,
      "(0": 2321,
      "criptor": 2322,
      "mit": 2323,
      "code ": 2324,
      "Operand": 2325,
      "License": 2326,
      "Char": 2327,
      "_un": 2328,
      "70": 2329,
      "m_p": 2330,
      "Nam": 2331,
      "Wallet": 2332,
      "ww": 2333,
      "uint64": 2334,
      ") {\n\t\t": 2335,
      "::M": 2336,
      "clear": 2337,
      "FA": 2338,
      "Entry": 2339,
      "SD": 2340,
      "eric": 2341,
      "\nvoid ": 2342,
      "<<<<": 2343,
      "velo": 2344,
      "pression": 2345,
      "22": 2346,
      "76": 2347,
      "idget": 2348,
      "\");\n        ": 2349,
      "),\n        ": 2350,
      "used ": 2351,
      "json": 2352,
      "vol": 2353,
      ">& ": 2354,
      "sol": 2355,
      "(),\n        ": 2356,
      "etad": 2357,
      "ree ": 2358,
      "       ": 2359,
      ", int ": 2360,
      "anc": 2361,
      "mov": 2362,
      "open": 2363,
      "ctx": 2364,
      "{\n\t\t\t": 2365,
      "cause ": 2366,
      "switch": 2367,
      "acket": 2368,
      "number ": 2369,
      "client": 2370,
      "][": 2371,
      "actor": 2372,
      "ough ": 2373,
      ".is": 2374,
      "It ": 2375,
      "\"), ": 2376,
      "Ext": 2377,
      "flow": 2378,
      "CS": 2379,
      "Command": 2380,
      "template <": 2381,
      "tk": 2382,
      "cout ": 2383,
      "mon": 2384,
      "ude": 2385,
      "number": 2386,
      "%d": 2387,
      "exec": 2388,
      "_ = ": 2389,
      "\r\n  ": 2390,
      "ize = ": 2391,
      ");\n\n    // ": 2392,
      "ffff": 2393,
      "xx": 2394,
      "2C": 2395,
      "ard ": 2396,
      "\n\n    ": 2397,
      "We ": 2398,
      ".h>\n#include <": 2399,
      "env": 2400,
      "\n        // ": 2401,
      "1 = ": 2402,
      "throw ": 2403,
      "Dat": 2404,
      "ough": 2405,
      "width": 2406,
      "ixel": 2407,
      "Float": 2408,
      "ow ": 2409,
      "ach ": 2410,
      "78": 2411,
      "(1": 2412,
      "IO": 2413,
      "if( ": 2414,
      "port ": 2415,
      "shared": 2416,
      "46": 2417,
      "SP": 2418,
      "_W": 2419,
      "exp": 2420,
      "overr": 2421,
      "ely ": 2422,
      "Pol": 2423,
      "non": 2424,
      "ible": 2425,
      "__pyx": 2426,
      "parse": 2427,
      "art ": 2428,
      "\\n\", ": 2429,
      ";\n\t\t\t\t": 2430,
      "Debug": 2431,
      "Var": 2432,
      "time ": 2433,
      "condition": 2434,
      "(m_": 2435,
      "scal": 2436,
      "(t": 2437,
      "0,0,": 2438,
      "Group": 2439,
      "xy": 2440,
      "Property": 2441,
      "Column": 2442,
      "vert": 2443,
      "unk": 2444,
      "Process": 2445,
      "App": 2446,
      "000": 2447,
      "Source": 2448,
      ") << \"": 2449,
      "96": 2450,
      "Util": 2451,
      "word": 2452,
      "())\n        ": 2453,
      "s[0": 2454,
      "Unit": 2455,
      "abil": 2456,
      "_param": 2457,
      "led": 2458,
      "priv": 2459,
      "Default": 2460,
      "\"\n#include \"": 2461,
      "ing to ": 2462,
      ", m": 2463,
      "position": 2464,
      "eta": 2465,
      "cap": 2466,
      "template": 2467,
      "operator": 2468,
      "s of the ": 2469,
      "rent ": 2470,
      "format": 2471,
      "update": 2472,
      "way": 2473,
      "server": 2474,
      "(b": 2475,
      "CE": 2476,
      "m ": 2477,
      "Object ": 2478,
      "{}": 2479,
      "ource ": 2480,
      "Fr": 2481,
      "Range": 2482,
      ") const": 2483,
      "regist": 2484,
      "abled": 2485,
      "enu": 2486,
      "ed.": 2487,
      "Number": 2488,
      "Open": 2489,
      "ED ": 2490,
      "allow": 2491,
      "ESS": 2492,
      "32 ": 2493,
      "mark": 2494,
      "_col": 2495,
      "Box": 2496,
      "Callback": 2497,
      "Update": 2498,
      "LE_": 2499,
      "Ph": 2500,
      "s a ": 2501,
      "most ": 2502,
      "Ne": 2503,
      "loop": 2504,
      "\r\n            ": 2505,
      "aster": 2506,
      "Header": 2507,
      "255, ": 2508,
      "wx": 2509,
      "_2": 2510,
      "* p": 2511,
      "in a ": 2512,
      "channel": 2513,
      "58": 2514,
      "pret": 2515,
      "other": 2516,
      "1, 0x": 2517,
      ".begin(), ": 2518,
      "Label": 2519,
      "Copyright ": 2520,
      "Memory": 2521,
      "ENT": 2522,
      "\n      // ": 2523,
      "98": 2524,
      "ed by ": 2525,
      "ust ": 2526,
      "next": 2527,
      "Vec": 2528,
      ";\n\n\t": 2529,
      "ply": 2530,
      "_G": 2531,
      "chem": 2532,
      "into ": 2533,
      "label": 2534,
      "filter": 2535,
      "s)": 2536,
      "acc": 2537,
      "ult = ": 2538,
      "Eng": 2539,
      "ations ": 2540,
      "normal": 2541,
      "__ ": 2542,
      "Address": 2543,
      "s()": 2544,
      "cc": 2545,
      "Transaction": 2546,
      "(int ": 2547,
      "4 ": 2548,
      "1.0": 2549,
      "Return": 2550,
      ")\n{\n\t": 2551,
      "_str": 2552,
      "{\n": 2553,
      "under the ": 2554,
      "ASSERT(": 2555,
      "I ": 2556,
      "mt": 2557,
      "cent": 2558,
      "JSON": 2559,
      "match": 2560,
      ".p": 2561,
      "etadata": 2562,
      "differ": 2563,
      "mbol": 2564,
      "_path": 2565,
      "ME": 2566,
      "gre": 2567,
      "Current": 2568,
      "hared": 2569,
      ", 0.": 2570,
      "ing_": 2571,
      "Graph": 2572,
      "_list": 2573,
      "Exception": 2574,
      "Byte": 2575,
      ");\n    if (": 2576,
      "there ": 2577,
      "ident": 2578,
      "Pointer": 2579,
      "lot": 2580,
      "Instance": 2581,
      "long ": 2582,
      "doc": 2583,
      "Filter": 2584,
      "color": 2585,
      "command": 2586,
      "Rect": 2587,
      "_map": 2588,
      "_t)": 2589,
      "address": 2590,
      "Module": 2591,
      "BUG": 2592,
      "parent": 2593,
      "://": 2594,
      "\n#endif": 2595,
      "; // ": 2596,
      "Ro": 2597,
      "it = ": 2598,
      ") && ": 2599,
      "{\n  ": 2600,
      "c5": 2601,
      "Position": 2602,
      ":\n  ": 2603,
      "handle": 2604,
      "bin": 2605,
      "128": 2606,
      ";\r\n        ": 2607,
      "develo": 2608,
      "Texture": 2609,
      "valid ": 2610,
      "VM": 2611,
      "_L": 2612,
      "e-": 2613,
      "dist": 2614,
      "_R": 2615,
      "detail": 2616,
      "virt": 2617,
      "} else if (": 2618,
      "sing": 2619,
      "Addr": 2620,
      "year": 2621,
      "_con": 2622,
      "},\n        ": 2623,
      "Has": 2624,
      "ed, ": 2625,
      "chain": 2626,
      " &": 2627,
      "_set": 2628,
      "};\n\n": 2629,
      "cept": 2630,
      "75": 2631,
      ":\n      ": 2632,
      "cription": 2633,
      "find": 2634,
      "ene": 2635,
      "(k": 2636,
      "program": 2637,
      "Dep": 2638,
      "EXPECT_TRUE(": 2639,
      "proper": 2640,
      "[1]": 2641,
      "decl": 2642,
      "4,": 2643,
      "direct": 2644,
      "Mo": 2645,
      "Register": 2646,
      "_se": 2647,
      "var": 2648,
      ", false": 2649,
      " : ": 2650,
      "for (int i": 2651,
      ".\n        ": 2652,
      ");\n\t\t\t\t": 2653,
      "Sign": 2654,
      "read ": 2655,
      "orage": 2656,
      "::C": 2657,
      "et ": 2658,
      "Lev": 2659,
      "2D": 2660,
      "s (": 2661,
      "sm": 2662,
      "self": 2663,
      "UP": 2664,
      "ho": 2665,
      "();\n\t": 2666,
      "FOR": 2667,
      "F(": 2668,
      "tra": 2669,
      "2 = ": 2670,
      "Tensor": 2671,
      "9,": 2672,
      "bind": 2673,
      " && ": 2674,
      "Err": 2675,
      ");\n    }\n    ": 2676,
      "ift": 2677,
      "Ab": 2678,
      "ful": 2679,
      "Tree": 2680,
      ")\n\t{\n\t\t": 2681,
      "would ": 2682,
      "very ": 2683,
      ";\n  }\n\n  ": 2684,
      "BB": 2685,
      "exter": 2686,
      "ron": 2687,
      "(str": 2688,
      "char ": 2689,
      "dev": 2690,
      "for (auto ": 2691,
      "ating ": 2692,
      "mission": 2693,
      "Level": 2694,
      ".s": 2695,
      "that the ": 2696,
      "();\n\n    ": 2697,
      "licen": 2698,
      "ist ": 2699,
      "60": 2700,
      "\"\n        ": 2701,
      "ation, ": 2702,
      "UD": 2703,
      "text ": 2704,
      "DEBUG": 2705,
      "content": 2706,
      "ative ": 2707,
      " for ": 2708,
      "_t>(": 2709,
      "45": 2710,
      "LOCK": 2711,
      "(void": 2712,
      "_, ": 2713,
      ") const ": 2714,
      "ward": 2715,
      "_count": 2716,
      "cer": 2717,
      "lin": 2718,
      ");\r\n": 2719,
      "Width": 2720,
      "olate": 2721,
      "Engine": 2722,
      "require": 2723,
      "sum": 2724,
      "Imp": 2725,
      "CHECK_": 2726,
      "\n */": 2727,
      "if ( ": 2728,
      "refix": 2729,
      "ampl": 2730,
      "; i++": 2731,
      "off": 2732,
      "erial": 2733,
      "ater ": 2734,
      "ank": 2735,
      "follow": 2736,
      "Attribute": 2737,
      "() const": 2738,
      "Length": 2739,
      "()) {\n        ": 2740,
      "FO": 2741,
      "7,": 2742,
      "        // ": 2743,
      "amer": 2744,
      "origin": 2745,
      ".c_str": 2746,
      "ign ": 2747,
      "Tag": 2748,
      "Global": 2749,
      "}\n\t\t": 2750,
      "ros": 2751,
      ");\n    }\n\n    ": 2752,
      "Resource": 2753,
      "Back": 2754,
      "inform": 2755,
      "es.": 2756,
      "Addres": 2757,
      "prov": 2758,
      "p_": 2759,
      "AY": 2760,
      ", C": 2761,
      "int)": 2762,
      "printf(\"": 2763,
      "ump": 2764,
      "sur": 2765,
      ");": 2766,
      ":\n            ": 2767,
      "suc": 2768,
      "f32": 2769,
      "nd": 2770,
      "RPC": 2771,
      "Enum": 2772,
      "PR": 2773,
      "_iter": 2774,
      "break;\n        ": 2775,
      "actory": 2776,
      "ARG": 2777,
      "Gen": 2778,
      ".0": 2779,
      "msg": 2780,
      "<T": 2781,
      "=0": 2782,
      "work ": 2783,
      "SW": 2784,
      "prev": 2785,
      "and the ": 2786,
      "box": 2787,
      "Vk": 2788,
      "contr": 2789,
      "namic": 2790,
      "        if (": 2791,
      "ures": 2792,
      "because ": 2793,
      "IGN": 2794,
      "asic": 2795,
      "KE": 2796,
      "ateg": 2797,
      "Constant": 2798,
      "process": 2799,
      "f, 0.": 2800,
      ")\n{\n  ": 2801,
      "class": 2802,
      "such ": 2803,
      ")) ": 2804,
      "49": 2805,
      "Lock": 2806,
      ";\n    if (": 2807,
      ";\n}\n\nvoid ": 2808,
      "g.": 2809,
      "store": 2810,
      "up ": 2811,
      "fer": 2812,
      ";\r\n\t": 2813,
      "peop": 2814,
      "Child": 2815,
      "air": 2816,
      "base::": 2817,
      "ing, ": 2818,
      "Shader": 2819,
      "Spec": 2820,
      "AND": 2821,
      "can be ": 2822,
      "(\n      ": 2823,
      "\n#ifdef ": 2824,
      "Exec": 2825,
      ",\n\t\t": 2826,
      "some ": 2827,
      "Next": 2828,
      "Access": 2829,
      ";\n  }\n  ": 2830,
      "Row": 2831,
      "Ge": 2832,
      "these ": 2833,
      "\" + ": 2834,
      "cul": 2835,
      "track": 2836,
      "(x": 2837,
      "vern": 2838,
      "Widget": 2839,
      "argument": 2840,
      "Tex": 2841,
      "auto& ": 2842,
      "}\r\n\r\n": 2843,
      "my": 2844,
      "_key": 2845,
      "ider": 2846,
      "height": 2847,
      ".m_": 2848,
      "FAL": 2849,
      "ADD": 2850,
      "FL": 2851,
      "ision": 2852,
      "\n#if ": 2853,
      "then ": 2854,
      "TT": 2855,
      "\r\n{": 2856,
      " = false": 2857,
      "Defin": 2858,
      "ARE": 2859,
      "Server": 2860,
      "sin": 2861,
      "govern": 2862,
      "jo": 2863,
      "llvm::": 2864,
      "std": 2865,
      "Can": 2866,
      "ui->": 2867,
      "_TYP": 2868,
      "ible ": 2869,
      "Send": 2870,
      "(M": 2871,
      "1]": 2872,
      "on't ": 2873,
      "\n *\n * ": 2874,
      "_CON": 2875,
      "Token": 2876,
      "Le": 2877,
      "return 0": 2878,
      "Builder": 2879,
      "EV": 2880,
      "int32_t ": 2881,
      "char *": 2882,
      "who ": 2883,
      "->m_": 2884,
      "result = ": 2885,
      "make ": 2886,
      "after ": 2887,
      "root": 2888,
      "state ": 2889,
      "message": 2890,
      "tom": 2891,
      "SION": 2892,
      "SL": 2893,
      "EQU": 2894,
      "Dest": 2895,
      "*/\n": 2896,
      "PU": 2897,
      "_type ": 2898,
      "(d": 2899,
      "Interface": 2900,
      "Bind": 2901,
      "Select": 2902,
      "cast": 2903,
      "All": 2904,
      ") * ": 2905,
      "->is": 2906,
      "try ": 2907,
      "ake ": 2908,
      "TEST": 2909,
      "stack": 2910,
      "method": 2911,
      "Kin": 2912,
      "...": 2913,
      "Transform": 2914,
      "interpret": 2915,
      "TOR": 2916,
      "reser": 2917,
      "any": 2918,
      "own ": 2919,
      "cryp": 2920,
      "es.</w>": 2921,
      "exist": 2922,
      "Web": 2923,
      "render": 2924,
      "uct": 2925,
      "rt": 2926,
      ".n": 2927,
      "Last": 2928,
      "255, 255, ": 2929,
      "ose ": 2930,
      "oci": 2931,
      "Track": 2932,
      "LIN": 2933,
      ") = ": 2934,
      "Cal": 2935,
      "0x0": 2936,
      "Layout": 2937,
      "_hand": 2938,
      "at the ": 2939,
      "set ": 2940,
      "IT_": 2941,
      "ouse": 2942,
      "typedef ": 2943,
      "defined(": 2944,
      "Manager": 2945,
      "Pair": 2946,
      "ational ": 2947,
      "is the ": 2948,
      "vtk": 2949,
      "Cache": 2950,
      "ing a ": 2951,
      "number of ": 2952,
      "lex": 2953,
      "(\n    ": 2954,
      "}, {": 2955,
      "SH": 2956,
      "ER_": 2957,
      "OU": 2958,
      "\n// CHECK": 2959,
      "User": 2960,
      "select": 2961,
      "47": 2962,
      ";\n    case ": 2963,
      ", n": 2964,
      "pat": 2965,
      "kernel": 2966,
      "build": 2967,
      "hist": 2968,
      "so": 2969,
      "udio": 2970,
      "AV": 2971,
      "()\n{\n    ": 2972,
      "betwe": 2973,
      "ower": 2974,
      "String(": 2975,
      "_state": 2976,
      "Dire": 2977,
      "istr": 2978,
      "TUR": 2979,
      "},\n    ": 2980,
      "Il": 2981,
      "dur": 2982,
      ", 1": 2983,
      "act ": 2984,
      "CR": 2985,
      "unique": 2986,
      "dec": 2987,
      "limit": 2988,
      "is not ": 2989,
      "THE ": 2990,
      "Proto": 2991,
      "for (int ": 2992,
      "_time": 2993,
      "_file": 2994,
      ".  ": 2995,
      "2, 0x": 2996,
      "sa": 2997,
      "fail": 2998,
      "virtual ": 2999,
      "Que": 3000,
      "<< std::": 3001,
      "prob": 3002,
      "size ": 3003,
      "Layer": 3004,
      "ior": 3005,
      "95": 3006,
      "ilt": 3007,
      "fore": 3008,
      "iled": 3009,
      ", 0, ": 3010,
      "Valu": 3011,
      " = true": 3012,
      "reset": 3013,
      "lease": 3014,
      "(g": 3015,
      "ater": 3016,
      "le::": 3017,
      "n't ": 3018,
      "lear": 3019,
      "_block": 3020,
      "ange ": 3021,
      "ifier": 3022,
      "ain ": 3023,
      "Height": 3024,
      "Dr": 3025,
      ")) {\n        ": 3026,
      "larg": 3027,
      "________": 3028,
      "()\n{": 3029,
      "License ": 3030,
      "_ERROR": 3031,
      "Button": 3032,
      "sync": 3033,
      "same ": 3034,
      "() != ": 3035,
      "ename": 3036,
      "ERN": 3037,
      "Contain": 3038,
      "result ": 3039,
      "down": 3040,
      "fd": 3041,
      "_0": 3042,
      "()) {\n    ": 3043,
      "\n}\n\n": 3044,
      "Internal": 3045,
      "ray ": 3046,
      "ics": 3047,
      ", true": 3048,
      "Sw": 3049,
      "Setting": 3050,
      "move(": 3051,
      "_ ": 3052,
      "Vertex": 3053,
      "tag": 3054,
      "Pool": 3055,
      "ous": 3056,
      "Msg": 3057,
      "i = 0; i < ": 3058,
      "ell ": 3059,
      "ement": 3060,
      "er to ": 3061,
      "import": 3062,
      "between ": 3063,
      "const int ": 3064,
      "(this": 3065,
      "i::": 3066,
      "append": 3067,
      "type = ": 3068,
      "TYPE_": 3069,
      "e.": 3070,
      "cb": 3071,
      "heal": 3072,
      "parameter": 3073,
      "switch (": 3074,
      "(Q": 3075,
      "IND": 3076,
      "ann": 3077,
      "ation of ": 3078,
      "68": 3079,
      "97": 3080,
      "Instruction": 3081,
      "amil": 3082,
      "icy": 3083,
      "Inte": 3084,
      "(h": 3085,
      "oftware ": 3086,
      "num_": 3087,
      "(0)": 3088,
      "giv": 3089,
      "Right": 3090,
      "values": 3091,
      "modu": 3092,
      "Null": 3093,
      "Task": 3094,
      "sim": 3095,
      "Size ": 3096,
      "ched": 3097,
      ") != ": 3098,
      "65": 3099,
      "each ": 3100,
      "queue": 3101,
      "ount ": 3102,
      "opt": 3103,
      "roll": 3104,
      "inte": 3105,
      "template<": 3106,
      "less ": 3107,
      "extern ": 3108,
      "*p": 3109,
      "two ": 3110,
      "bound": 3111,
      "get ": 3112,
      "Build": 3113,
      "will be ": 3114,
      "response": 3115,
      "(l": 3116,
      "present": 3117,
      "pair": 3118,
      "ip ": 3119,
      "just ": 3120,
      "-N": 3121,
      "\n/// ": 3122,
      "Use": 3123,
      ", f": 3124,
      "quence": 3125,
      "2.0": 3126,
      "Part": 3127,
      "zero": 3128,
      "Bin": 3129,
      "where ": 3130,
      "2Cpp": 3131,
      "as a ": 3132,
      "Il2Cpp": 3133,
      "s.push_back(": 3134,
      "_CO": 3135,
      "ET_": 3136,
      "FI": 3137,
      "activ": 3138,
      "incre": 3139,
      "under": 3140,
      "proces": 3141,
      "ther": 3142,
      "diff": 3143,
      "=\n      ": 3144,
      "}\n\n  // ": 3145,
      "real": 3146,
      "-1, ": 3147,
      "pop": 3148,
      "LIC": 3149,
      "erg": 3150,
      "constexpr": 3151,
      "key ": 3152,
      "() && ": 3153,
      "v8": 3154,
      "cod": 3155,
      "req": 3156,
      "medi": 3157,
      "auth": 3158,
      "without ": 3159,
      "SU": 3160,
      "DC": 3161,
      "VT": 3162,
      "ometr": 3163,
      "y.</w>": 3164,
      "ed = ": 3165,
      "angu": 3166,
      "arm": 3167,
      "ient ": 3168,
      "Response": 3169,
      "cout << \"": 3170,
      "_node": 3171,
      "_buffer": 3172,
      "Definition": 3173,
      "();\n\n  ": 3174,
      "Over": 3175,
      "Nod": 3176,
      "user": 3177,
      "\n\t\t\t\t\t": 3178,
      "Record": 3179,
      "ped": 3180,
      " = new ": 3181,
      "Draw": 3182,
      "RT": 3183,
      "ANY ": 3184,
      ")\n": 3185,
      "andom": 3186,
      "viron": 3187,
      "script": 3188,
      "respon": 3189,
      "\"))": 3190,
      "Find": 3191,
      "rh": 3192,
      "I_": 3193,
      "tensor": 3194,
      "ENT_": 3195,
      "ML": 3196,
      "Fir": 3197,
      "}\n\n    // ": 3198,
      "->add": 3199,
      "For ": 3200,
      "delete ": 3201,
      "Emp": 3202,
      "Content": 3203,
      "ATION": 3204,
      "per ": 3205,
      "complet": 3206,
      "Sty": 3207,
      "debug": 3208,
      "Main": 3209,
      "diag": 3210,
      "_range": 3211,
      "unit": 3212,
      "module": 3213,
      "ouble": 3214,
      "rowser": 3215,
      "resh": 3216,
      "builder": 3217,
      "Us": 3218,
      "ete": 3219,
      "END": 3220,
      "Service": 3221,
      "ired": 3222,
      "draw": 3223,
      "ian": 3224,
      "Active": 3225,
      "-1,": 3226,
      "[]": 3227,
      "ibuted ": 3228,
      "Desc": 3229,
      "Cap": 3230,
      "}}": 3231,
      "patch": 3232,
      "df": 3233,
      "const auto ": 3234,
      "left": 3235,
      "1_": 3236,
      "Shape": 3237,
      "host": 3238,
      "Connection": 3239,
      "IV": 3240,
      "ipel": 3241,
      "column": 3242,
      "ffer ": 3243,
      "used": 3244,
      "IGH": 3245,
      "function ": 3246,
      "TRAC": 3247,
      " = \"": 3248,
      "ATE_": 3249,
      "te ": 3250,
      "case": 3251,
      ".data": 3252,
      "Sto": 3253,
      "gg": 3254,
      "pha": 3255,
      "could ": 3256,
      "uple": 3257,
      "current ": 3258,
      "VALID": 3259,
      "pose": 3260,
      "connection": 3261,
      "ITH": 3262,
      "% ": 3263,
      "Dim": 3264,
      ",   ": 3265,
      "param ": 3266,
      "source": 3267,
      "\n    if (": 3268,
      "Parse": 3269,
      "->n": 3270,
      "ROW": 3271,
      "ast ": 3272,
      "ane": 3273,
      "unsigned int ": 3274,
      "id = ": 3275,
      "total": 3276,
      "instance": 3277,
      "i_": 3278,
      "control": 3279,
      "Dir": 3280,
      "cell": 3281,
      "prote": 3282,
      "while (": 3283,
      "anch": 3284,
      "fore ": 3285,
      "Component": 3286,
      "Stack": 3287,
      "-NEXT": 3288,
      "Work": 3289,
      "std::string& ": 3290,
      "Idx": 3291,
      "avail": 3292,
      "ific ": 3293,
      " << \"": 3294,
      "red ": 3295,
      "ty ": 3296,
      "source ": 3297,
      "weight": 3298,
      "\n              ": 3299,
      "url": 3300,
      "ties": 3301,
      "Value(": 3302,
      "Fin": 3303,
      "-NEXT:": 3304,
      "\\t": 3305,
      "69": 3306,
      "Argument": 3307,
      "PAR": 3308,
      "many ": 3309,
      "send": 3310,
      "include": 3311,
      ", M": 3312,
      "shared_ptr<": 3313,
      "() + ": 3314,
      "error ": 3315,
      "_NAM": 3316,
      "Fl": 3317,
      "Br": 3318,
      " \"": 3319,
      "ages": 3320,
      "else\n        ": 3321,
      "people ": 3322,
      "(0, ": 3323,
      ".Set": 3324,
      "stra": 3325,
      "emit": 3326,
      "AST": 3327,
      "GR": 3328,
      "creen": 3329,
      "())\n    ": 3330,
      "3.": 3331,
      "reinterpret": 3332,
      "er->": 3333,
      "link": 3334,
      ", 0x5": 3335,
      "Handler": 3336,
      "(false": 3337,
      "need to ": 3338,
      "nt": 3339,
      ", but ": 3340,
      "semb": 3341,
      "_sh": 3342,
      "std::make": 3343,
      "constexpr ": 3344,
      "Func": 3345,
      "utable": 3346,
      "fc": 3347,
      "()) ": 3348,
      "by the ": 3349,
      "System.": 3350,
      "\r\n\t\t\t": 3351,
      "Ent": 3352,
      "(L": 3353,
      "WOR": 3354,
      "partic": 3355,
      "func": 3356,
      "place": 3357,
      "fx": 3358,
      ") { return ": 3359,
      "cept ": 3360,
      "ma ": 3361,
      "Loop": 3362,
      "memory": 3363,
      " in ": 3364,
      "{ return ": 3365,
      "object ": 3366,
      "\n\n#include \"": 3367,
      " << ": 3368,
      "plit": 3369,
      "\n//\n// ": 3370,
      "_by": 3371,
      "[3": 3372,
      ", k": 3373,
      "Mask": 3374,
      ".Is": 3375,
      "transform": 3376,
      ": \" << ": 3377,
      "byte": 3378,
      "[\"": 3379,
      "stand": 3380,
      "REQ": 3381,
      "::P": 3382,
      "Sm": 3383,
      "EQUAL": 3384,
      "ps": 3385,
      "ized": 3386,
      "receiv": 3387,
      "runtime": 3388,
      "bb": 3389,
      "f = ": 3390,
      ", 0": 3391,
      "_sp": 3392,
      "insert(": 3393,
      "::set": 3394,
      "uint64_t ": 3395,
      "desc": 3396,
      "ql": 3397,
      "show": 3398,
      "utf32": 3399,
      "pt": 3400,
      "[i].": 3401,
      "_ser": 3402,
      "Script": 3403,
      "pack": 3404,
      "();\n      ": 3405,
      "argv": 3406,
      "s in the ": 3407,
      "s with ": 3408,
      "IN ": 3409,
      ".empty": 3410,
      "(2": 3411,
      ", D": 3412,
      "tor": 3413,
      "Match": 3414,
      "int64_t ": 3415,
      "ten ": 3416,
      "//--------": 3417,
      "alread": 3418,
      "== \"": 3419,
      "Descriptor": 3420,
      "point ": 3421,
      "Coin": 3422,
      ", T": 3423,
      ".v": 3424,
      "MM": 3425,
      "ify ": 3426,
      "ctor": 3427,
      "of a ": 3428,
      "P_": 3429,
      "s or ": 3430,
      "s,\n        ": 3431,
      "Bound": 3432,
      "http://": 3433,
      "provi": 3434,
      "gu": 3435,
      "pas": 3436,
      "\\\\": 3437,
      "ild ": 3438,
      "Mesh": 3439,
      ",\n  ": 3440,
      "fac": 3441,
      "####": 3442,
      "ization": 3443,
      "UNC": 3444,
      "ise ": 3445,
      "setting": 3446,
      ": \"": 3447,
      "ustom": 3448,
      "AGE_": 3449,
      "range": 3450,
      "Zero": 3451,
      " = 1": 3452,
      "Cha": 3453,
      "older": 3454,
      "aff": 3455,
      "<int": 3456,
      "c4": 3457,
      "N_": 3458,
      "what ": 3459,
      "v_": 3460,
      "copy ": 3461,
      "body": 3462,
      "=\n        ": 3463,
      "ong ": 3464,
      ".add": 3465,
      "%.": 3466,
      "it is ": 3467,
      "vertex": 3468,
      "VERSION": 3469,
      "ok ": 3470,
      "plication": 3471,
      "lif": 3472,
      ");\n  }\n\n  ": 3473,
      "Struct": 3474,
      "> 0": 3475,
      "tre": 3476,
      ".x": 3477,
      "Bl": 3478,
      "does ": 3479,
      "atform": 3480,
      "bytes": 3481,
      "}\n}\n\nvoid ": 3482,
      "s, and ": 3483,
      "ices ": 3484,
      "2cpp": 3485,
      "arch ": 3486,
      "ia": 3487,
      "PL": 3488,
      "had ": 3489,
      "cy": 3490,
      "il2cpp": 3491,
      " = p": 3492,
      "task": 3493,
      "if (p": 3494,
      "(a": 3495,
      "21": 3496,
      "enable": 3497,
      "amera": 3498,
      "g_": 3499,
      "node ": 3500,
      "goog": 3501,
      "- 1": 3502,
      "iss": 3503,
      "', ": 3504,
      "ate the ": 3505,
      "nn": 3506,
      ",\n0x": 3507,
      "tab": 3508,
      "( \"": 3509,
      "(T": 3510,
      " or ": 3511,
      "ite ": 3512,
      "ss": 3513,
      "ixed": 3514,
      "GB": 3515,
      "effect": 3516,
      "\n\nnamespace ": 3517,
      "his ": 3518,
      "saf": 3519,
      "angle": 3520,
      "FIL": 3521,
      " += ": 3522,
      "IMP": 3523,
      "uint32_t": 3524,
      "_tr": 3525,
      "_mem": 3526,
      ", 0x7": 3527,
      "ias": 3528,
      "{\r\n        ": 3529,
      "step": 3530,
      "callback": 3531,
      "///": 3532,
      "license": 3533,
      "ep ": 3534,
      "_point": 3535,
      "isolate": 3536,
      "indices": 3537,
      "query": 3538,
      "Dial": 3539,
      "cv": 3540,
      "reorder": 3541,
      "imple": 3542,
      "return \"": 3543,
      "F_": 3544,
      "ade ": 3545,
      "gment": 3546,
      "sure ": 3547,
      "like ": 3548,
      "rop": 3549,
      "char* ": 3550,
      "../": 3551,
      "; ++i": 3552,
      "Json": 3553,
      "list ": 3554,
      "OB": 3555,
      "lay": 3556,
      "found ": 3557,
      "gn": 3558,
      "[j": 3559,
      "ert": 3560,
      "resource": 3561,
      "ILIT": 3562,
      "Lib": 3563,
      "resol": 3564,
      "ugin": 3565,
      "rom_": 3566,
      "ster": 3567,
      "Chang": 3568,
      "5 ": 3569,
      "just": 3570,
      "tract": 3571,
      "Host": 3572,
      "plac": 3573,
      "57": 3574,
      "uration": 3575,
      "ier": 3576,
      "XX": 3577,
      "s.end": 3578,
      "ish ": 3579,
      "Empty": 3580,
      "\";\n        ": 3581,
      "ES ": 3582,
      "c, ": 3583,
      "()), ": 3584,
      "pass": 3585,
      "(R": 3586,
      "non-": 3587,
      "Runtime": 3588,
      "head": 3589,
      "Wrap": 3590,
      "2_": 3591,
      "MAX": 3592,
      "A_": 3593,
      "8 ": 3594,
      "session": 3595,
      ", v": 3596,
      "! ": 3597,
      "Pass": 3598,
      "ector ": 3599,
      "redu": 3600,
      "URL": 3601,
      "WARR": 3602,
      "IZE": 3603,
      "->m": 3604,
      "Master": 3605,
      "adi": 3606,
      "\");\n": 3607,
      "tree": 3608,
      "ing and ": 3609,
      "->second": 3610,
      "den": 3611,
      "bot": 3612,
      "Auto": 3613,
      "sty": 3614,
      "ities": 3615,
      "WARRAN": 3616,
      "Doc": 3617,
      "pi": 3618,
      "arning": 3619,
      "y(": 3620,
      "SWIG": 3621,
      "ndef ": 3622,
      "C ": 3623,
      "w.": 3624,
      "atom": 3625,
      ",\n\t": 3626,
      "Ident": 3627,
      "Channel": 3628,
      "Variable": 3629,
      "full": 3630,
      ",\n    0x": 3631,
      "->Is": 3632,
      "static void ": 3633,
      "for(": 3634,
      "94": 3635,
      "don't ": 3636,
      "estamp": 3637,
      "aa": 3638,
      "ection": 3639,
      ");\n          ": 3640,
      "0,   ": 3641,
      "stop": 3642,
      "ToString": 3643,
      "Node ": 3644,
      "cover": 3645,
      "{ \"": 3646,
      "Det": 3647,
      "mean": 3648,
      "known": 3649,
      "NE": 3650,
      "old ": 3651,
      "ular": 3652,
      "\\n\"\n        ": 3653,
      "ek": 3654,
      ".y": 3655,
      "move ": 3656,
      "_offset": 3657,
      "; ++": 3658,
      "const& ": 3659,
      "ipeline": 3660,
      "67": 3661,
      "_of": 3662,
      "ER ": 3663,
      "Tool": 3664,
      "ACH": 3665,
      "if the ": 3666,
      "<float": 3667,
      "(true": 3668,
      ");\n    return ": 3669,
      "WITH": 3670,
      "//  ": 3671,
      "Clo": 3672,
      "ODO": 3673,
      "r = ": 3674,
      "to be ": 3675,
      "ession": 3676,
      "register": 3677,
      "assign": 3678,
      "poss": 3679,
      "uster": 3680,
      "types": 3681,
      "1, 1, ": 3682,
      "Style": 3683,
      "}\n    }\n\n    ": 3684,
      "ification": 3685,
      "region": 3686,
      "Test, ": 3687,
      "tr(\"": 3688,
      "search": 3689,
      "\n\t\t\t\t\t\t": 3690,
      "_code": 3691,
      "equ": 3692,
      "ia ": 3693,
      "cd": 3694,
      "coder": 3695,
      "Menu": 3696,
      "oftware": 3697,
      "Core": 3698,
      ") {\n\t": 3699,
      "[2]": 3700,
      ";\n\n    // ": 3701,
      "to_string": 3702,
      "Sl": 3703,
      "token": 3704,
      "Ste": 3705,
      "even ": 3706,
      "cu": 3707,
      "The": 3708,
      "law": 3709,
      "Jo": 3710,
      "s().": 3711,
      "Cmd": 3712,
      "ed in ": 3713,
      "abo": 3714,
      "Dialog": 3715,
      "shape": 3716,
      "catch": 3717,
      "Socket": 3718,
      "Invalid": 3719,
      "(c) ": 3720,
      "look": 3721,
      "dw": 3722,
      "TODO": 3723,
      "test ": 3724,
      "for (size_t ": 3725,
      "->p": 3726,
      "uint8_t ": 3727,
      "Non": 3728,
      "nes": 3729,
      "extension": 3730,
      ");\n  if (": 3731,
      "expected": 3732,
      "need": 3733,
      "pool": 3734,
      "Location": 3735,
      "M_": 3736,
      "tech": 3737,
      "ities ": 3738,
      "(D": 3739,
      "8, ": 3740,
      "Src": 3741,
      "block ": 3742,
      "All ": 3743,
      ", bool ": 3744,
      "pers": 3745,
      "come ": 3746,
      "part ": 3747,
      "different ": 3748,
      "div": 3749,
      "load ": 3750,
      "following ": 3751,
      "_call": 3752,
      "prag": 3753,
      "matrix": 3754,
      "} // ": 3755,
      ";\n   ": 3756,
      "iltin": 3757,
      "i, ": 3758,
      "SC_": 3759,
      "Manager::": 3760,
      "day": 3761,
      "input ": 3762,
      "align": 3763,
      "section": 3764,
      "brie": 3765,
      "straint": 3766,
      "begin(), ": 3767,
      "rot": 3768,
      "\";\n    ": 3769,
      "as the ": 3770,
      "pay": 3771,
      "** ": 3772,
      "Link": 3773,
      "}\n</w>": 3774,
      "through ": 3775,
      "way ": 3776,
      ".org": 3777,
      "59": 3778,
      "{\n\t\t\t\t": 3779,
      "()) {": 3780,
      "before ": 3781,
      ";\r\n  ": 3782,
      "Y, ": 3783,
      "ome": 3784,
      "ACK": 3785,
      "layer": 3786,
      "Store": 3787,
      "unique_ptr<": 3788,
      "coord": 3789,
      "s. ": 3790,
      "multi": 3791,
      "-NEXT:    ": 3792,
      "Auth": 3793,
      "::B": 3794,
      ")->": 3795,
      "i.": 3796,
      "(_": 3797,
      "should be ": 3798,
      "close": 3799,
      ")) {": 3800,
      "Sup": 3801,
      "s[0]": 3802,
      "Hist": 3803,
      "ian ": 3804,
      "known ": 3805,
      "private": 3806,
      "conf": 3807,
      "ually ": 3808,
      "already ": 3809,
      "ever": 3810,
      "pragma ": 3811,
      "() {\n  ": 3812,
      "ingle": 3813,
      "vironment": 3814,
      "6,": 3815,
      ");\n  }\n  ": 3816,
      "ination": 3817,
      "LICEN": 3818,
      "_arg": 3819,
      "Red": 3820,
      ".find": 3821,
      "nex": 3822,
      "Network": 3823,
      "success": 3824,
      "Cor": 3825,
      "ing::": 3826,
      "here": 3827,
      "__pyx_t": 3828,
      "Templ": 3829,
      "must be ": 3830,
      "over ": 3831,
      "Tab": 3832,
      "ostream": 3833,
      "Sim": 3834,
      "(int)": 3835,
      "Sur": 3836,
      "();\n\t\t": 3837,
      "Chain": 3838,
      "-> ": 3839,
      "network": 3840,
      "Bytes": 3841,
      " IS": 3842,
      "component": 3843,
      "_it": 3844,
      ", e": 3845,
      "protobuf": 3846,
      "Copyright (c) ": 3847,
      ";\n  if (": 3848,
      "override": 3849,
      "Expression": 3850,
      "\r\n\r\n": 3851,
      "being ": 3852,
      "sec": 3853,
      "ID ": 3854,
      "_e": 3855,
      "] == ": 3856,
      "last ": 3857,
      "8,": 3858,
      "ge ": 3859,
      "ources": 3860,
      "exper": 3861,
      "etch": 3862,
      ", b": 3863,
      "}\n    }\n    ": 3864,
      "i = ": 3865,
      "Fa": 3866,
      "01": 3867,
      "based ": 3868,
      ":\n    case ": 3869,
      "s from ": 3870,
      "Su": 3871,
      "\n\n#include <": 3872,
      "depend": 3873,
      "i32": 3874,
      "common": 3875,
      "int n": 3876,
      "Temp": 3877,
      "texture": 3878,
      "Type = ": 3879,
      ": public ": 3880,
      "erge": 3881,
      "specific ": 3882,
      "ing.</w>": 3883,
      "Anim": 3884,
      ");\r\n    ": 3885,
      "Sec": 3886,
      "charact": 3887,
      "appro": 3888,
      "node->": 3889,
      "_dim": 3890,
      ", 0x8": 3891,
      "54": 3892,
      "student": 3893,
      "lement ": 3894,
      "dir": 3895,
      "Queue": 3896,
      "aim": 3897,
      "~~": 3898,
      ";\n}\n\nbool ": 3899,
      "output ": 3900,
      "s;\n    ": 3901,
      "UC": 3902,
      "ting ": 3903,
      "Type(": 3904,
      "08": 3905,
      "        \"": 3906,
      "ason": 3907,
      "account": 3908,
      "global": 3909,
      "create ": 3910,
      "langu": 3911,
      "found": 3912,
      "g ": 3913,
      "\") ": 3914,
      "Query": 3915,
      "start ": 3916,
      "Display": 3917,
      "ibution": 3918,
      "ature ": 3919,
      "DAT": 3920,
      "Sig": 3921,
      "ture": 3922,
      "--------------": 3923,
      "ACE_": 3924,
      "|= ": 3925,
      "distributed ": 3926,
      "Kind::": 3927,
      "SC": 3928,
      "instruction": 3929,
      "Refer": 3930,
      "0;\n    ": 3931,
      "see ": 3932,
      "CB": 3933,
      "count ": 3934,
      "m::": 3935,
      "her": 3936,
      "Operation": 3937,
      "uint256": 3938,
      "VK": 3939,
      "name = ": 3940,
      "ODE_": 3941,
      "READ": 3942,
      "given ": 3943,
      "k::": 3944,
      "information ": 3945,
      "ield ": 3946,
      " = NULL": 3947,
      "Double": 3948,
      "ural ": 3949,
      "operation": 3950,
      "search ": 3951,
      ", 0x00, 0x00": 3952,
      "Multi": 3953,
      "bar": 3954,
      "s[i]": 3955,
      "First": 3956,
      ";\n          ": 3957,
      "comput": 3958,
      ", r": 3959,
      "ubKey": 3960,
      "v8::": 3961,
      "Edit": 3962,
      "www.": 3963,
      "ault ": 3964,
      " || ": 3965,
      "DF": 3966,
      ").</w>": 3967,
      ".S": 3968,
      "how": 3969,
      "anal": 3970,
      "chron": 3971,
      "bd": 3972,
      "Object *": 3973,
      "_x": 3974,
      "tool": 3975,
      ", 0., 0.": 3976,
      "2d": 3977,
      "AX": 3978,
      ".c": 3979,
      ".\n      ": 3980,
      "(F": 3981,
      "Help": 3982,
      "),\n      ": 3983,
      "Americ": 3984,
      "construct": 3985,
      "Arch": 3986,
      "if(!": 3987,
      "anim": 3988,
      "uint16": 3989,
      ";\n\n  // ": 3990,
      "{{": 3991,
      "Page": 3992,
      "INFO": 3993,
      "Depth": 3994,
      "etric": 3995,
      "]], ": 3996,
      "_t* ": 3997,
      "OUT ": 3998,
      "_input": 3999,
      "active": 4000,
      "MS": 4001,
      "those ": 4002,
      "access": 4003,
      "board": 4004,
      "conn": 4005,
      "_util": 4006,
      "Bod": 4007,
      "itle": 4008,
      "::F": 4009,
      "ASSERT_EQ(": 4010,
      "-0.": 4011,
      "s & ": 4012,
      "Parser": 4013,
      "_op": 4014,
      "_get": 4015,
      "clang": 4016,
      "_view": 4017,
      ")\n  {\n    ": 4018,
      "6, ": 4019,
      "()->get": 4020,
      "able to ": 4021,
      "Rel": 4022,
      "sn": 4023,
      "scope": 4024,
      "met": 4025,
      "roy": 4026,
      "ethod ": 4027,
      "THOD": 4028,
      "ache ": 4029,
      ", which ": 4030,
      "State ": 4031,
      "andid": 4032,
      ")\n\t\t\t": 4033,
      "ibil": 4034,
      "Align": 4035,
      "Entity": 4036,
      "true ": 4037,
      "79": 4038,
      "_test": 4039,
      "iver": 4040,
      "commun": 4041,
      "iform": 4042,
      "\n//  ": 4043,
      "bor": 4044,
      "world": 4045,
      "Static": 4046,
      "EP": 4047,
      "\n      \"": 4048,
      "</": 4049,
      "IB": 4050,
      ", typename ": 4051,
      "Cast": 4052,
      "change": 4053,
      "ates": 4054,
      "Ind": 4055,
      "Status ": 4056,
      "URE": 4057,
      "_sub": 4058,
      "d the ": 4059,
      "Data ": 4060,
      "> &": 4061,
      ", c": 4062,
      "[0] = ": 4063,
      "iterator ": 4064,
      "mask": 4065,
      "ither ": 4066,
      "Bar": 4067,
      ");\n   ": 4068,
      "goto ": 4069,
      "REQUI": 4070,
      "ABL": 4071,
      "It": 4072,
      "Ob": 4073,
      "QU": 4074,
      "s[idx": 4075,
      "(w": 4076,
      "ified ": 4077,
      "ade": 4078,
      "reference": 4079,
      "prec": 4080,
      "If": 4081,
      "Enabled": 4082,
      "rl": 4083,
      "ye": 4084,
      "ould": 4085,
      "_sy": 4086,
      ";\r\n\t\t": 4087,
      "inc": 4088,
      "(\"-": 4089,
      ", NULL": 4090,
      "_object": 4091,
      "Sync": 4092,
      "location": 4093,
      "3d": 4094,
      "74": 4095,
      "CF": 4096,
      "ometry": 4097,
      "Direct": 4098,
      "Clas": 4099,
      "remove": 4100,
      "[&": 4101,
      "WN": 4102,
      "gor": 4103,
      "Uni": 4104,
      "TW": 4105,
      "REG": 4106,
      "Bool": 4107,
      "_ex": 4108,
      "&&\n        ": 4109,
      "Down": 4110,
      "problem": 4111,
      "<double": 4112,
      "FAUL": 4113,
      "MO": 4114,
      ".org/": 4115,
      "Http": 4116,
      "t::": 4117,
      "Cond": 4118,
      "alle": 4119,
      "Helper": 4120,
      "igger": 4121,
      "3, 0x": 4122,
      "FLAG": 4123,
      "URE_": 4124,
      "ABILIT": 4125,
      "Ptr ": 4126,
      "_pr": 4127,
      ".size()": 4128,
      "us = ": 4129,
      "ement ": 4130,
      ".b": 4131,
      "el ": 4132,
      "manag": 4133,
      "Kernel": 4134,
      "V_": 4135,
      "PH": 4136,
      ";\n\t}\n\n\t": 4137,
      "light": 4138,
      "::Set": 4139,
      "this, ": 4140,
      "Iterator": 4141,
      "constant": 4142,
      "Region": 4143,
      "chema": 4144,
      "\n\t// ": 4145,
      "_tim": 4146,
      "cmp": 4147,
      "est ": 4148,
      ");\n\n\t\t": 4149,
      "ines": 4150,
      "Lef": 4151,
      "Mon": 4152,
      "Compl": 4153,
      "_for": 4154,
      "> const ": 4155,
      "web": 4156,
      "Ev": 4157,
      ",\"": 4158,
      "plan": 4159,
      "Scalar": 4160,
      "brief ": 4161,
      ");\n\n": 4162,
      "AF": 4163,
      "-- ": 4164,
      "THROW": 4165,
      "std::array": 4166,
      "_(": 4167,
      "develop": 4168,
      "except ": 4169,
      "}\n\n\t\t": 4170,
      "You ": 4171,
      "Basic": 4172,
      "; }\n\t": 4173,
      "Audio": 4174,
      "Ctx": 4175,
      "BE": 4176,
      "Real": 4177,
      "::T": 4178,
      "f(\"": 4179,
      ");\n        if (": 4180,
      "\n     * ": 4181,
      "atures": 4182,
      "ength ": 4183,
      "}\n\n            ": 4184,
      "2(": 4185,
      "ate(": 4186,
      "AND ": 4187,
      ";\n\n            ": 4188,
      "const char* ": 4189,
      "\");\n\t": 4190,
      ", we ": 4191,
      "empl": 4192,
      "dire": 4193,
      "gorith": 4194,
      "Space": 4195,
      "Phys": 4196,
      "[] = ": 4197,
      ".second": 4198,
      "_NO": 4199,
      "med": 4200,
      "ity of ": 4201,
      "s have ": 4202,
      ") {\n    return ": 4203,
      "he ": 4204,
      "Sample": 4205,
      "_SU": 4206,
      "road": 4207,
      "_FOR": 4208,
      "document": 4209,
      "().get": 4210,
      "ld ": 4211,
      "}\n\t\t\t": 4212,
      "_flag": 4213,
      "how ": 4214,
      "cond ": 4215,
      "term": 4216,
      "OM": 4217,
      "Begin": 4218,
      "space": 4219,
      "Cell": 4220,
      "_function": 4221,
      "Pixel": 4222,
      " = Get": 4223,
      "ship": 4224,
      "Port": 4225,
      "IST": 4226,
      "Id ": 4227,
      "Dy": 4228,
      "s:": 4229,
      "local ": 4230,
      "variable": 4231,
      "//   ": 4232,
      "numeric": 4233,
      "Exp": 4234,
      "grow": 4235,
      "_u": 4236,
      "Storage": 4237,
      "ume": 4238,
      "fg": 4239,
      "1) ": 4240,
      "call ": 4241,
      "LogPrint": 4242,
      "resize": 4243,
      "DEF": 4244,
      "ped ": 4245,
      ";\n\n\t\t": 4246,
      "U ": 4247,
      "\n  {\n    ": 4248,
      "Program": 4249,
      "instr": 4250,
      "STRING": 4251,
      "pindex": 4252,
      "Game": 4253,
      "API": 4254,
      "with a ": 4255,
      "Coord": 4256,
      "[0].": 4257,
      "help ": 4258,
      "\n *  ": 4259,
      "set_": 4260,
      "Member": 4261,
      "ported": 4262,
      ";\n    v": 4263,
      ", std::": 4264,
      "y and ": 4265,
      " S": 4266,
      "() << \"": 4267,
      "Change": 4268,
      ";\nusing ": 4269,
      "star": 4270,
      "ort ": 4271,
      "as_": 4272,
      "TRAN": 4273,
      "google::": 4274,
      "@param ": 4275,
      "pow": 4276,
      "COMP": 4277,
      "DEFAUL": 4278,
      "ric": 4279,
      "ause": 4280,
      "() {": 4281,
      "QString": 4282,
      "optim": 4283,
      "args": 4284,
      "TEST_F(": 4285,
      "attribute": 4286,
      "Factory": 4287,
      "POS": 4288,
      " of the ": 4289,
      "wait": 4290,
      "s on ": 4291,
      "Root": 4292,
      "WARRANTI": 4293,
      "c.": 4294,
      "Go": 4295,
      "ground": 4296,
      "Player": 4297,
      "2f": 4298,
      "_init": 4299,
      "override ": 4300,
      ":%.": 4301,
      ", so ": 4302,
      "ECT": 4303,
      "name, ": 4304,
      "_shared": 4305,
      "}  // ": 4306,
      "::Create": 4307,
      "\r\n      ": 4308,
      "_bit": 4309,
      "E, ": 4310,
      "failed": 4311,
      "->Add": 4312,
      "Eff": 4313,
      "\\\" ": 4314,
      "Template": 4315,
      "Case": 4316,
      "check ": 4317,
      "Symbol": 4318,
      "Play": 4319,
      "Scope": 4320,
      "Side": 4321,
      "operand": 4322,
      "BS": 4323,
      "Mach": 4324,
      "perform": 4325,
      "\", &": 4326,
      "#include ": 4327,
      ")\n\t": 4328,
      "s.h\"\n#include \"": 4329,
      "Native": 4330,
      "dig": 4331,
      "ument ": 4332,
      "y of ": 4333,
      "cache": 4334,
      "Values": 4335,
      "hum": 4336,
      "Icon": 4337,
      "Sol": 4338,
      ")\n\t\t{\n\t\t\t": 4339,
      "_TYPE_": 4340,
      "{ 0x": 4341,
      "\n\n  ": 4342,
      "0) ": 4343,
      "both ": 4344,
      "expected_": 4345,
      "Delete": 4346,
      "Types": 4347,
      "Font": 4348,
      ";\n}\n": 4349,
      "attern": 4350,
      "ler::": 4351,
      "emplace": 4352,
      "icro": 4353,
      "Kind": 4354,
      "ABLE_": 4355,
      "ENC": 4356,
      "prim": 4357,
      "_option": 4358,
      "called ": 4359,
      "Push": 4360,
      "__Py": 4361,
      "Policy": 4362,
      "void *": 4363,
      "s) ": 4364,
      "Suc": 4365,
      "coll": 4366,
      "Size = ": 4367,
      "  = ": 4368,
      "s;\n  ": 4369,
      "Vo": 4370,
      "c ": 4371,
      "; }\n\tinline ": 4372,
      ".value": 4373,
      "has been ": 4374,
      "(P": 4375,
      "mess": 4376,
      "0 && ": 4377,
      "inf": 4378,
      "stream ": 4379,
      "s\n    ": 4380,
      "ple ": 4381,
      "() - ": 4382,
      "Fee": 4383,
      "3f": 4384,
      "DefinitionSize": 4385,
      "example": 4386,
      "OBJ": 4387,
      "math": 4388,
      "http://www.": 4389,
      "py": 4390,
      "scr": 4391,
      "Equal": 4392,
      "Assemb": 4393,
      "enum": 4394,
      "\r\n// ": 4395,
      "sig": 4396,
      "_array": 4397,
      "Fail": 4398,
      "ized ": 4399,
      ")\r\n{": 4400,
      "neg": 4401,
      "scho": 4402,
      "face ": 4403,
      "ation.</w>": 4404,
      "delete": 4405,
      "Expect": 4406,
      "Error ": 4407,
      "ever ": 4408,
      ");\n  return ": 4409,
      ", m_": 4410,
      "\n#ifndef ": 4411,
      "Order": 4412,
      "()) {\n      ": 4413,
      "DAG": 4414,
      "Av": 4415,
      "IAL": 4416,
      "};\n    ": 4417,
      "El": 4418,
      "sv": 4419,
      "stor": 4420,
      "Async": 4421,
      "<std::string": 4422,
      "wrap": 4423,
      "s == ": 4424,
      "ben": 4425,
      "children": 4426,
      "sd": 4427,
      "Requ": 4428,
      "BUFF": 4429,
      "ified": 4430,
      "lua": 4431,
      "batch": 4432,
      "izer": 4433,
      "Make": 4434,
      "Int32": 4435,
      ";\r\n}\r\n\r\n": 4436,
      "87": 4437,
      "(0x": 4438,
      "mote": 4439,
      "Name ": 4440,
      "sample": 4441,
      "utex": 4442,
      "Resol": 4443,
      "CLUD": 4444,
      "cps[idx": 4445,
      "Options": 4446,
      "Feature": 4447,
      "ASSERT_TRUE(": 4448,
      "_end": 4449,
      "erase": 4450,
      "grad": 4451,
      "om_": 4452,
      "iteral": 4453,
      "conom": 4454,
      "ivers": 4455,
      "(j": 4456,
      "energ": 4457,
      "az": 4458,
      "Parent": 4459,
      "rup": 4460,
      "84": 4461,
      "0.5": 4462,
      "Extension": 4463,
      "ular ": 4464,
      "cket": 4465,
      "water ": 4466,
      "Imm": 4467,
      "utf32_range": 4468,
      "ict": 4469,
      "through": 4470,
      "hal": 4471,
      ":%.*": 4472,
      "Proxy": 4473,
      "abase": 4474,
      "\\0": 4475,
      "value = ": 4476,
      "@@": 4477,
      "ger ": 4478,
      "NAM": 4479,
      "LLVM": 4480,
      "OC": 4481,
      "permission": 4482,
      "o::": 4483,
      "free": 4484,
      "pot": 4485,
      ");\r\n        ": 4486,
      "Prov": 4487,
      "id, ": 4488,
      "eas": 4489,
      ") {\n    if (": 4490,
      "asm": 4491,
      "project": 4492,
      "TS": 4493,
      "_V": 4494,
      ".h>": 4495,
      "may be ": 4496,
      "_UN": 4497,
      "educ": 4498,
      "STATUS": 4499,
      "you": 4500,
      "them ": 4501,
      "DS": 4502,
      "ire ": 4503,
      "data.": 4504,
      "main ": 4505,
      "icon": 4506,
      "reserv": 4507,
      "used to ": 4508,
      "ached": 4509,
      "----------": 4510,
      "Dist": 4511,
      "chunk": 4512,
      "_field": 4513,
      "store ": 4514,
      "_pos": 4515,
      "() > ": 4516,
      "-20": 4517,
      "_msg": 4518,
      "Pay": 4519,
      "%s ": 4520,
      "_table": 4521,
      "gt": 4522,
      "it's ": 4523,
      "acro": 4524,
      "Session": 4525,
      "does not ": 4526,
      "ported ": 4527,
      "ency": 4528,
      "_pair": 4529,
      ", or ": 4530,
      "4.": 4531,
      "engine": 4532,
      "Clear": 4533,
      "SE(": 4534,
      "ask ": 4535,
      "RGB": 4536,
      "endif ": 4537,
      "low ": 4538,
      "ee": 4539,
      "c3": 4540,
      "Com": 4541,
      "9999": 4542,
      "of this ": 4543,
      "phys": 4544,
      "TRI": 4545,
      "<<<<<<<<": 4546,
      "PubKey": 4547,
      "foo": 4548,
      "such as ": 4549,
      ") {\n\t\t\t": 4550,
      "Cons": 4551,
      "not be ": 4552,
      "date ": 4553,
      "            // ": 4554,
      ".first": 4555,
      "ATCH": 4556,
      "GO": 4557,
      ";\n    }\n  ": 4558,
      "well ": 4559,
      "ight = ": 4560,
      "associ": 4561,
      "7, ": 4562,
      "iority": 4563,
      "verse": 4564,
      "lik": 4565,
      "ending": 4566,
      "ed the ": 4567,
      "(1, ": 4568,
      "wn": 4569,
      "ism": 4570,
      "/********": 4571,
      "nolog": 4572,
      "organ": 4573,
      "amount": 4574,
      "ibutes": 4575,
      "Scene": 4576,
      "VK_": 4577,
      "material": 4578,
      "__pyx_": 4579,
      "\t\t\t\t\t\t\t\t": 4580,
      "Opt": 4581,
      "KEY": 4582,
      "Plugin": 4583,
      "42": 4584,
      "INE_": 4585,
      "PROTO": 4586,
      "Emit": 4587,
      "il ": 4588,
      "Handle<": 4589,
      "Packet": 4590,
      "depth": 4591,
      ") << ": 4592,
      "ng": 4593,
      "famil": 4594,
      "UNCTION": 4595,
      "Heap": 4596,
      "Priv": 4597,
      "HE": 4598,
      "u, ": 4599,
      "();\n}\n\nvoid ": 4600,
      "re ": 4601,
      "buffer ": 4602,
      "ISD": 4603,
      "Normal": 4604,
      "Unity": 4605,
      "e-0": 4606,
      "b.": 4607,
      "Gu": 4608,
      "Test ": 4609,
      "#if": 4610,
      "_fil": 4611,
      "());\n      ": 4612,
      "Af": 4613,
      "s\"": 4614,
      "CHAN": 4615,
      "land": 4616,
      "BlockIndex": 4617,
      "Are": 4618,
      "_length": 4619,
      "());\n\n  ": 4620,
      "Top": 4621,
      ");\n#endif": 4622,
      "_manag": 4623,
      "Boun": 4624,
      "LOG(": 4625,
      "Description": 4626,
      "Reader": 4627,
      "_context": 4628,
      "maj": 4629,
      "());\n}\n\n": 4630,
      "************": 4631,
      "s: ": 4632,
      "acces": 4633,
      "SER": 4634,
      "; i": 4635,
      "range ": 4636,
      "TMP": 4637,
      "lh": 4638,
      "x = ": 4639,
      ")\n    {\n      ": 4640,
      "f8": 4641,
      "s);\n    ": 4642,
      "dd": 4643,
      "CM": 4644,
      ">>>>": 4645,
      "next ": 4646,
      "MAT_": 4647,
      "31": 4648,
      "Ref ": 4649,
      "havi": 4650,
      "::create": 4651,
      "ris": 4652,
      ".com": 4653,
      "member": 4654,
      "_min": 4655,
      "];\n        ": 4656,
      ",    ": 4657,
      "new_": 4658,
      "for (const ": 4659,
      "above ": 4660,
      "deter": 4661,
      "ED_": 4662,
      "filename": 4663,
      "if (f": 4664,
      "0.0f": 4665,
      "        return ": 4666,
      "help": 4667,
      "edge": 4668,
      "default ": 4669,
      "add ": 4670,
      "previ": 4671,
      "alway": 4672,
      " >= ": 4673,
      "prop": 4674,
      ") : ": 4675,
      "false ": 4676,
      "s_.": 4677,
      "ING ": 4678,
      "AIL": 4679,
      "sr": 4680,
      "::google::": 4681,
      "COP": 4682,
      "Pe": 4683,
      "protobuf::": 4684,
      "los": 4685,
      "CD": 4686,
      "When ": 4687,
      "Publ": 4688,
      "[i] = ": 4689,
      "again": 4690,
      "PyObject *": 4691,
      "ping": 4692,
      "()))": 4693,
      "force": 4694,
      "<< std::endl": 4695,
      "Mark": 4696,
      "HS": 4697,
      "DER": 4698,
      " b": 4699,
      "ied ": 4700,
      "Long": 4701,
      "ITION": 4702,
      "find ": 4703,
      "ren ": 4704,
      "elect": 4705,
      "istic": 4706,
      "REQUIRE": 4707,
      "OFTW": 4708,
      "ECTION": 4709,
      "tile": 4710,
      "s is ": 4711,
      "CALL": 4712,
      "result.": 4713,
      "One": 4714,
      "conver": 4715,
      "ther ": 4716,
      "TEXT": 4717,
      "display": 4718,
      "spe": 4719,
      "Prev": 4720,
      "fill": 4721,
      "enter": 4722,
      "ONE": 4723,
      "e, ": 4724,
      "oup ": 4725,
      "fact": 4726,
      "(-": 4727,
      "02": 4728,
      "expression": 4729,
      ");\n}\n": 4730,
      "cmd": 4731,
      "FALSE": 4732,
      "std::cout << \"": 4733,
      "dynamic": 4734,
      "_num": 4735,
      ");\n\n      ": 4736,
      "that": 4737,
      "s.\n  ": 4738,
      " = 0;\n        ": 4739,
      "_shape": 4740,
      "85": 4741,
      "_int": 4742,
      "Check ": 4743,
      "legate": 4744,
      "urn ": 4745,
      "OFTWARE": 4746,
      "+ 1": 4747,
      "::V": 4748,
      "Len": 4749,
      "since ": 4750,
      "): ": 4751,
      "disc": 4752,
      "Enable": 4753,
      "idth ": 4754,
      "Pres": 4755,
      "cat": 4756,
      "_inst": 4757,
      "];\n    ": 4758,
      "adow": 4759,
      "e and ": 4760,
      "\n\t\t{\n\t\t\t": 4761,
      "nost": 4762,
      "_PRO": 4763,
      "static const ": 4764,
      "SC_(": 4765,
      "gres": 4766,
      "quest ": 4767,
      "Operator": 4768,
      "Acc": 4769,
      "000000": 4770,
      "));\n}\n\n": 4771,
      "void* ": 4772,
      "dimension": 4773,
      "addition": 4774,
      "Hex": 4775,
      "s<": 4776,
      "hy": 4777,
      "ates ": 4778,
      "clip": 4779,
      "dyn": 4780,
      "adv": 4781,
      "\" << i": 4782,
      "alpha": 4783,
      "Context ": 4784,
      "Coll": 4785,
      "FE": 4786,
      "};\n  ": 4787,
      "Att": 4788,
      "mult": 4789,
      "cost": 4790,
      "ution ": 4791,
      " = nullptr": 4792,
      "wheth": 4793,
      "Binary": 4794,
      "socket": 4795,
      "Body": 4796,
      "memory ": 4797,
      "16 ": 4798,
      "|| (": 4799,
      "compare": 4800,
      "Integer": 4801,
      "Look": 4802,
      "{\n\t": 4803,
      "Collection": 4804,
      ", 0x4": 4805,
      "_base": 4806,
      "Lite": 4807,
      "sertion": 4808,
      "imum": 4809,
      "BC": 4810,
      "Reference": 4811,
      "_var": 4812,
      ", 3": 4813,
      " to the ": 4814,
      "() { return ": 4815,
      "symbol": 4816,
      "nee": 4817,
      "mesh": 4818,
      "reordered_": 4819,
      "rary": 4820,
      "[p": 4821,
      "yy": 4822,
      " = 0;\n    ": 4823,
      ", a ": 4824,
      "\"C": 4825,
      "oute": 4826,
      "meas": 4827,
      "bas": 4828,
      "bod": 4829,
      "ule ": 4830,
      "_SH": 4831,
      "important ": 4832,
      "applic": 4833,
      "\";\n  ": 4834,
      "into the ": 4835,
      "support ": 4836,
      "Only": 4837,
      "ability": 4838,
      "Nav": 4839,
      "Raw": 4840,
      "]] = ": 4841,
      ">(\"": 4842,
      "\");\n\n    ": 4843,
      "job": 4844,
      "[[TMP": 4845,
      "dl": 4846,
      "VERIF": 4847,
      "\n */\n": 4848,
      "comb": 4849,
      "%d ": 4850,
      "Container": 4851,
      "s[i].": 4852,
      "), \"": 4853,
      "uture": 4854,
      "QString ": 4855,
      "vk": 4856,
      "FALSE(": 4857,
      "TF": 4858,
      "89": 4859,
      "INCLUD": 4860,
      "ret = ": 4861,
      ";\n    v[": 4862,
      ", *": 4863,
      "iled to ": 4864,
      "delta": 4865,
      "_size ": 4866,
      "Trace": 4867,
      "Coins": 4868,
      "swap": 4869,
      "Diag": 4870,
      "igno": 4871,
      ".Add": 4872,
      "\\\n    ": 4873,
      "(key": 4874,
      "(), \"": 4875,
      "Info.": 4876,
      "Instr": 4877,
      "second ": 4878,
      "Remove": 4879,
      "_t> ": 4880,
      "vide": 4881,
      "for a ": 4882,
      ") {\n          ": 4883,
      "Cr": 4884,
      "hex": 4885,
      "===": 4886,
      "Register ": 4887,
      " = get": 4888,
      "BR": 4889,
      "INVALID": 4890,
      "s were ": 4891,
      "255": 4892,
      "Wire": 4893,
      "alog": 4894,
      "post": 4895,
      ")\n          ": 4896,
      "simpl": 4897,
      "record": 4898,
      "FOR ": 4899,
      "Machine": 4900,
      "array ": 4901,
      "[1] = ": 4902,
      "0,0,0,0,": 4903,
      "econom": 4904,
      ",2": 4905,
      "liv": 4906,
      "img": 4907,
      "04": 4908,
      "hic": 4909,
      "ESP": 4910,
      "invalid": 4911,
      "-------------": 4912,
      "still ": 4913,
      "info.": 4914,
      "transl": 4915,
      "ically ": 4916,
      " */\n    ": 4917,
      "now ": 4918,
      "Register::": 4919,
      "000 ": 4920,
      "ially ": 4921,
      ") {\n  // ": 4922,
      "internal::": 4923,
      "including ": 4924,
      "we'": 4925,
      "pur": 4926,
      "-1, -1, ": 4927,
      "UnityEngine": 4928,
      "foc": 4929,
      "TL": 4930,
      "&& !": 4931,
      "xml": 4932,
      "tl": 4933,
      "change ": 4934,
      "Profile": 4935,
      "TRUE": 4936,
      "Use ": 4937,
      "MC": 4938,
      "_handle": 4939,
      "Metadata": 4940,
      "ae": 4941,
      "Params": 4942,
      "required ": 4943,
      "claim": 4944,
      "()->Get": 4945,
      "10 ": 4946,
      "05": 4947,
      "There ": 4948,
      "optional": 4949,
      "0 = ": 4950,
      "win": 4951,
      "CEP": 4952,
      "Found": 4953,
      "shader": 4954,
      "Buf": 4955,
      "compil": 4956,
      "max_": 4957,
      "(arg": 4958,
      "fun": 4959,
      "CAS": 4960,
      "SQ": 4961,
      "ness": 4962,
      "ized_": 4963,
      "6 ": 4964,
      "intern": 4965,
      "curr": 4966,
      "typename T": 4967,
      "Post": 4968,
      "Pack": 4969,
      "(e": 4970,
      "{\n\n": 4971,
      "trace": 4972,
      ";  // ": 4973,
      "Cursor": 4974,
      "If the ": 4975,
      "Convert": 4976,
      "health ": 4977,
      "un ": 4978,
      "U3": 4979,
      "ideo": 4980,
      "{\n          ": 4981,
      "Info ": 4982,
      "ialized": 4983,
      "Properties": 4984,
      "_cur": 4985,
      "Chunk": 4986,
      "Dev": 4987,
      "))\n            ": 4988,
      "TIM": 4989,
      "());\n\n    ": 4990,
      "much ": 4991,
      "Meta": 4992,
      "Pop": 4993,
      "Reset": 4994,
      "))\n    ": 4995,
      "CCESS": 4996,
      "car": 4997,
      "Domain": 4998,
      ");\r\n\t": 4999,
      "Vector<": 5000,
      "distance": 5001,
      "ORT": 5002,
      "ONG": 5003,
      ",\n    const ": 5004,
      "ing of ": 5005,
      "place ": 5006,
      "Selection": 5007,
      "m.": 5008,
      "wo": 5009,
      "state.": 5010,
      "ver ": 5011,
      "\n ": 5012,
      "allocator": 5013,
      "sl::": 5014,
      "2)": 5015,
      "(new ": 5016,
      "Date": 5017,
      ") / ": 5018,
      ";\n\t\t\t\t\t": 5019,
      "_coun": 5020,
      "_3": 5021,
      "inv": 5022,
      "visit": 5023,
      "();\n\n        ": 5024,
      "Effect": 5025,
      ", L": 5026,
      "Args": 5027,
      "# ": 5028,
      ");\n\t}\n\n\t": 5029,
      "DIS": 5030,
      "Ax": 5031,
      "FP": 5032,
      "algorith": 5033,
      "++ ": 5034,
      "_limit": 5035,
      "master": 5036,
      "GUI": 5037,
      "more than ": 5038,
      "VIC": 5039,
      "mutex": 5040,
      "imm": 5041,
      "const char *": 5042,
      "stride": 5043,
      ");\n    }\n  ": 5044,
      "core/": 5045,
      "Receiv": 5046,
      "Dynamic": 5047,
      " = std::": 5048,
      "a.": 5049,
      "_shared<": 5050,
      "Move": 5051,
      "dict": 5052,
      "bool f": 5053,
      "mar": 5054,
      ".has": 5055,
      "Ag": 5056,
      "Result ": 5057,
      "Protocol": 5058,
      "WE": 5059,
      "\n\n// ": 5060,
      "/** ": 5061,
      "AS IS": 5062,
      "quant": 5063,
      "_stat": 5064,
      "GPU": 5065,
      "D3D": 5066,
      "iterator": 5067,
      "Generic": 5068,
      "(op": 5069,
      "if (m_": 5070,
      "_read": 5071,
      "igen": 5072,
      "OUT": 5073,
      "ction ": 5074,
      "Surface": 5075,
      "ImGui::": 5076,
      "thing": 5077,
      "utor": 5078,
      "_tensor": 5079,
      "||\n        ": 5080,
      "asy": 5081,
      "CPU": 5082,
      "Section": 5083,
      "} else {\n    ": 5084,
      "provided ": 5085,
      "x : ": 5086,
      "wise": 5087,
      "Activ": 5088,
      "\n\n\t": 5089,
      "ESS ": 5090,
      "\r\n    // ": 5091,
      "Env": 5092,
      "_frame": 5093,
      ".he": 5094,
      "_4": 5095,
      "/g": 5096,
      "pri": 5097,
      "Error(": 5098,
      "Origin": 5099,
      "voke": 5100,
      "!= nullptr": 5101,
      "-= ": 5102,
      "Pair(\"": 5103,
      "trins": 5104,
      "Handle ": 5105,
      "_5": 5106,
      "INT_": 5107,
      "handler": 5108,
      "runtime_error": 5109,
      "tak": 5110,
      "ed.</w>": 5111,
      "uda": 5112,
      "_config": 5113,
      "_out": 5114,
      "Set ": 5115,
      "Anal": 5116,
      "Wait": 5117,
      "lobal ": 5118,
      "initial": 5119,
      "PO": 5120,
      "align ": 5121,
      "fix": 5122,
      "Free": 5123,
      ") - ": 5124,
      "(3": 5125,
      "[4": 5126,
      "IMIT": 5127,
      ",        ": 5128,
      "Left": 5129,
      "TEST(": 5130,
      "alance": 5131,
      "()));\n        ": 5132,
      "ation and ": 5133,
      "printf(": 5134,
      ".size(); ": 5135,
      "Grid": 5136,
      "here ": 5137,
      "*, ": 5138,
      "VALU": 5139,
      "person": 5140,
      "namespace": 5141,
      "::~": 5142,
      "Example": 5143,
      "Mouse": 5144,
      "bit ": 5145,
      "er than ": 5146,
      "for (unsigned ": 5147,
      "idd": 5148,
      "p.": 5149,
      "WARRANTIES ": 5150,
      "\n# ": 5151,
      "); // ": 5152,
      "{\n        // ": 5153,
      "II": 5154,
      "scan": 5155,
      "lua_": 5156,
      "Shared": 5157,
      "side ": 5158,
      "software ": 5159,
      "2]": 5160,
      "\\\n  ": 5161,
      "DD": 5162,
      "s to the ": 5163,
      "public:": 5164,
      ", (": 5165,
      "\n#pragma ": 5166,
      "unsigned": 5167,
      "ARRAY": 5168,
      "only": 5169,
      "product": 5170,
      "appl": 5171,
      "SG": 5172,
      "mode ": 5173,
      "2CP": 5174,
      "Node* ": 5175,
      "() : ": 5176,
      "does": 5177,
      "Full": 5178,
      "children ": 5179,
      "_en": 5180,
      "have a ": 5181,
      "_output": 5182,
      "bool is": 5183,
      "06": 5184,
      "field ": 5185,
      "BUF": 5186,
      "kin": 5187,
      "ll ": 5188,
      "calcul": 5189,
      ";\r\n            ": 5190,
      "s and the ": 5191,
      "apache": 5192,
      "IX": 5193,
      "scale": 5194,
      "around ": 5195,
      "& 0x": 5196,
      "09": 5197,
      "_dis": 5198,
      "take ": 5199,
      "Text(": 5200,
      "_size = ": 5201,
      ", 0x6": 5202,
      "EST": 5203,
      "ug": 5204,
      "language ": 5205,
      "Args.": 5206,
      ", 0xff": 5207,
      "storage": 5208,
      "Builtin": 5209,
      "fn": 5210,
      "_a": 5211,
      "Material": 5212,
      "CA": 5213,
      "To ": 5214,
      "[0] ": 5215,
      "Close": 5216,
      "72": 5217,
      "Bounded": 5218,
      "TIC": 5219,
      "Fill": 5220,
      "Type, ": 5221,
      ") || ": 5222,
      "\" << std::": 5223,
      ")\"": 5224,
      "Elem": 5225,
      "rev": 5226,
      ":%.*]] = ": 5227,
      "x::": 5228,
      "exit": 5229,
      "XML": 5230,
      "Visit": 5231,
      "it != ": 5232,
      "FIX": 5233,
      "y = ": 5234,
      "write ": 5235,
      ";\n        if (": 5236,
      "These ": 5237,
      "A, ": 5238,
      "ability ": 5239,
      "_scal": 5240,
      "Verify": 5241,
      "Sequence": 5242,
      "oo": 5243,
      "author": 5244,
      "(N": 5245,
      "Insert": 5246,
      "\\r": 5247,
      "f::": 5248,
      "s);\n  ": 5249,
      "want ": 5250,
      "Pt": 5251,
      ".hpp\"": 5252,
      "Clip": 5253,
      "ning": 5254,
      "));\n      ": 5255,
      "class T": 5256,
      "Release": 5257,
      "ince ": 5258,
      "detail::": 5259,
      "\"AS IS": 5260,
      "FR": 5261,
      "!= NULL": 5262,
      "thing ": 5263,
      "1f": 5264,
      "order ": 5265,
      "Version ": 5266,
      "HandSide": 5267,
      "conv": 5268,
      "[&]": 5269,
      "vertic": 5270,
      "method ": 5271,
      "_result": 5272,
      "pointer": 5273,
      "made ": 5274,
      "need ": 5275,
      "OR CON": 5276,
      "random": 5277,
      "ativ": 5278,
      "Show": 5279,
      "_line": 5280,
      "_pl": 5281,
      "Invalid ": 5282,
      "(1)": 5283,
      "No ": 5284,
      "Tip": 5285,
      "day ": 5286,
      "_PAR": 5287,
      "interface": 5288,
      "Construct": 5289,
      "BUFFER": 5290,
      "compres": 5291,
      ")) {\n    ": 5292,
      "EG": 5293,
      "\").": 5294,
      "HR": 5295,
      "COPY": 5296,
      "every ": 5297,
      "() || ": 5298,
      "Allocator": 5299,
      ",\n          ": 5300,
      "Scale": 5301,
      "WR": 5302,
      "deriv": 5303,
      "std::vector<int": 5304,
      "\r\n\t\t\t\t": 5305,
      "List ": 5306,
      ".\n            ": 5307,
      "technolog": 5308,
      ", sizeof(": 5309,
      "norm": 5310,
      "Array ": 5311,
      ":\n  case ": 5312,
      "Poly": 5313,
      "RightHandSide": 5314,
      ">{": 5315,
      "RETUR": 5316,
      "USE_": 5317,
      "Account": 5318,
      "BAS": 5319,
      "OTH": 5320,
      "chedule": 5321,
      "short": 5322,
      " = *": 5323,
      ", R": 5324,
      "Limit": 5325,
      "WAR": 5326,
      "_from_": 5327,
      "heap": 5328,
      "t.": 5329,
      "while": 5330,
      ") {\n    // ": 5331,
      "[0], ": 5332,
      "style": 5333,
      "health": 5334,
      "(data": 5335,
      "break;\n      ": 5336,
      "Name = ": 5337,
      "BoundedVector": 5338,
      "1D": 5339,
      "ses ": 5340,
      "implement": 5341,
      "mag": 5342,
      "eter ": 5343,
      "FC": 5344,
      ";\n\t}\n\t": 5345,
      "0)\n        ": 5346,
      "Opcode": 5347,
      "Prop": 5348,
      "Editor": 5349,
      "version ": 5350,
      "down ": 5351,
      "tri": 5352,
      "descriptor": 5353,
      "ented ": 5354,
      "crRightHandSide": 5355,
      "ning ": 5356,
      ";\n    return ": 5357,
      ", nullptr": 5358,
      "Transl": 5359,
      "500": 5360,
      "System::": 5361,
      "BOOST_PP": 5362,
      "y to ": 5363,
      "*> ": 5364,
      "cps[idx]": 5365,
      "_log": 5366,
      "UID": 5367,
      "            \"": 5368,
      "axis": 5369,
      ") ? ": 5370,
      "_ST": 5371,
      ", 2": 5372,
      " | ": 5373,
      "::R": 5374,
      "(Get": 5375,
      "5.": 5376,
      "ormat": 5377,
      "boost/": 5378,
      "system ": 5379,
      "bus": 5380,
      "learn": 5381,
      "Vol": 5382,
      "gress": 5383,
      "(!": 5384,
      "*/\n    ": 5385,
      "type == ": 5386,
      "\n///": 5387,
      "Masternode": 5388,
      "s = 0": 5389,
      "firm": 5390,
      "PS": 5391,
      "Light": 5392,
      "_len": 5393,
      "Mock": 5394,
      "Off": 5395,
      "rights ": 5396,
      "mak": 5397,
      "cent ": 5398,
      "service": 5399,
      "=*/": 5400,
      "until": 5401,
      "Delta": 5402,
      "Stand": 5403,
      "SIL": 5404,
      "HTT": 5405,
      "Ter": 5406,
      "(to": 5407,
      "kind": 5408,
      "None": 5409,
      "Video": 5410,
      "packet": 5411,
      "cpy": 5412,
      "ience ": 5413,
      "equal": 5414,
      "list of ": 5415,
      "ations": 5416,
      "Project": 5417,
      "Batch": 5418,
      "release": 5419,
      "irt": 5420,
      "bel": 5421,
      "estim": 5422,
      "Ang": 5423,
      "flu": 5424,
      "/**\n * ": 5425,
      "cm": 5426,
      "};\n        ": 5427,
      ");\n  EXPECT_EQ(": 5428,
      "INTER": 5429,
      "might ": 5430,
      " = m_": 5431,
      "mi": 5432,
      "s.get": 5433,
      "ORT_": 5434,
      "names": 5435,
      " P": 5436,
      "     0,": 5437,
      "ant(": 5438,
      "property": 5439,
      " = &": 5440,
      "ivid": 5441,
      "age = ": 5442,
      "sequ": 5443,
      "adding": 5444,
      "FAIL": 5445,
      ", this ": 5446,
      "parser": 5447,
      ".\n  if (": 5448,
      "ward ": 5449,
      "\n\n        ": 5450,
      "ate_": 5451,
      "MF": 5452,
      "Count ": 5453,
      "Partic": 5454,
      "s as ": 5455,
      "ffffffff": 5456,
      "sever": 5457,
      "High": 5458,
      "CE_": 5459,
      "provide ": 5460,
      "ecess": 5461,
      "Uniform": 5462,
      "Software ": 5463,
      "nap": 5464,
      "\n{\n": 5465,
      "qr": 5466,
      "ave ": 5467,
      "int>(": 5468,
      "agment": 5469,
      "big": 5470,
      "#else": 5471,
      "ute ": 5472,
      "WITHOUT ": 5473,
      "),\n    ": 5474,
      "rome": 5475,
      "_mat": 5476,
      "gb": 5477,
      "olean": 5478,
      "som": 5479,
      "UINT": 5480,
      "Medi": 5481,
      "Key ": 5482,
      ")) {\n      ": 5483,
      "report": 5484,
      "ulation": 5485,
      ">\n    ": 5486,
      "Star": 5487,
      "ot ": 5488,
      "ARM": 5489,
      "Word": 5490,
      "Wrapper": 5491,
      "THIS": 5492,
      ", 4": 5493,
      "() const\n{\n    ": 5494,
      "} else {\n      ": 5495,
      "_tmp": 5496,
      "compute": 5497,
      "book": 5498,
      "_check": 5499,
      "Lower": 5500,
      "LINE": 5501,
      "ally": 5502,
      "agre": 5503,
      "_iterator": 5504,
      "=\n            ": 5505,
      ", w": 5506,
      "('": 5507,
      "lower": 5508,
      "FD": 5509,
      "vas": 5510,
      "ADDR": 5511,
      "\n    \"": 5512,
      "\n{\n  ": 5513,
      "Condition": 5514,
      "Controller": 5515,
      "there": 5516,
      "ential ": 5517,
      "03": 5518,
      "_callback": 5519,
      "arent": 5520,
      "direction": 5521,
      "auto *": 5522,
      "IL2CP": 5523,
      "assert": 5524,
      "ies.</w>": 5525,
      "));\n\n    ": 5526,
      "; j": 5527,
      "Pattern": 5528,
      "See ": 5529,
      "platform": 5530,
      "Amount": 5531,
      "grid": 5532,
      "), SC_(": 5533,
      "Constraint": 5534,
      "BOOST_CHECK(": 5535,
      "_ref": 5536,
      "', '": 5537,
      "ialization": 5538,
      "FIT": 5539,
      "_iterator ": 5540,
      "_desc": 5541,
      "()\n        ": 5542,
      "iod": 5543,
      ")(": 5544,
      "lp": 5545,
      "Variant": 5546,
      "layout": 5547,
      "Den": 5548,
      "\n{\n\t": 5549,
      "ample ": 5550,
      "Ali": 5551,
      "SE_": 5552,
      ", -": 5553,
      "Append": 5554,
      "43": 5555,
      "Cluster": 5556,
      "aset": 5557,
      "cogn": 5558,
      "ency ": 5559,
      "\"));\n    ": 5560,
      "browser": 5561,
      "s(const ": 5562,
      "to a ": 5563,
      "{\r\n\t\t": 5564,
      "environment": 5565,
      "Best": 5566,
      "\",\"": 5567,
      "Create ": 5568,
      "bt": 5569,
      "Camera": 5570,
      "alk": 5571,
      "cs": 5572,
      "EXCEP": 5573,
      ");\n\n        // ": 5574,
      "dom": 5575,
      "al_": 5576,
      "7 ": 5577,
      "control ": 5578,
      ".\"": 5579,
      "left ": 5580,
      "emplace_back": 5581,
      "fp": 5582,
      "event ": 5583,
      "_FAIL": 5584,
      "(\n            ": 5585,
      ") {\n  if (": 5586,
      "CTx": 5587,
      "acity": 5588,
      "_no": 5589,
      "64 ": 5590,
      "trinsic": 5591,
      "ENT ": 5592,
      "NOT ": 5593,
      "return nullptr": 5594,
      "LOAD": 5595,
      "What ": 5596,
      "ategory": 5597,
      "base/": 5598,
      "seq": 5599,
      "cope ": 5600,
      "Size(": 5601,
      "have been ": 5602,
      "expres": 5603,
      "std::move(": 5604,
      "api": 5605,
      "    -1,": 5606,
      "Edge": 5607,
      "This is ": 5608,
      "happ": 5609,
      "ten": 5610,
      "Time ": 5611,
      "Name, ": 5612,
      "        break": 5613,
      "Step": 5614,
      "));\n\n  ": 5615,
      "reserve": 5616,
      "aver": 5617,
      "t->": 5618,
      "]]": 5619,
      "}\n\t\t\t\t": 5620,
      "js": 5621,
      "enum ": 5622,
      "FFFF": 5623,
      "window->": 5624,
      "os ": 5625,
      "cour": 5626,
      "_TEST_": 5627,
      ".org/license": 5628,
      "s\n        ": 5629,
      "RESUL": 5630,
      "LIMIT": 5631,
      "UTF": 5632,
      "Lookup": 5633,
      "illion ": 5634,
      "Value *": 5635,
      ";\n\n      ": 5636,
      "ames": 5637,
      "tal ": 5638,
      "catch (": 5639,
      "quer": 5640,
      "_reg": 5641,
      "_idx": 5642,
      "abl": 5643,
      "individ": 5644,
      "er and ": 5645,
      "coding": 5646,
      "ctx, ": 5647,
      ">\n\n#include <": 5648,
      ";\n\n    if (": 5649,
      "!=": 5650,
      "Math": 5651,
      "Name(": 5652,
      "often ": 5653,
      ";\n}\n\n// ": 5654,
      "//    ": 5655,
      "entity": 5656,
      ")\r\n        ": 5657,
      "peer": 5658,
      "beg": 5659,
      "ALL ": 5660,
      "_thread": 5661,
      "%[": 5662,
      "necess": 5663,
      "_request": 5664,
      "Document": 5665,
      "evalu": 5666,
      "umul": 5667,
      "0, 0, 0, 0, ": 5668,
      "unsigned char": 5669,
      "indic": 5670,
      "DCHECK(": 5671,
      "_ME": 5672,
      "count(": 5673,
      "Flags": 5674,
      "_header": 5675,
      "[] ": 5676,
      "research ": 5677,
      "<std::": 5678,
      "Optim": 5679,
      "table ": 5680,
      "::s": 5681,
      "\\\",": 5682,
      "c = ": 5683,
      "But ": 5684,
      ".clear": 5685,
      "}\n#endif": 5686,
      ".org/licenses/": 5687,
      "_sign": 5688,
      "uff": 5689,
      "EXPECT_EQ": 5690,
      "Pipeline": 5691,
      "pwallet": 5692,
      "cf": 5693,
      "MD": 5694,
      "charg": 5695,
      "This": 5696,
      "proj": 5697,
      "CRIP": 5698,
      "rv": 5699,
      "all the ": 5700,
      "07": 5701,
      "sure": 5702,
      "PC_": 5703,
      "ns": 5704,
      "front": 5705,
      "status = ": 5706,
      "\n\"": 5707,
      "index ": 5708,
      "keep": 5709,
      "s, the ": 5710,
      "mach": 5711,
      "expected ": 5712,
      "ibute ": 5713,
      "vest": 5714,
      "+1": 5715,
      ");\n}\n\n// ": 5716,
      "512": 5717,
      "Success": 5718,
      "possible ": 5719,
      "lim": 5720,
      "Status::": 5721,
      "and/": 5722,
      "es and ": 5723,
      "W_": 5724,
      "reach": 5725,
      "Compute": 5726,
      " = m": 5727,
      "U.S": 5728,
      "request.": 5729,
      "_lock": 5730,
      "publish": 5731,
      "least ": 5732,
      "skip": 5733,
      "nu": 5734,
      "ouch": 5735,
      "UB": 5736,
      "war": 5737,
      "ential": 5738,
      "It is ": 5739,
      "pixel": 5740,
      "}\r\n    ": 5741,
      "extr": 5742,
      "Prefix": 5743,
      "_max": 5744,
      " that ": 5745,
      "SS": 5746,
      "8, 0x": 5747,
      "_t::": 5748,
      ".is_": 5749,
      "commit": 5750,
      "Generator": 5751,
      "KIND": 5752,
      "92": 5753,
      "afe": 5754,
      "Small": 5755,
      "Common": 5756,
      "imitive": 5757,
      "doesn't ": 5758,
      "L\"": 5759,
      "\r\n#include \"": 5760,
      "size_t": 5761,
      "pract": 5762,
      "soci": 5763,
      "9, ": 5764,
      "effic": 5765,
      "))\n      ": 5766,
      "address ": 5767,
      "JSONRPC": 5768,
      "s\", ": 5769,
      "\n//    ": 5770,
      "(out": 5771,
      "global ": 5772,
      "care ": 5773,
      "protect": 5774,
      "\n//--------": 5775,
      "_cre": 5776,
      "do not ": 5777,
      "%s\\n\", ": 5778,
      "WIN": 5779,
      "always ": 5780,
      "during ": 5781,
      "olog": 5782,
      "design": 5783,
      "%u": 5784,
      "ity.</w>": 5785,
      "s2": 5786,
      "Count = ": 5787,
      "status ": 5788,
      "ced ": 5789,
      "signal": 5790,
      "World": 5791,
      "OR_": 5792,
      "Atom": 5793,
      "Initialize": 5794,
      "Rot": 5795,
      "represent": 5796,
      "s to be ": 5797,
      "Conver": 5798,
      "ym": 5799,
      "ype": 5800,
      "GN": 5801,
      "3F": 5802,
      "aybe": 5803,
      "itt": 5804,
      "PER": 5805,
      "ASSERT": 5806,
      "anti": 5807,
      "group ": 5808,
      "() << ": 5809,
      "Weight": 5810,
      "normalized_": 5811,
      "_stream": 5812,
      "EE": 5813,
      ", F": 5814,
      "_method": 5815,
      "Utils::": 5816,
      "iple": 5817,
      "too ": 5818,
      "tensorflow": 5819,
      "[n": 5820,
      "(H": 5821,
      ";        ": 5822,
      "Adjust": 5823,
      "(result": 5824,
      "another ": 5825,
      "s[1]": 5826,
      "utdown": 5827,
      "ctionary": 5828,
      "unch": 5829,
      "a.</w>": 5830,
      "i8": 5831,
      "ighbor": 5832,
      "Total": 5833,
      "_mode": 5834,
      "ission": 5835,
      "syn": 5836,
      ");\n\t\t\t\t\t": 5837,
      "wr": 5838,
      "They ": 5839,
      "Head": 5840,
      "ful ": 5841,
      "TER": 5842,
      "CWallet": 5843,
      "NUM": 5844,
      "(G": 5845,
      "\n       ": 5846,
      "type, ": 5847,
      "_color": 5848,
      "How": 5849,
      "_item": 5850,
      "stract": 5851,
      "explic": 5852,
      "government ": 5853,
      "sequence": 5854,
      "LogPrintf(\"": 5855,
      "(4": 5856,
      "voc": 5857,
      "complex": 5858,
      "########": 5859,
      "remain": 5860,
      "ROM": 5861,
      "_width": 5862,
      "Pas": 5863,
      "convert": 5864,
      "player": 5865,
      "(in": 5866,
      "::Is": 5867,
      "anel": 5868,
      "_val": 5869,
      "LEM": 5870,
      "OFF": 5871,
      "().c_str": 5872,
      "LOAT": 5873,
      "AL_": 5874,
      "... ": 5875,
      "(tx": 5876,
      ", d": 5877,
      "S OF ": 5878,
      "single ": 5879,
      "bf": 5880,
      "dise": 5881,
      "teach": 5882,
      "Names": 5883,
      "centr": 5884,
      "lease ": 5885,
      "shot": 5886,
      "(cs_": 5887,
      "BOOL": 5888,
      "nf": 5889,
      "params.": 5890,
      "reshold": 5891,
      "RIGH": 5892,
      "lv": 5893,
      "\" << std::endl": 5894,
      "treat": 5895,
      "QT_": 5896,
      "void\n": 5897,
      "amount ": 5898,
      "[2] = ": 5899,
      "_per": 5900,
      "CHAR": 5901,
      "Sum": 5902,
      "Proc": 5903,
      ";\r\n\r\n    ": 5904,
      "large ": 5905,
      "CHECK_EQUAL": 5906,
      "Usage": 5907,
      "basic": 5908,
      "ler ": 5909,
      "string str": 5910,
      "_NAMESP": 5911,
      "*\n": 5912,
      "timestamp": 5913,
      "oud": 5914,
      "Initial": 5915,
      "(q": 5916,
      "\n\nvoid ": 5917,
      "dump": 5918,
      "g_type": 5919,
      ");\n    if (!": 5920,
      "i32 ": 5921,
      "b ": 5922,
      "aren": 5923,
      "_run": 5924,
      "Ve": 5925,
      ") const {\n  ": 5926,
      "_hash": 5927,
      "transaction ": 5928,
      "ATH": 5929,
      "Random": 5930,
      "Mess": 5931,
      "_space": 5932,
      "separ": 5933,
      "_SIZE": 5934,
      "available": 5935,
      "scene": 5936,
      "////////////": 5937,
      ")*": 5938,
      "mil": 5939,
      "\")\n        ": 5940,
      "Int(": 5941,
      "secur": 5942,
      "appe": 5943,
      "Geometry": 5944,
      "_to_": 5945,
      "iled ": 5946,
      "bc": 5947,
      "s + ": 5948,
      "X ": 5949,
      "wom": 5950,
      "_CL": 5951,
      "Application": 5952,
      "7.": 5953,
      ",\r\n        ": 5954,
      "10, ": 5955,
      "lean": 5956,
      "apply": 5957,
      "11 ": 5958,
      "Exter": 5959,
      "At(": 5960,
      "return result": 5961,
      "Compare": 5962,
      "train": 5963,
      "to_": 5964,
      "handle ": 5965,
      "soc": 5966,
      "(cp": 5967,
      ", 1, ": 5968,
      "l::": 5969,
      "_message": 5970,
      "ik": 5971,
      "Sem": 5972,
      "ization ": 5973,
      "\n\n\n": 5974,
      "side": 5975,
      "copyright ": 5976,
      "\\\n        ": 5977,
      "Lat": 5978,
      ".c_str(), ": 5979,
      "_COMP": 5980,
      "*) ": 5981,
      ", t": 5982,
      "nat": 5983,
      "HO": 5984,
      "%s\", ": 5985,
      "std::map": 5986,
      "Jav": 5987,
      "Author": 5988,
      "ustr": 5989,
      "} // namespace ": 5990,
      "auto const ": 5991,
      "() < ": 5992,
      "actual": 5993,
      "Address(": 5994,
      "digit": 5995,
      "#define ": 5996,
      ", it ": 5997,
      "body ": 5998,
      "LICENSE": 5999,
      ") {\n  return ": 6000,
      "MIN": 6001,
      "_column": 6002,
      "ysis": 6003,
      "open ": 6004,
      ");\n\n    if (": 6005,
      ".\n// ": 6006,
      "sTo": 6007,
      "outer": 6008,
      "}\n    }\n  ": 6009,
      "] + ": 6010,
      "occur": 6011,
      "(\n          ": 6012,
      "_pointer": 6013,
      "element ": 6014,
      "ment of ": 6015,
      "_bytes": 6016,
      "_unique": 6017,
      "Vector3": 6018,
      "io::": 6019,
      "Man": 6020,
      "inste": 6021,
      "ber_": 6022,
      "Complet": 6023,
      "against ": 6024,
      "();\n\t\t\t": 6025,
      "\r\n//": 6026,
      ":\n\t\t": 6027,
      "three ": 6028,
      "consider": 6029,
      "s.begin(), ": 6030,
      "vector ": 6031,
      "#ifdef ": 6032,
      "profile": 6033,
      "6.": 6034,
      "Asset": 6035,
      "Screen": 6036,
      "thread ": 6037,
      "*this": 6038,
      "License, ": 6039,
      "invalid ": 6040,
      "owner": 6041,
      "9 ": 6042,
      "empo": 6043,
      "IGNAL": 6044,
      "_start": 6045,
      "0,   0,   ": 6046,
      "COL": 6047,
      "IL_": 6048,
      ",     ": 6049,
      "under ": 6050,
      "1);\n        ": 6051,
      "Platform": 6052,
      "},\n": 6053,
      "Node(": 6054,
      "container": 6055,
      "space ": 6056,
      "Ptr<": 6057,
      "_sw": 6058,
      "page": 6059,
      "if we ": 6060,
      "test_": 6061,
      "_utils::": 6062,
      "OR OTH": 6063,
      "behavi": 6064,
      "B ": 6065,
      "Point ": 6066,
      "Custom": 6067,
      "{\n\t\t\t\t\t": 6068,
      "associated ": 6069,
      ".r": 6070,
      "feature": 6071,
      "->f": 6072,
      "Prim": 6073,
      "holder": 6074,
      "_des": 6075,
      ";\n#endif": 6076,
      "reason": 6077,
      "(value": 6078,
      "one of the ": 6079,
      "algorithm": 6080,
      "_cast": 6081,
      "AND_": 6082,
      ", this": 6083,
      "operator ": 6084,
      "sing ": 6085,
      "Qual": 6086,
      "See the ": 6087,
      "HTTP": 6088,
      "(src": 6089,
      "address_": 6090,
      "+\n        ": 6091,
      "OV": 6092,
      "zer": 6093,
      "dc": 6094,
      "image ": 6095,
      "1000": 6096,
      "REN": 6097,
      "ibe": 6098,
      "fri": 6099,
      "AU": 6100,
      "Visible": 6101,
      "}\n\n      ": 6102,
      "COR": 6103,
      "clust": 6104,
      "ved": 6105,
      "orig": 6106,
      "Distr": 6107,
      "Report": 6108,
      "Save": 6109,
      "Assign": 6110,
      "endif // ": 6111,
      "Avail": 6112,
      "video": 6113,
      "copy of the ": 6114,
      "istry": 6115,
      "de = ": 6116,
      "(this->": 6117,
      "External": 6118,
      ".\\n\"": 6119,
      "length ": 6120,
      "(input": 6121,
      "_obj": 6122,
      "DN": 6123,
      "Slice": 6124,
      "inclu": 6125,
      "PROTOBUF": 6126,
      ", int": 6127,
      "the \"": 6128,
      "best": 6129,
      "Conv": 6130,
      "intr": 6131,
      "_y": 6132,
      "!!": 6133,
      "gfx": 6134,
      "\n        if (": 6135,
      "TRIBU": 6136,
      "whether ": 6137,
      ", j": 6138,
      "Search": 6139,
      "cl::": 6140,
      "\n\nusing ": 6141,
      "63": 6142,
      "iqu": 6143,
      "},\n      ": 6144,
      "common ": 6145,
      "VT::": 6146,
      "hicle": 6147,
      "Virt": 6148,
      "ANG": 6149,
      "ull ": 6150,
      "My": 6151,
      "description": 6152,
      "DEC": 6153,
      "polic": 6154,
      "cpu": 6155,
      "()\n{\n\t": 6156,
      "gh": 6157,
      "1024": 6158,
      "initialize": 6159,
      "Object::": 6160,
      "psz": 6161,
      "Mode ": 6162,
      "Mult": 6163,
      "child ": 6164,
      "consum": 6165,
      "(context": 6166,
      "};\n\n    ": 6167,
      ");\n    // ": 6168,
      "small ": 6169,
      "KHR": 6170,
      "and/or ": 6171,
      "driv": 6172,
      "\n#if defined(": 6173,
      "_internal": 6174,
      "ts": 6175,
      "_server": 6176,
      "_device": 6177,
      "_dir": 6178,
      "Enumer": 6179,
      "height ": 6180,
      "rece": 6181,
      "rate": 6182,
      "())\n      ": 6183,
      "(); ++": 6184,
      "ing in ": 6185,
      "DX": 6186,
      "....": 6187,
      "Browser": 6188,
      "on a ": 6189,
      "ed by the ": 6190,
      "usion": 6191,
      "Throw": 6192,
      "Fixed": 6193,
      "lect ": 6194,
      "entry ": 6195,
      "============": 6196,
      "Second": 6197,
      "DITION": 6198,
      "\n  if (": 6199,
      "_format": 6200,
      "dyn_cast<": 6201,
      "cursor": 6202,
      "erc": 6203,
      "AT_": 6204,
      "CG": 6205,
      "Job": 6206,
      "ORM": 6207,
      "segment": 6208,
      "forward": 6209,
      "Bitcoin": 6210,
      "tc": 6211,
      "loy": 6212,
      "a::": 6213,
      "e that ": 6214,
      "EXPECT_FALSE(": 6215,
      "();\n\n\t": 6216,
      "STRUC": 6217,
      "edit": 6218,
      ".\n    if (": 6219,
      "New ": 6220,
      "TEX": 6221,
      "thon": 6222,
      "AW": 6223,
      "[k": 6224,
      "],": 6225,
      ", h": 6226,
      "Warning": 6227,
      "Axis": 6228,
      "cout << ": 6229,
      ".get(), ": 6230,
      "))*": 6231,
      ";\n}\n\n\n": 6232,
      ".str": 6233,
      "110": 6234,
      "Std": 6235,
      "_metadata": 6236,
      "user ": 6237,
      "ival": 6238,
      "Impl::": 6239,
      "Signal": 6240,
      "pub": 6241,
      "remov": 6242,
      "},\n  ": 6243,
      "p->": 6244,
      "Simple": 6245,
      "Allow": 6246,
      "\r\n   ": 6247,
      "interval": 6248,
      ";\n};\n\n": 6249,
      "s[1": 6250,
      "_METHOD": 6251,
      "true;\n        ": 6252,
      "MI": 6253,
      "ID::": 6254,
      "auto* ": 6255,
      "join": 6256,
      "return m_": 6257,
      ".\n * ": 6258,
      "_instance": 6259,
      "\",\n      ": 6260,
      "ummy": 6261,
      "Apache ": 6262,
      "structure": 6263,
      "reference ": 6264,
      "({": 6265,
      "-1 ": 6266,
      "STATE_": 6267,
      "SR": 6268,
      "[ ": 6269,
      "Serial": 6270,
      "termin": 6271,
      "res = ": 6272,
      "_mm_": 6273,
      "Charact": 6274,
      "https": 6275,
      "s.\n    ": 6276,
      "ibility": 6277,
      "out = ": 6278,
      ");\n  // ": 6279,
      "insert": 6280,
      "delay": 6281,
      " = static_cast<": 6282,
      "Execution": 6283,
      "\\\": ": 6284,
      "chedul": 6285,
      "_X": 6286,
      "Win": 6287,
      "_DEC": 6288,
      "Eigen": 6289,
      "Flags_": 6290,
      "}\n};\n\n": 6291,
      "selection": 6292,
      "vch": 6293,
      "Compil": 6294,
      "proc": 6295,
      "Register(": 6296,
      "_position": 6297,
      "byte ": 6298,
      "FILE": 6299,
      "rights reserv": 6300,
      "ious ": 6301,
      "ATTR": 6302,
      "encode": 6303,
      "atter": 6304,
      "rout": 6305,
      "radi": 6306,
      "U.S. ": 6307,
      "_row": 6308,
      "Serv": 6309,
      ");\n}\n\nbool ": 6310,
      "Import": 6311,
      "hav": 6312,
      "Rate": 6313,
      " D": 6314,
      "0,  ": 6315,
      "f, 0.0": 6316,
      "good ": 6317,
      "Optional": 6318,
      "human ": 6319,
      "return (": 6320,
      "Tile": 6321,
      "_;\n  ": 6322,
      "        ++i": 6323,
      "SM": 6324,
      "(),": 6325,
      "ata ": 6326,
      "},\n\t": 6327,
      "ABLE": 6328,
      "Node *": 6329,
      "itical ": 6330,
      "uint16_t ": 6331,
      ")\n{\n    // ": 6332,
      "ience": 6333,
      ";\r\n\t\t\t": 6334,
      "Animation": 6335,
      "_SUCCESS": 6336,
      "active ": 6337,
      "Univers": 6338,
      "uid": 6339,
      "NOT_": 6340,
      "SO": 6341,
      "there is ": 6342,
      "THREAD": 6343,
      "ape ": 6344,
      "support": 6345,
      "Old": 6346,
      "character": 6347,
      "they are ": 6348,
      "\")\n    ": 6349,
      "Low": 6350,
      "rang": 6351,
      "BIT": 6352,
      "DEFAULT_": 6353,
      "IMPLI": 6354,
      "GD": 6355,
      "NV": 6356,
      "_FORMAT_": 6357,
      "use this ": 6358,
      "ASH": 6359,
      "Reser": 6360,
      ".to": 6361,
      "adap": 6362,
      "Value = ": 6363,
      "imum ": 6364,
      "posit": 6365,
      "cult": 6366,
      "s += ": 6367,
      "== NULL": 6368,
      ", 0xc": 6369,
      "ND": 6370,
      ", i": 6371,
      "year ": 6372,
      ");\n\t}\n\t": 6373,
      "protocol": 6374,
      "Lin": 6375,
      "wtx": 6376,
      "high ": 6377,
      "ensor ": 6378,
      "case '": 6379,
      "hw": 6380,
      "correct": 6381,
      "cerr": 6382,
      "message ": 6383,
      "off ": 6384,
      "TYPE": 6385,
      "(GL_": 6386,
      "_EN": 6387,
      "subst": 6388,
      "Single": 6389,
      "definition": 6390,
      "\");\n      ": 6391,
      "defined ": 6392,
      "AZ": 6393,
      "8.": 6394,
      "normalize": 6395,
      "issue": 6396,
      "INTERN": 6397,
      "Scan": 6398,
      "binary ": 6399,
      "canc": 6400,
      "s-": 6401,
      "uro": 6402,
      "_bound": 6403,
      "few": 6404,
      "gpu": 6405,
      "AMAG": 6406,
      "udget": 6407,
      "Literal": 6408,
      "Settings": 6409,
      "std::array<": 6410,
      "   \"": 6411,
      "Exit": 6412,
      "edistr": 6413,
      "popul": 6414,
      "2e": 6415,
      "_event": 6416,
      "TODO: ": 6417,
      "done": 6418,
      "Redistr": 6419,
      "0x20": 6420,
      "1 + ": 6421,
      "Exist": 6422,
      "t to ": 6423,
      "cratch": 6424,
      "std::pair": 6425,
      "joint": 6426,
      "ai": 6427,
      " The ": 6428,
      "real ": 6429,
      "0.0, ": 6430,
      "UnityEngine.": 6431,
      "play ": 6432,
      "Stop": 6433,
      "elf": 6434,
      "_TO": 6435,
      "RI": 6436,
      "mn": 6437,
      "acing": 6438,
      "pad": 6439,
      "may not ": 6440,
      "format ": 6441,
      "Scroll": 6442,
      "::n": 6443,
      ", 0x9": 6444,
      ") const\n{\n    ": 6445,
      "\"].": 6446,
      "[i], ": 6447,
      "enabled": 6448,
      "argument ": 6449,
      "B_": 6450,
      "alth": 6451,
      "Counter": 6452,
      "a new ": 6453,
      "();\n\n  // ": 6454,
      "ANY KIND": 6455,
      "Other": 6456,
      " = 0;\n  ": 6457,
      "mock": 6458,
      "at least ": 6459,
      "connect(": 6460,
      "@brief ": 6461,
      "round": 6462,
      "created ": 6463,
      "_part": 6464,
      "SY": 6465,
      "ARE_": 6466,
      "0, 0": 6467,
      "command ": 6468,
      "chan": 6469,
      "eder": 6470,
      "(node": 6471,
      "https://": 6472,
      "attach": 6473,
      "\t\t\t\t\t\t": 6474,
      "s - ": 6475,
      ")\n\t\t\t\t": 6476,
      "Dec": 6477,
      "Id = ": 6478,
      "_tag": 6479,
      "(string": 6480,
      "53": 6481,
      "s; ": 6482,
      "41": 6483,
      "United ": 6484,
      "Note": 6485,
      "Slot": 6486,
      "_assert(": 6487,
      ")\r\n    ": 6488,
      "Destroy": 6489,
      "bid": 6490,
      "\"AS IS\" ": 6491,
      "F ": 6492,
      "73": 6493,
      "ict ": 6494,
      "_proper": 6495,
      "j < ": 6496,
      "measure": 6497,
      "Stmt": 6498,
      "Y(": 6499,
      "52": 6500,
      "()));\n    ": 6501,
      "available ": 6502,
      "due ": 6503,
      "_i": 6504,
      "CreateInfo": 6505,
      "base ": 6506,
      "String(\"": 6507,
      "d, ": 6508,
      ".append": 6509,
      "ily ": 6510,
      "args.": 6511,
      "cut": 6512,
      "_service": 6513,
      "free ": 6514,
      "_type = ": 6515,
      "ms": 6516,
      "screen": 6517,
      "default: ": 6518,
      "ogram": 6519,
      "() {\n    ": 6520,
      "good": 6521,
      "(tr": 6522,
      "Title": 6523,
      "ASK": 6524,
      "required": 6525,
      "e-01,": 6526,
      "signific": 6527,
      ".ToString": 6528,
      "counter": 6529,
      "TC": 6530,
      "Ho": 6531,
      "Dst": 6532,
      ")->get": 6533,
      "ITE_": 6534,
      "buf, ": 6535,
      ");\r\n  ": 6536,
      "cir": 6537,
      "PROC": 6538,
      "EACH": 6539,
      ". The ": 6540,
      "factor": 6541,
      "leep": 6542,
      "OP_": 6543,
      "Logg": 6544,
      "there are ": 6545,
      "0) {\n        ": 6546,
      ") {\n\t\t\t\t": 6547,
      "Abstract": 6548,
      "diagnost": 6549,
      "#if ": 6550,
      "EXCEPTION": 6551,
      "::On": 6552,
      "UND": 6553,
      "American ": 6554,
      "(NULL": 6555,
      "0;\n        ": 6556,
      "Plan": 6557,
      "obta": 6558,
      "about the ": 6559,
      "const double ": 6560,
      "pap": 6561,
      "Dimension": 6562,
      "abor": 6563,
      "edg": 6564,
      "_(\"": 6565,
      "sal": 6566,
      ".at": 6567,
      "Identifier": 6568,
      "ampler": 6569,
      "a = ": 6570,
      "_RETUR": 6571,
      "restr": 6572,
      "Any": 6573,
      "Neg": 6574,
      "(int": 6575,
      "ipe": 6576,
      "ination ": 6577,
      "Dump": 6578,
      "File ": 6579,
      "b, ": 6580,
      "options.": 6581,
      "-0.0": 6582,
      "ately ": 6583,
      "which": 6584,
      "Height ": 6585,
      "Add ": 6586,
      "_pol": 6587,
      "cluster": 6588,
      "TIME": 6589,
      "(get": 6590,
      "Lay": 6591,
      "we can ": 6592,
      "Dispatch": 6593,
      "prefix": 6594,
      "[3]": 6595,
      "aded": 6596,
      "~~~~": 6597,
      "_get_": 6598,
      "go ": 6599,
      "static bool ": 6600,
      "invol": 6601,
      "partition": 6602,
      "s);\n        ": 6603,
      "atio": 6604,
      "super": 6605,
      "Me": 6606,
      "lead": 6607,
      "lookup": 6608,
      "BL": 6609,
      "\n   * ": 6610,
      "sert ": 6611,
      "ABILITY, ": 6612,
      "mut": 6613,
      "Object* ": 6614,
      ".h\"\n\n#include \"": 6615,
      "public:\n  ": 6616,
      "andidate": 6617,
      "percent ": 6618,
      "clear ": 6619,
      "->getType": 6620,
      "(name": 6621,
      "private ": 6622,
      "Tuple": 6623,
      "rpc": 6624,
      "pattern": 6625,
      "locity": 6626,
      "ed a ": 6627,
      "#include \"": 6628,
      "DE_": 6629,
      "ACE": 6630,
      "throw std::": 6631,
      "_cache": 6632,
      "better ": 6633,
      "am ": 6634,
      "study ": 6635,
      "ImVec": 6636,
      "STAN": 6637,
      "1,  ": 6638,
      "Vector ": 6639,
      "porter": 6640,
      "oriz": 6641,
      "->v": 6642,
      "1);\n    ": 6643,
      "Mis": 6644,
      "lot ": 6645,
      "dp": 6646,
      "::New": 6647,
      ")\n{\n    if (": 6648,
      "accord": 6649,
      "descr": 6650,
      "tml": 6651,
      "Failed to ": 6652,
      "Leg": 6653,
      "__Pyx_": 6654,
      "Db": 6655,
      "NG": 6656,
      "Software": 6657,
      "generate": 6658,
      "form ": 6659,
      "Interval": 6660,
      "Attributes": 6661,
      "life ": 6662,
      "x4": 6663,
      "_unique<": 6664,
      "land ": 6665,
      "_impl": 6666,
      "Unknown": 6667,
      "sit": 6668,
      "S OR ": 6669,
      "Decl *": 6670,
      "BY": 6671,
      "s.begin": 6672,
      "prof": 6673,
      "MER": 6674,
      "tt": 6675,
      "present ": 6676,
      "empty ": 6677,
      "mine ": 6678,
      "early ": 6679,
      "(__": 6680,
      "-----------": 6681,
      "_addr": 6682,
      "uint ": 6683,
      "_MAX": 6684,
      "lat": 6685,
      " > ": 6686,
      "chrome": 6687,
      "energy ": 6688,
      "\" << endl": 6689,
      "Return ": 6690,
      "_ASSERT(": 6691,
      "fb": 6692,
      "abs(": 6693,
      "writer": 6694,
      "ULAR": 6695,
      "Tri": 6696,
      "offer": 6697,
      "s;\n        ": 6698,
      "0 || ": 6699,
      "16, ": 6700,
      ":\n\t\t\t": 6701,
      "Produ": 6702,
      "2 * ": 6703,
      "espace": 6704,
      "safe": 6705,
      "\"/": 6706,
      "->s": 6707,
      "[i] ": 6708,
      "_status": 6709,
      "std::string &": 6710,
      "{\n    // ": 6711,
      "Buffer ": 6712,
      "ences": 6713,
      "\"] = ": 6714,
      "poly": 6715,
      "roadcast": 6716,
      "arrier": 6717,
      "400": 6718,
      "ste": 6719,
      "ances": 6720,
      "300": 6721,
      "ze": 6722,
      "Hint": 6723,
      "VID": 6724,
      "coordin": 6725,
      "sen": 6726,
      "tempor": 6727,
      "declar": 6728,
      "i=": 6729,
      "\n *     ": 6730,
      "expl": 6731,
      "const_iterator ": 6732,
      "corre": 6733,
      "Private": 6734,
      "() = ": 6735,
      "));\n\t": 6736,
      "written ": 6737,
      "//! ": 6738,
      "Detail": 6739,
      "collection": 6740,
      "slice": 6741,
      "/core/": 6742,
      "pointer ": 6743,
      "Quant": 6744,
      "Tmp": 6745,
      "Assert": 6746,
      "_float": 6747,
      "fu": 6748,
      "BUT ": 6749,
      "substr": 6750,
      "AE": 6751,
      "dx": 6752,
      "data->": 6753,
      "_level": 6754,
      "j = 0; ": 6755,
      "In the ": 6756,
      "Try": 6757,
      "{\n        if (": 6758,
      "NING": 6759,
      "benef": 6760,
      "0;\n  ": 6761,
      ");\r\n\t\t": 6762,
      "S(": 6763,
      "        ++": 6764,
      "_target": 6765,
      "back ": 6766,
      "1.0f": 6767,
      "p = ": 6768,
      "         \"": 6769,
      "=\"": 6770,
      "curs": 6771,
      "_t *": 6772,
      "FIG": 6773,
      "Gre": 6774,
      ", as ": 6775,
      ", size_t ": 6776,
      "when the ": 6777,
      "integr": 6778,
      "entries": 6779,
      ".\n *\n * ": 6780,
      "ut ": 6781,
      "agg": 6782,
      "Configuration": 6783,
      "WORD": 6784,
      ".insert(": 6785,
      "_PARAM": 6786,
      "best ": 6787,
      "power ": 6788,
      "\n//\n//": 6789,
      "is distributed ": 6790,
      "Spe": 6791,
      "5D": 6792,
      "MEM": 6793,
      "know ": 6794,
      "CRE": 6795,
      "Metric": 6796,
      "ensus": 6797,
      "',": 6798,
      "_match": 6799,
      ", and the ": 6800,
      "EXPECT_CALL": 6801,
      "public:\n    ": 6802,
      ".tx": 6803,
      "device ": 6804,
      "_WIN": 6805,
      "->has": 6806,
      "0);\n    ": 6807,
      "ERAT": 6808,
      "Get ": 6809,
      "ison": 6810,
      "        const ": 6811,
      "[p].": 6812,
      "VAR": 6813,
      "fund": 6814,
      "\r\n#include <": 6815,
      "weak": 6816,
      " & ": 6817,
      "noex": 6818,
      "Der": 6819,
      "Intrinsic": 6820,
      "application": 6821,
      "ing for ": 6822,
      "ware": 6823,
      "zone": 6824,
      "arrow": 6825,
      "JN": 6826,
      "word ": 6827,
      "supported ": 6828,
      "Fn": 6829,
      "; i < ": 6830,
      "2b": 6831,
      "Equ": 6832,
      "();": 6833,
      "we have ": 6834,
      "ADER": 6835,
      "total ": 6836,
      "use the ": 6837,
      "fast": 6838,
      "what": 6839,
      "HOL": 6840,
      "Depend": 6841,
      "AUT": 6842,
      "_task": 6843,
      "PARAM": 6844,
      "sizeof": 6845,
      "out of ": 6846,
      "_host": 6847,
      "compli": 6848,
      "UniValue": 6849,
      "hr": 6850,
      "remove ": 6851,
      ", 0xe": 6852,
      "ick ": 6853,
      "_add": 6854,
      "void set": 6855,
      "ED TO": 6856,
      "want to ": 6857,
      "Listener": 6858,
      "Type == ": 6859,
      "State::": 6860,
      "button": 6861,
      ", 0x3": 6862,
      ");\n  auto ": 6863,
      "form_": 6864,
      "license ": 6865,
      "Media": 6866,
      "il2cpp_utils::": 6867,
      "DataType": 6868,
      "tok": 6869,
      "DI": 6870,
      "phr": 6871,
      "\";\n": 6872,
      "\");\n\n  ": 6873,
      "ling": 6874,
      "/c": 6875,
      "that is ": 6876,
      "font": 6877,
      "ation of the ": 6878,
      "_pool": 6879,
      "EW": 6880,
      "options": 6881,
      "Changed": 6882,
      "0x\" << ": 6883,
      "L ": 6884,
      "frame ": 6885,
      "increase": 6886,
      "ce the ": 6887,
      "Decode": 6888,
      "Tok": 6889,
      "l_": 6890,
      "_prefix": 6891,
      "uv": 6892,
      "2::": 6893,
      "well": 6894,
      "transport": 6895,
      "bi": 6896,
      "roid": 6897,
      "compar": 6898,
      " */\n": 6899,
      ".Create": 6900,
      "leaf": 6901,
      "Bits": 6902,
      "itution": 6903,
      "never ": 6904,
      "writing": 6905,
      "Y OF ": 6906,
      "updat": 6907,
      "on an ": 6908,
      "Attach": 6909,
      "ACTION": 6910,
      "ank ": 6911,
      "arri": 6912,
      "Rule": 6913,
      "rand": 6914,
      "split": 6915,
      "pare": 6916,
      "ouse ": 6917,
      "1->": 6918,
      "absl::": 6919,
      "Branch": 6920,
      "DR": 6921,
      "}\n\n        // ": 6922,
      "avoid ": 6923,
      ".type": 6924,
      "world ": 6925,
      "it->second": 6926,
      "extern \"C": 6927,
      "PF": 6928,
      "run ": 6929,
      "ABLE ": 6930,
      "An ": 6931,
      "inal": 6932,
      "ate = ": 6933,
      "LIMITED TO": 6934,
      "stim": 6935,
      "Setup": 6936,
      "comes ": 6937,
      "(\n    const ": 6938,
      "Hlo": 6939,
      "until ": 6940,
      "ision ": 6941,
      "->get_": 6942,
      "std::string & ": 6943,
      "/*\n * ": 6944,
      "Event ": 6945,
      "thir": 6946,
      "likely ": 6947,
      "\n\n\n\n": 6948,
      "Vertic": 6949,
      "oft": 6950,
      "testing::": 6951,
      "Hit": 6952,
      "da": 6953,
      "THE": 6954,
      "blo": 6955,
      "sav": 6956,
      "generator": 6957,
      "Energ": 6958,
      "AA[p].": 6959,
      " << \" ": 6960,
      "93": 6961,
      "DEFINE_": 6962,
      "METHOD": 6963,
      "SIZE": 6964,
      " = {": 6965,
      "process ": 6966,
      "iteration ": 6967,
      "Flow": 6968,
      "cript ": 6969,
      ".com/": 6970,
      "game": 6971,
      "clean": 6972,
      "; //": 6973,
      "s.size(); ": 6974,
      "response ": 6975,
      "uint8_t": 6976,
      ".z": 6977,
      "();\n    if (": 6978,
      "<< \" 0x\" << ": 6979,
      "mul": 6980,
      "UInt": 6981,
      "empool": 6982,
      "() const {\n  ": 6983,
      "apon": 6984,
      "multiple ": 6985,
      "acros": 6986,
      "P ": 6987,
      "iment": 6988,
      "Nor": 6989,
      "lap": 6990,
      "menu": 6991,
      "proxy": 6992,
      "either ": 6993,
      "rule": 6994,
      "communic": 6995,
      "_control": 6996,
      "bucket": 6997,
      "bon": 6998,
      "(path": 6999,
      "CONTRAC": 7000,
      "llvm/": 7001,
      "__pyx_v": 7002,
      "defined": 7003,
      "final": 7004,
      "_id = ": 7005,
      ";\r\n\r\n\t": 7006,
      "Ip": 7007,
      "Particle": 7008,
      "As ": 7009,
      "int64 ": 7010,
      "_memory": 7011,
      "request ": 7012,
      "_mask": 7013,
      ".cpp": 7014,
      "upper": 7015,
      "Mip": 7016,
      "EMP": 7017,
      "gp": 7018,
      "int i = 0; i < ": 7019,
      "True": 7020,
      "analy": 7021,
      "dam": 7022,
      "_wrap": 7023,
      "LIABILITY, ": 7024,
      "(file": 7025,
      "pose ": 7026,
      "can't ": 7027,
      "it->": 7028,
      "const Il2Cpp": 7029,
      "custom": 7030,
      "CHECK_EQ(": 7031,
      ", in ": 7032,
      "s can ": 7033,
      "Recv": 7034,
      "io ": 7035,
      "s.h\"": 7036,
      "respond": 7037,
      "SOFTWARE": 7038,
      "AAAA": 7039,
      "2*": 7040,
      "();\n\n    // ": 7041,
      "ider ": 7042,
      "_FIL": 7043,
      "Segment": 7044,
      "prite": 7045,
      "Signature": 7046,
      "Foc": 7047,
      "Qt::": 7048,
      "Index ": 7049,
      "_fe": 7050,
      "Actor": 7051,
      "meta": 7052,
      "indent": 7053,
      "Face": 7054,
      "redic": 7055,
      "MAP": 7056,
      "tax": 7057,
      "ight(": 7058,
      "distribution": 7059,
      "binding": 7060,
      "83": 7061,
      "fee": 7062,
      ".get_": 7063,
      "sect": 7064,
      "generated ": 7065,
      ", 0x64": 7066,
      "ich": 7067,
      "Inv": 7068,
      "ux": 7069,
      "mote ": 7070,
      "_fr": 7071,
      "int i = 0": 7072,
      "CodeGen": 7073,
      "related ": 7074,
      ")\n\t\t\t{\n\t\t\t\t": 7075,
      "_NAMESPACE_": 7076,
      "eler": 7077,
      "};\n\n  ": 7078,
      "1b": 7079,
      "sto": 7080,
      "\n *    ": 7081,
      "Amount ": 7082,
      "HAND": 7083,
      "Merge": 7084,
      "TX": 7085,
      "_PR": 7086,
      "_window": 7087,
      ") return ": 7088,
      "binary": 7089,
      "Virtual": 7090,
      "OPEN": 7091,
      "Licensed ": 7092,
      "== nullptr": 7093,
      "old_": 7094,
      "cannot ": 7095,
      "../../": 7096,
      "{\r\n            ": 7097,
      "DEVIC": 7098,
      "cn": 7099,
      "Inform": 7100,
      ">\n\n#include \"": 7101,
      "other.": 7102,
      "cast<": 7103,
      "ink ": 7104,
      "Type::k": 7105,
      "Split": 7106,
      "memset": 7107,
      "Data(": 7108,
      "Book": 7109,
      "1;\n    ": 7110,
      "FOREACH": 7111,
      "Isolate": 7112,
      "b_": 7113,
      ");\n\n\t\t\t": 7114,
      "warning": 7115,
      ");\n    auto ": 7116,
      "Watch": 7117,
      "bal": 7118,
      "ON_": 7119,
      "audio": 7120,
      "blob": 7121,
      "_DAT": 7122,
      "1e": 7123,
      "ed and ": 7124,
      "Physical": 7125,
      "j = 0; j < ": 7126,
      "_Get": 7127,
      "62": 7128,
      "context ": 7129,
      "ably ": 7130,
      "room": 7131,
      "Url": 7132,
      "save": 7133,
      "national ": 7134,
      "_group": 7135,
      "Time = ": 7136,
      "ics ": 7137,
      "Incl": 7138,
      "Extract": 7139,
      "\":": 7140,
      "impli": 7141,
      "TRANSL": 7142,
      "Encode": 7143,
      "tain": 7144,
      "Test::": 7145,
      "c5_it": 7146,
      "URPOS": 7147,
      "school": 7148,
      "DAG.get": 7149,
      "BD": 7150,
      "imal": 7151,
      "[in": 7152,
      "Failure": 7153,
      "ole ": 7154,
      "v4": 7155,
      "ed from ": 7156,
      "sock": 7157,
      "Generate": 7158,
      "COPYRIGH": 7159,
      "Shadow": 7160,
      "CHANT": 7161,
      "undef ": 7162,
      "path ": 7163,
      "LOW": 7164,
      "izes": 7165,
      "_single": 7166,
      "Micro": 7167,
      ". This ": 7168,
      "\\\":": 7169,
      "CU": 7170,
      "patient": 7171,
      "12 ": 7172,
      "Know": 7173,
      "_or": 7174,
      "food ": 7175,
      "er_->": 7176,
      "attack": 7177,
      "virtual void ": 7178,
      "source code ": 7179,
      "\n    //": 7180,
      "1234": 7181,
      "params.size": 7182,
      ", str": 7183,
      "ializer": 7184,
      "would be ": 7185,
      "igr": 7186,
      "x < ": 7187,
      "GC": 7188,
      "\"]": 7189,
      ") < ": 7190,
      "Count(": 7191,
      "school ": 7192,
      ".length": 7193,
      "error(\"": 7194,
      ",\n * ": 7195,
      "original ": 7196,
      "ti": 7197,
      ".size() ": 7198,
      "int main": 7199,
      "**************": 7200,
      "Macro": 7201,
      "FUNCTION": 7202,
      "become ": 7203,
      "u ": 7204,
      "FITN": 7205,
      "OP(\"": 7206,
      "have": 7207,
      "VE": 7208,
      "LOT(": 7209,
      "[5": 7210,
      "Arg(\"-": 7211,
      "Fix": 7212,
      "BasicBlock": 7213,
      "_entry": 7214,
      "Grad": 7215,
      "wd": 7216,
      "aj": 7217,
      "break;\n\t\t": 7218,
      "After": 7219,
      "ID_": 7220,
      "self ": 7221,
      "MERCHANT": 7222,
      "hold": 7223,
      "pc_": 7224,
      "research": 7225,
      ", src": 7226,
      "Only ": 7227,
      "ating": 7228,
      "Error(\"": 7229,
      "_SP": 7230,
      "relation": 7231,
      "        case ": 7232,
      "Factor": 7233,
      "Timer": 7234,
      "centur": 7235,
      "width ": 7236,
      "replace": 7237,
      "tip": 7238,
      "near": 7239,
      "FORM": 7240,
      "Id, ": 7241,
      "the same ": 7242,
      "Data.": 7243,
      "_trait": 7244,
      "Own": 7245,
      "area ": 7246,
      "encil": 7247,
      "gon": 7248,
      "las": 7249,
      "s) {\n  ": 7250,
      "through the ": 7251,
      "int32_t>(": 7252,
      "* [[": 7253,
      "logg": 7254,
      "throw JSONRPC": 7255,
      "directory": 7256,
      "N ": 7257,
      "fprintf(": 7258,
      ";\nextern ": 7259,
      "> > ": 7260,
      "PARTIC": 7261,
      "int64_t": 7262,
      "Ok": 7263,
      "risk ": 7264,
      "collect": 7265,
      "history": 7266,
      "dispatch": 7267,
      "nan": 7268,
      "Represent": 7269,
      "_COL": 7270,
      "p, ": 7271,
      "0; ": 7272,
      "ally, ": 7273,
      "allel": 7274,
      "accomp": 7275,
      "sil": 7276,
      "consist": 7277,
      "Commit": 7278,
      "specified ": 7279,
      "__m": 7280,
[...]
