{
  "version": "1.0",
  "truncation": null,
  "padding": null,
  "added_tokens": [
    {
      "id": 0,
      "content": "<unk>",
      "single_word": false,
      "lstrip": false,
      "rstrip": false,
      "normalized": false,
      "special": true
    },
    {
      "id": 1,
      "content": "<s>",
      "single_word": false,
      "lstrip": false,
      "rstrip": false,
      "normalized": false,
      "special": true
    },
    {
      "id": 2,
      "content": "</s>",
      "single_word": false,
      "lstrip": false,
      "rstrip": false,
      "normalized": false,
      "special": true
    },
    {
      "id": 3,
      "content": "<pad>",
      "single_word": false,
      "lstrip": false,
      "rstrip": false,
      "normalized": false,
      "special": true
    },
    {
      "id": 4,
      "content": "<mask>",
      "single_word": false,
      "lstrip": false,
      "rstrip": false,
      "normalized": false,
      "special": true
    },
    {
      "id": 5,
      "content": "<|fim_prefix|>",
      "single_word": false,
      "lstrip": false,
      "rstrip": false,
      "normalized": false,
      "special": true
    },
    {
      "id": 6,
      "content": "<|fim_middle|>",
      "single_word": false,
      "lstrip": false,
      "rstrip": false,
      "normalized": false,
      "special": true
    },
    {
      "id": 7,
      "content": "<|fim_suffix|>",
      "single_word": false,
      "lstrip": false,
      "rstrip": false,
      "normalized": false,
      "special": true
    },
    {
      "id": 8,
      "content": "<|fim_pad|>",
      "single_word": false,
      "lstrip": false,
      "rstrip": false,
      "normalized": false,
      "special": true
    },
    {
      "id": 9,
      "content": "<|file_separator|>",
      "single_word": false,
      "lstrip": false,
      "rstrip": false,
      "normalized": false,
      "special": true
    },
    {
      "id": 10,
      "content": "<0x00>",
      "single_word": false,
      "lstrip": false,
      "rstrip": false,
      "normalized": false,
      "special": true
    },
    {
      "id": 11,
      "content": "<0x01>",
      "single_word": false,
      "lstrip": false,
      "rstrip": false,
      "normalized": false,
      "special": true
    },
    {
      "id": 12,
      "content": "<0x02>",
      "single_word": false,
      "lstrip": false,
      "rstrip": false,
      "normalized": false,
      "special": true
    },
    {
      "id": 13,
      "content": "<0x03>",
      "single_word": false,
      "lstrip": false,
      "rstrip": false,
      "normalized": false,
      "special": true
    },
    {
      "id": 14,
      "content": "<0x04>",
      "single_word": false,
      "lstrip": false,
      "rstrip": false,
      "normalized": false,
      "special": true
    },
    {
      "id": 15,
      "content": "<0x05>",
      "single_word": false,
      "lstrip": false,
      "rstrip": false,
      "normalized": false,
      "special": true
    },
    {
      "id": 16,
      "content": "<0x06>",
      "single_word": false,
      "lstrip": false,
      "rstrip": false,
      "normalized": false,
      "special": true
    },
    {
      "id": 17,
      "content": "<0x07>",
      "single_word": false,
      "lstrip": false,
      "rstrip": false,
      "normalized": false,
      "special": true
    },
    {
      "id": 18,
      "content": "<0x08>",
      "single_word": false,
      "lstrip": false,
      "rstrip": false,
      "normalized": false,
      "special": true
    },
    {
      "id": 19,
      "content": "<0x09>",
      "single_word": false,
      "lstrip": false,
      "rstrip": false,
      "normalized": false,
      "special": true
    },
    {
      "id": 20,
      "content": "<0x0A>",
      "single_word": false,
      "lstrip": false,
      "rstrip": false,
      "normalized": false,
      "special": true
    },
    {
      "id": 21,
      "content": "<0x0B>",
      "single_word": false,
      "lstrip": false,
      "rstrip": false,
      "normalized": false,
      "special": true
    },
    {
      "id": 22,
      "content": "<0x0C>",
      "single_word": false,
      "lstrip": false,
      "rstrip": false,
      "normalized": false,
      "special": true
    },
    {
      "id": 23,
      "content": "<0x0D>",
      "single_word": false,
      "lstrip": false,
      "rstrip": false,
      "normalized": false,
      "special": true
    },
    {
      "id": 24,
      "content": "<0x0E>",
      "single_word": false,
      "lstrip": false,
      "rstrip": false,
      "normalized": false,
      "special": true
    },
    {
      "id": 25,
      "content": "<0x0F>",
      "single_word": false,
      "lstrip": false,
      "rstrip": false,
      "normalized": false,
      "special": true
    },
    {
      "id": 26,
      "content": "<0x10>",
      "single_word": false,
      "lstrip": false,
      "rstrip": false,
      "normalized": false,
      "special": true
    },
    {
      "id": 27,
      "content": "<0x11>",
      "single_word": false,
      "lstrip": false,
      "rstrip": false,
      "normalized": false,
      "special": true
    },
    {
      "id": 28,
      "content": "<0x12>",
      "single_word": false,
      "lstrip": false,
      "rstrip": false,
      "normalized": false,
      "special": true
    },
    {
      "id": 29,
      "content": "<0x13>",
      "single_word": false,
      "lstrip": false,
      "rstrip": false,
      "normalized": false,
      "special": true
    },
    {
      "id": 30,
      "content": "<0x14>",
      "single_word": false,
      "lstrip": false,
      "rstrip": false,
      "normalized": false,
      "special": true
    },
    {
      "id": 31,
      "content": "<0x15>",
      "single_word": false,
      "lstrip": false,
      "rstrip": false,
      "normalized": false,
      "special": true
    },
    {
      "id": 32,
      "content": "<0x16>",
      "single_word": false,
      "lstrip": false,
      "rstrip": false,
      "normalized": false,
      "special": true
    },
    {
      "id": 33,
      "content": "<0x17>",
      "single_word": false,
      "lstrip": false,
      "rstrip": false,
      "normalized": false,
      "special": true
    },
    {
      "id": 34,
      "content": "<0x18>",
      "single_word": false,
      "lstrip": false,
      "rstrip": false,
      "normalized": false,
      "special": true
    },
    {
      "id": 35,
      "content": "<0x19>",
      "single_word": false,
      "lstrip": false,
      "rstrip": false,
      "normalized": false,
      "special": true
    },
    {
      "id": 36,
      "content": "<0x1A>",
      "single_word": false,
      "lstrip": false,
      "rstrip": false,
      "normalized": false,
      "special": true
    },
    {
      "id": 37,
      "content": "<0x1B>",
      "single_word": false,
      "lstrip": false,
      "rstrip": false,
      "normalized": false,
      "special": true
    },
    {
      "id": 38,
      "content": "<0x1C>",
      "single_word": false,
      "lstrip": false,
      "rstrip": false,
      "normalized": false,
      "special": true
    },
    {
      "id": 39,
      "content": "<0x1D>",
      "single_word": false,
      "lstrip": false,
      "rstrip": false,
      "normalized": false,
      "special": true
    },
    {
      "id": 40,
      "content": "<0x1E>",
      "single_word": false,
      "lstrip": false,
      "rstrip": false,
      "normalized": false,
      "special": true
    },
    {
      "id": 41,
      "content": "<0x1F>",
      "single_word": false,
      "lstrip": false,
      "rstrip": false,
      "normalized": false,
      "special": true
    },
    {
      "id": 42,
      "content": "<0x20>",
      "single_word": false,
      "lstrip": false,
      "rstrip": false,
      "normalized": false,
      "special": true
    },
    {
      "id": 43,
      "content": "<0x21>",
      "single_word": false,
      "lstrip": false,
      "rstrip": false,
      "normalized": false,
      "special": true
    },
    {
      "id": 44,
      "content": "<0x22>",
      "single_word": false,
      "lstrip": false,
      "rstrip": false,
      "normalized": false,
      "special": true
    },
    {
      "id": 45,
      "content": "<0x23>",
      "single_word": false,
      "lstrip": false,
      "rstrip": false,
      "normalized": false,
      "special": true
    },
    {
      "id": 46,
      "content": "<0x24>",
      "single_word": false,
      "lstrip": false,
      "rstrip": false,
      "normalized": false,
      "special": true
    },
    {
      "id": 47,
      "content": "<0x25>",
      "single_word": false,
      "lstrip": false,
      "rstrip": false,
      "normalized": false,
      "special": true
    },
    {
      "id": 48,
      "content": "<0x26>",
      "single_word": false,
      "lstrip": false,
      "rstrip": false,
      "normalized": false,
      "special": true
    },
    {
      "id": 49,
      "content": "<0x27>",
      "single_word": false,
      "lstrip": false,
      "rstrip": false,
      "normalized": false,
      "special": true
    },
    {
      "id": 50,
      "content": "<0x28>",
      "single_word": false,
      "lstrip": false,
      "rstrip": false,
      "normalized": false,
      "special": true
    },
    {
      "id": 51,
      "content": "<0x29>",
      "single_word": false,
      "lstrip": false,
      "rstrip": false,
      "normalized": false,
      "special": true
    },
    {
      "id": 52,
      "content": "<0x2A>",
      "single_word": false,
      "lstrip": false,
      "rstrip": false,
      "normalized": false,
      "special": true
    },
    {
      "id": 53,
      "content": "<0x2B>",
      "single_word": false,
      "lstrip": false,
      "rstrip": false,
      "normalized": false,
      "special": true
    },
    {
      "id": 54,
      "content": "<0x2C>",
      "single_word": false,
      "lstrip": false,
      "rstrip": false,
      "normalized": false,
      "special": true
    },
    {
      "id": 55,
      "content": "<0x2D>",
      "single_word": false,
      "lstrip": false,
      "rstrip": false,
      "normalized": false,
      "special": true
    },
    {
      "id": 56,
      "content": "<0x2E>",
      "single_word": false,
      "lstrip": false,
      "rstrip": false,
      "normalized": false,
      "special": true
    },
    {
      "id": 57,
      "content": "<0x2F>",
      "single_word": false,
      "lstrip": false,
      "rstrip": false,
      "normalized": false,
      "special": true
    },
    {
      "id": 58,
      "content": "<0x30>",
      "single_word": false,
      "lstrip": false,
      "rstrip": false,
      "normalized": false,
      "special": true
    },
    {
      "id": 59,
      "content": "<0x31>",
      "single_word": false,
      "lstrip": false,
      "rstrip": false,
      "normalized": false,
      "special": true
    },
    {
      "id": 60,
      "content": "<0x32>",
      "single_word": false,
      "lstrip": false,
      "rstrip": false,
      "normalized": false,
      "special": true
    },
    {
      "id": 61,
      "content": "<0x33>",
      "single_word": false,
      "lstrip": false,
      "rstrip": false,
      "normalized": false,
      "special": true
    },
    {
      "id": 62,
      "content": "<0x34>",
      "single_word": false,
      "lstrip": false,
      "rstrip": false,
      "normalized": false,
      "special": true
    },
    {
      "id": 63,
      "content": "<0x35>",
      "single_word": false,
      "lstrip": false,
      "rstrip": false,
      "normalized": false,
      "special": true
    },
    {
      "id": 64,
      "content": "<0x36>",
      "single_word": false,
      "lstrip": false,
      "rstrip": false,
      "normalized": false,
      "special": true
    },
    {
      "id": 65,
      "content": "<0x37>",
      "single_word": false,
      "lstrip": false,
      "rstrip": false,
      "normalized": false,
      "special": true
    },
    {
      "id": 66,
      "content": "<0x38>",
      "single_word": false,
      "lstrip": false,
      "rstrip": false,
      "normalized": false,
      "special": true
    },
    {
      "id": 67,
      "content": "<0x39>",
      "single_word": false,
      "lstrip": false,
      "rstrip": false,
      "normalized": false,
      "special": true
    },
    {
      "id": 68,
      "content": "<0x3A>",
      "single_word": false,
      "lstrip": false,
      "rstrip": false,
      "normalized": false,
      "special": true
    },
    {
      "id": 69,
      "content": "<0x3B>",
      "single_word": false,
      "lstrip": false,
      "rstrip": false,
      "normalized": false,
      "special": true
    },
    {
      "id": 70,
      "content": "<0x3C>",
      "single_word": false,
      "lstrip": false,
      "rstrip": false,
      "normalized": false,
      "special": true
    },
    {
      "id": 71,
      "content": "<0x3D>",
      "single_word": false,
      "lstrip": false,
      "rstrip": false,
      "normalized": false,
      "special": true
    },
    {
      "id": 72,
      "content": "<0x3E>",
      "single_word": false,
      "lstrip": false,
      "rstrip": false,
      "normalized": false,
      "special": true
    },
    {
      "id": 73,
      "content": "<0x3F>",
      "single_word": false,
      "lstrip": false,
      "rstrip": false,
      "normalized": false,
      "special": true
    },
    {
      "id": 74,
      "content": "<0x40>",
      "single_word": false,
      "lstrip": false,
      "rstrip": false,
      "normalized": false,
      "special": true
    },
    {
      "id": 75,
      "content": "<0x41>",
      "single_word": false,
      "lstrip": false,
      "rstrip": false,
      "normalized": false,
      "special": true
    },
    {
      "id": 76,
      "content": "<0x42>",
      "single_word": false,
      "lstrip": false,
      "rstrip": false,
      "normalized": false,
      "special": true
    },
    {
      "id": 77,
      "content": "<0x43>",
      "single_word": false,
      "lstrip": false,
      "rstrip": false,
      "normalized": false,
      "special": true
    },
    {
      "id": 78,
      "content": "<0x44>",
      "single_word": false,
      "lstrip": false,
      "rstrip": false,
      "normalized": false,
      "special": true
    },
    {
      "id": 79,
      "content": "<0x45>",
      "single_word": false,
      "lstrip": false,
      "rstrip": false,
      "normalized": false,
      "special": true
    },
    {
      "id": 80,
      "content": "<0x46>",
      "single_word": false,
      "lstrip": false,
      "rstrip": false,
      "normalized": false,
      "special": true
    },
    {
      "id": 81,
      "content": "<0x47>",
      "single_word": false,
      "lstrip": false,
      "rstrip": false,
      "normalized": false,
      "special": true
    },
    {
      "id": 82,
      "content": "<0x48>",
      "single_word": false,
      "lstrip": false,
      "rstrip": false,
      "normalized": false,
      "special": true
    },
    {
      "id": 83,
      "content": "<0x49>",
      "single_word": false,
      "lstrip": false,
      "rstrip": false,
      "normalized": false,
      "special": true
    },
    {
      "id": 84,
      "content": "<0x4A>",
      "single_word": false,
      "lstrip": false,
      "rstrip": false,
      "normalized": false,
      "special": true
    },
    {
      "id": 85,
      "content": "<0x4B>",
      "single_word": false,
      "lstrip": false,
      "rstrip": false,
      "normalized": false,
      "special": true
    },
    {
      "id": 86,
      "content": "<0x4C>",
      "single_word": false,
      "lstrip": false,
      "rstrip": false,
      "normalized": false,
      "special": true
    },
    {
      "id": 87,
      "content": "<0x4D>",
      "single_word": false,
      "lstrip": false,
      "rstrip": false,
      "normalized": false,
      "special": true
    },
    {
      "id": 88,
      "content": "<0x4E>",
      "single_word": false,
      "lstrip": false,
      "rstrip": false,
      "normalized": false,
      "special": true
    },
    {
      "id": 89,
      "content": "<0x4F>",
      "single_word": false,
      "lstrip": false,
      "rstrip": false,
      "normalized": false,
      "special": true
    },
    {
      "id": 90,
      "content": "<0x50>",
      "single_word": false,
      "lstrip": false,
      "rstrip": false,
      "normalized": false,
      "special": true
    },
    {
      "id": 91,
      "content": "<0x51>",
      "single_word": false,
      "lstrip": false,
      "rstrip": false,
      "normalized": false,
      "special": true
    },
    {
      "id": 92,
      "content": "<0x52>",
      "single_word": false,
      "lstrip": false,
      "rstrip": false,
      "normalized": false,
      "special": true
    },
    {
      "id": 93,
      "content": "<0x53>",
      "single_word": false,
      "lstrip": false,
      "rstrip": false,
      "normalized": false,
      "special": true
    },
    {
      "id": 94,
      "content": "<0x54>",
      "single_word": false,
      "lstrip": false,
      "rstrip": false,
      "normalized": false,
      "special": true
    },
    {
      "id": 95,
      "content": "<0x55>",
      "single_word": false,
      "lstrip": false,
      "rstrip": false,
      "normalized": false,
      "special": true
    },
    {
      "id": 96,
      "content": "<0x56>",
      "single_word": false,
      "lstrip": false,
      "rstrip": false,
      "normalized": false,
      "special": true
    },
    {
      "id": 97,
      "content": "<0x57>",
      "single_word": false,
      "lstrip": false,
      "rstrip": false,
      "normalized": false,
      "special": true
    },
    {
      "id": 98,
      "content": "<0x58>",
      "single_word": false,
      "lstrip": false,
      "rstrip": false,
      "normalized": false,
      "special": true
    },
    {
      "id": 99,
      "content": "<0x59>",
      "single_word": false,
      "lstrip": false,
      "rstrip": false,
      "normalized": false,
      "special": true
    },
    {
      "id": 100,
      "content": "<0x5A>",
      "single_word": false,
      "lstrip": false,
      "rstrip": false,
      "normalized": false,
      "special": true
    },
    {
      "id": 101,
      "content": "<0x5B>",
      "single_word": false,
      "lstrip": false,
      "rstrip": false,
      "normalized": false,
      "special": true
    },
    {
      "id": 102,
      "content": "<0x5C>",
      "single_word": false,
      "lstrip": false,
      "rstrip": false,
      "normalized": false,
      "special": true
    },
    {
      "id": 103,
      "content": "<0x5D>",
      "single_word": false,
      "lstrip": false,
      "rstrip": false,
      "normalized": false,
      "special": true
    },
    {
      "id": 104,
      "content": "<0x5E>",
      "single_word": false,
      "lstrip": false,
      "rstrip": false,
      "normalized": false,
      "special": true
    },
    {
      "id": 105,
      "content": "<0x5F>",
      "single_word": false,
      "lstrip": false,
      "rstrip": false,
      "normalized": false,
      "special": true
    },
    {
      "id": 106,
      "content": "<0x60>",
      "single_word": false,
      "lstrip": false,
      "rstrip": false,
      "normalized": false,
      "special": true
    },
    {
      "id": 107,
      "content": "<0x61>",
      "single_word": false,
      "lstrip": false,
      "rstrip": false,
      "normalized": false,
      "special": true
    },
    {
      "id": 108,
      "content": "<0x62>",
      "single_word": false,
      "lstrip": false,
      "rstrip": false,
      "normalized": false,
      "special": true
    },
    {
      "id": 109,
      "content": "<0x63>",
      "single_word": false,
      "lstrip": false,
      "rstrip": false,
      "normalized": false,
      "special": true
    },
    {
      "id": 110,
      "content": "<0x64>",
      "single_word": false,
      "lstrip": false,
      "rstrip": false,
      "normalized": false,
      "special": true
    },
    {
      "id": 111,
      "content": "<0x65>",
      "single_word": false,
      "lstrip": false,
      "rstrip": false,
      "normalized": false,
      "special": true
    },
    {
      "id": 112,
      "content": "<0x66>",
      "single_word": false,
      "lstrip": false,
      "rstrip": false,
      "normalized": false,
      "special": true
    },
    {
      "id": 113,
      "content": "<0x67>",
      "single_word": false,
      "lstrip": false,
      "rstrip": false,
      "normalized": false,
      "special": true
    },
    {
      "id": 114,
      "content": "<0x68>",
      "single_word": false,
      "lstrip": false,
      "rstrip": false,
      "normalized": false,
      "special": true
    },
    {
      "id": 115,
      "content": "<0x69>",
      "single_word": false,
      "lstrip": false,
      "rstrip": false,
      "normalized": false,
      "special": true
    },
    {
      "id": 116,
      "content": "<0x6A>",
      "single_word": false,
      "lstrip": false,
      "rstrip": false,
      "normalized": false,
      "special": true
    },
    {
      "id": 117,
      "content": "<0x6B>",
      "single_word": false,
      "lstrip": false,
      "rstrip": false,
      "normalized": false,
      "special": true
    },
    {
      "id": 118,
      "content": "<0x6C>",
      "single_word": false,
      "lstrip": false,
      "rstrip": false,
      "normalized": false,
      "special": true
    },
    {
      "id": 119,
      "content": "<0x6D>",
      "single_word": false,
      "lstrip": false,
      "rstrip": false,
      "normalized": false,
      "special": true
    },
    {
      "id": 120,
      "content": "<0x6E>",
      "single_word": false,
      "lstrip": false,
      "rstrip": false,
      "normalized": false,
      "special": true
    },
    {
      "id": 121,
      "content": "<0x6F>",
      "single_word": false,
      "lstrip": false,
      "rstrip": false,
      "normalized": false,
      "special": true
    },
    {
      "id": 122,
      "content": "<0x70>",
      "single_word": false,
      "lstrip": false,
      "rstrip": false,
      "normalized": false,
      "special": true
    },
    {
      "id": 123,
      "content": "<0x71>",
      "single_word": false,
      "lstrip": false,
      "rstrip": false,
      "normalized": false,
      "special": true
    },
    {
      "id": 124,
      "content": "<0x72>",
      "single_word": false,
      "lstrip": false,
      "rstrip": false,
      "normalized": false,
      "special": true
    },
    {
      "id": 125,
      "content": "<0x73>",
      "single_word": false,
      "lstrip": false,
      "rstrip": false,
      "normalized": false,
      "special": true
    },
    {
      "id": 126,
      "content": "<0x74>",
      "single_word": false,
      "lstrip": false,
      "rstrip": false,
      "normalized": false,
      "special": true
    },
    {
      "id": 127,
      "content": "<0x75>",
      "single_word": false,
      "lstrip": false,
      "rstrip": false,
      "normalized": false,
      "special": true
    },
    {
      "id": 128,
      "content": "<0x76>",
      "single_word": false,
      "lstrip": false,
      "rstrip": false,
      "normalized": false,
      "special": true
    },
    {
      "id": 129,
      "content": "<0x77>",
      "single_word": false,
      "lstrip": false,
      "rstrip": false,
      "normalized": false,
      "special": true
    },
    {
      "id": 130,
      "content": "<0x78>",
      "single_word": false,
      "lstrip": false,
      "rstrip": false,
      "normalized": false,
      "special": true
    },
    {
      "id": 131,
      "content": "<0x79>",
      "single_word": false,
      "lstrip": false,
      "rstrip": false,
      "normalized": false,
      "special": true
    },
    {
      "id": 132,
      "content": "<0x7A>",
      "single_word": false,
      "lstrip": false,
      "rstrip": false,
      "normalized": false,
      "special": true
    },
    {
      "id": 133,
      "content": "<0x7B>",
      "single_word": false,
      "lstrip": false,
      "rstrip": false,
      "normalized": false,
      "special": true
    },
    {
      "id": 134,
      "content": "<0x7C>",
      "single_word": false,
      "lstrip": false,
      "rstrip": false,
      "normalized": false,
      "special": true
    },
    {
      "id": 135,
      "content": "<0x7D>",
      "single_word": false,
      "lstrip": false,
      "rstrip": false,
      "normalized": false,
      "special": true
    },
    {
      "id": 136,
      "content": "<0x7E>",
      "single_word": false,
      "lstrip": false,
      "rstrip": false,
      "normalized": false,
      "special": true
    },
    {
      "id": 137,
      "content": "<0x7F>",
      "single_word": false,
      "lstrip": false,
      "rstrip": false,
      "normalized": false,
      "special": true
    },
    {
      "id": 138,
      "content": "<0x80>",
      "single_word": false,
      "lstrip": false,
      "rstrip": false,
      "normalized": false,
      "special": true
    },
    {
      "id": 139,
      "content": "<0x81>",
      "single_word": false,
      "lstrip": false,
      "rstrip": false,
      "normalized": false,
      "special": true
    },
    {
      "id": 140,
      "content": "<0x82>",
      "single_word": false,
      "lstrip": false,
      "rstrip": false,
      "normalized": false,
      "special": true
    },
    {
      "id": 141,
      "content": "<0x83>",
      "single_word": false,
      "lstrip": false,
      "rstrip": false,
      "normalized": false,
      "special": true
    },
    {
      "id": 142,
      "content": "<0x84>",
      "single_word": false,
      "lstrip": false,
      "rstrip": false,
      "normalized": false,
      "special": true
    },
    {
      "id": 143,
      "content": "<0x85>",
      "single_word": false,
      "lstrip": false,
      "rstrip": false,
      "normalized": false,
      "special": true
    },
    {
      "id": 144,
      "content": "<0x86>",
      "single_word": false,
      "lstrip": false,
      "rstrip": false,
      "normalized": false,
      "special": true
    },
    {
      "id": 145,
      "content": "<0x87>",
      "single_word": false,
      "lstrip": false,
      "rstrip": false,
      "normalized": false,
      "special": true
    },
    {
      "id": 146,
      "content": "<0x88>",
      "single_word": false,
      "lstrip": false,
      "rstrip": false,
      "normalized": false,
      "special": true
    },
    {
      "id": 147,
      "content": "<0x89>",
      "single_word": false,
      "lstrip": false,
      "rstrip": false,
      "normalized": false,
      "special": true
    },
    {
      "id": 148,
      "content": "<0x8A>",
      "single_word": false,
      "lstrip": false,
      "rstrip": false,
      "normalized": false,
      "special": true
    },
    {
      "id": 149,
      "content": "<0x8B>",
      "single_word": false,
      "lstrip": false,
      "rstrip": false,
      "normalized": false,
      "special": true
    },
    {
      "id": 150,
      "content": "<0x8C>",
      "single_word": false,
      "lstrip": false,
      "rstrip": false,
      "normalized": false,
      "special": true
    },
    {
      "id": 151,
      "content": "<0x8D>",
      "single_word": false,
      "lstrip": false,
      "rstrip": false,
      "normalized": false,
      "special": true
    },
    {
      "id": 152,
      "content": "<0x8E>",
      "single_word": false,
      "lstrip": false,
      "rstrip": false,
      "normalized": false,
      "special": true
    },
    {
      "id": 153,
      "content": "<0x8F>",
      "single_word": false,
      "lstrip": false,
      "rstrip": false,
      "normalized": false,
      "special": true
    },
    {
      "id": 154,
      "content": "<0x90>",
      "single_word": false,
      "lstrip": false,
      "rstrip": false,
      "normalized": false,
      "special": true
    },
    {
      "id": 155,
      "content": "<0x91>",
      "single_word": false,
      "lstrip": false,
      "rstrip": false,
      "normalized": false,
      "special": true
    },
    {
      "id": 156,
      "content": "<0x92>",
      "single_word": false,
      "lstrip": false,
      "rstrip": false,
      "normalized": false,
      "special": true
    },
    {
      "id": 157,
      "content": "<0x93>",
      "single_word": false,
      "lstrip": false,
      "rstrip": false,
      "normalized": false,
      "special": true
    },
    {
      "id": 158,
      "content": "<0x94>",
      "single_word": false,
      "lstrip": false,
      "rstrip": false,
      "normalized": false,
      "special": true
    },
    {
      "id": 159,
      "content": "<0x95>",
      "single_word": false,
      "lstrip": false,
      "rstrip": false,
      "normalized": false,
      "special": true
    },
    {
      "id": 160,
      "content": "<0x96>",
      "single_word": false,
      "lstrip": false,
      "rstrip": false,
      "normalized": false,
      "special": true
    },
    {
      "id": 161,
      "content": "<0x97>",
      "single_word": false,
      "lstrip": false,
      "rstrip": false,
      "normalized": false,
      "special": true
    },
    {
      "id": 162,
      "content": "<0x98>",
      "single_word": false,
      "lstrip": false,
      "rstrip": false,
      "normalized": false,
      "special": true
    },
    {
      "id": 163,
      "content": "<0x99>",
      "single_word": false,
      "lstrip": false,
      "rstrip": false,
      "normalized": false,
      "special": true
    },
    {
      "id": 164,
      "content": "<0x9A>",
      "single_word": false,
      "lstrip": false,
      "rstrip": false,
      "normalized": false,
      "special": true
    },
    {
      "id": 165,
      "content": "<0x9B>",
      "single_word": false,
      "lstrip": false,
      "rstrip": false,
      "normalized": false,
      "special": true
    },
    {
      "id": 166,
      "content": "<0x9C>",
      "single_word": false,
      "lstrip": false,
      "rstrip": false,
      "normalized": false,
      "special": true
    },
    {
      "id": 167,
      "content": "<0x9D>",
      "single_word": false,
      "lstrip": false,
      "rstrip": false,
      "normalized": false,
      "special": true
    },
    {
      "id": 168,
      "content": "<0x9E>",
      "single_word": false,
      "lstrip": false,
      "rstrip": false,
      "normalized": false,
      "special": true
    },
    {
      "id": 169,
      "content": "<0x9F>",
      "single_word": false,
      "lstrip": false,
      "rstrip": false,
      "normalized": false,
      "special": true
    },
    {
      "id": 170,
      "content": "<0xA0>",
      "single_word": false,
      "lstrip": false,
      "rstrip": false,
      "normalized": false,
      "special": true
    },
    {
      "id": 171,
      "content": "<0xA1>",
      "single_word": false,
      "lstrip": false,
      "rstrip": false,
      "normalized": false,
      "special": true
    },
    {
      "id": 172,
      "content": "<0xA2>",
      "single_word": false,
      "lstrip": false,
      "rstrip": false,
      "normalized": false,
      "special": true
    },
    {
      "id": 173,
      "content": "<0xA3>",
      "single_word": false,
      "lstrip": false,
      "rstrip": false,
      "normalized": false,
      "special": true
    },
    {
      "id": 174,
      "content": "<0xA4>",
      "single_word": false,
      "lstrip": false,
      "rstrip": false,
      "normalized": false,
      "special": true
    },
    {
      "id": 175,
      "content": "<0xA5>",
      "single_word": false,
      "lstrip": false,
      "rstrip": false,
      "normalized": false,
      "special": true
    },
    {
      "id": 176,
      "content": "<0xA6>",
      "single_word": false,
      "lstrip": false,
      "rstrip": false,
      "normalized": false,
      "special": true
    },
    {
      "id": 177,
      "content": "<0xA7>",
      "single_word": false,
      "lstrip": false,
      "rstrip": false,
      "normalized": false,
      "special": true
    },
    {
      "id": 178,
      "content": "<0xA8>",
      "single_word": false,
      "lstrip": false,
      "rstrip": false,
      "normalized": false,
      "special": true
    },
    {
      "id": 179,
      "content": "<0xA9>",
      "single_word": false,
      "lstrip": false,
      "rstrip": false,
      "normalized": false,
      "special": true
    },
    {
      "id": 180,
      "content": "<0xAA>",
      "single_word": false,
      "lstrip": false,
      "rstrip": false,
      "normalized": false,
      "special": true
    },
    {
      "id": 181,
      "content": "<0xAB>",
      "single_word": false,
      "lstrip": false,
      "rstrip": false,
      "normalized": false,
      "special": true
    },
    {
      "id": 182,
      "content": "<0xAC>",
      "single_word": false,
      "lstrip": false,
      "rstrip": false,
      "normalized": false,
      "special": true
    },
    {
      "id": 183,
      "content": "<0xAD>",
      "single_word": false,
      "lstrip": false,
      "rstrip": false,
      "normalized": false,
      "special": true
    },
    {
      "id": 184,
      "content": "<0xAE>",
      "single_word": false,
      "lstrip": false,
      "rstrip": false,
      "normalized": false,
      "special": true
    },
    {
      "id": 185,
      "content": "<0xAF>",
      "single_word": false,
      "lstrip": false,
      "rstrip": false,
      "normalized": false,
      "special": true
    },
    {
      "id": 186,
      "content": "<0xB0>",
      "single_word": false,
      "lstrip": false,
      "rstrip": false,
      "normalized": false,
      "special": true
    },
    {
      "id": 187,
      "content": "<0xB1>",
      "single_word": false,
      "lstrip": false,
      "rstrip": false,
      "normalized": false,
      "special": true
    },
    {
      "id": 188,
      "content": "<0xB2>",
      "single_word": false,
      "lstrip": false,
      "rstrip": false,
      "normalized": false,
      "special": true
    },
    {
      "id": 189,
      "content": "<0xB3>",
      "single_word": false,
      "lstrip": false,
      "rstrip": false,
      "normalized": false,
      "special": true
    },
    {
      "id": 190,
      "content": "<0xB4>",
      "single_word": false,
      "lstrip": false,
      "rstrip": false,
      "normalized": false,
      "special": true
    },
    {
      "id": 191,
      "content": "<0xB5>",
      "single_word": false,
      "lstrip": false,
      "rstrip": false,
      "normalized": false,
      "special": true
    },
    {
      "id": 192,
      "content": "<0xB6>",
      "single_word": false,
      "lstrip": false,
      "rstrip": false,
      "normalized": false,
      "special": true
    },
    {
      "id": 193,
      "content": "<0xB7>",
      "single_word": false,
      "lstrip": false,
      "rstrip": false,
      "normalized": false,
      "special": true
    },
    {
      "id": 194,
      "content": "<0xB8>",
      "single_word": false,
      "lstrip": false,
      "rstrip": false,
      "normalized": false,
      "special": true
    },
    {
      "id": 195,
      "content": "<0xB9>",
      "single_word": false,
      "lstrip": false,
      "rstrip": false,
      "normalized": false,
      "special": true
    },
    {
      "id": 196,
      "content": "<0xBA>",
      "single_word": false,
      "lstrip": false,
      "rstrip": false,
      "normalized": false,
      "special": true
    },
    {
      "id": 197,
      "content": "<0xBB>",
      "single_word": false,
      "lstrip": false,
      "rstrip": false,
      "normalized": false,
      "special": true
    },
    {
      "id": 198,
      "content": "<0xBC>",
      "single_word": false,
      "lstrip": false,
      "rstrip": false,
      "normalized": false,
      "special": true
    },
    {
      "id": 199,
      "content": "<0xBD>",
      "single_word": false,
      "lstrip": false,
      "rstrip": false,
      "normalized": false,
      "special": true
    },
    {
      "id": 200,
      "content": "<0xBE>",
      "single_word": false,
      "lstrip": false,
      "rstrip": false,
      "normalized": false,
      "special": true
    },
    {
      "id": 201,
      "content": "<0xBF>",
      "single_word": false,
      "lstrip": false,
      "rstrip": false,
      "normalized": false,
      "special": true
    },
    {
      "id": 202,
      "content": "<0xC0>",
      "single_word": false,
      "lstrip": false,
      "rstrip": false,
      "normalized": false,
      "special": true
    },
    {
      "id": 203,
      "content": "<0xC1>",
      "single_word": false,
      "lstrip": false,
      "rstrip": false,
      "normalized": false,
      "special": true
    },
    {
      "id": 204,
      "content": "<0xC2>",
      "single_word": false,
      "lstrip": false,
      "rstrip": false,
      "normalized": false,
      "special": true
    },
    {
      "id": 205,
      "content": "<0xC3>",
      "single_word": false,
      "lstrip": false,
      "rstrip": false,
      "normalized": false,
      "special": true
    },
    {
      "id": 206,
      "content": "<0xC4>",
      "single_word": false,
      "lstrip": false,
      "rstrip": false,
      "normalized": false,
      "special": true
    },
    {
      "id": 207,
      "content": "<0xC5>",
      "single_word": false,
      "lstrip": false,
      "rstrip": false,
      "normalized": false,
      "special": true
    },
    {
      "id": 208,
      "content": "<0xC6>",
      "single_word": false,
      "lstrip": false,
      "rstrip": false,
      "normalized": false,
      "special": true
    },
    {
      "id": 209,
      "content": "<0xC7>",
      "single_word": false,
      "lstrip": false,
      "rstrip": false,
      "normalized": false,
      "special": true
    },
    {
      "id": 210,
      "content": "<0xC8>",
      "single_word": false,
      "lstrip": false,
      "rstrip": false,
      "normalized": false,
      "special": true
    },
    {
      "id": 211,
      "content": "<0xC9>",
      "single_word": false,
      "lstrip": false,
      "rstrip": false,
      "normalized": false,
      "special": true
    },
    {
      "id": 212,
      "content": "<0xCA>",
      "single_word": false,
      "lstrip": false,
      "rstrip": false,
      "normalized": false,
      "special": true
    },
    {
      "id": 213,
      "content": "<0xCB>",
      "single_word": false,
      "lstrip": false,
      "rstrip": false,
      "normalized": false,
      "special": true
    },
    {
      "id": 214,
      "content": "<0xCC>",
      "single_word": false,
      "lstrip": false,
      "rstrip": false,
      "normalized": false,
      "special": true
    },
    {
      "id": 215,
      "content": "<0xCD>",
      "single_word": false,
      "lstrip": false,
      "rstrip": false,
      "normalized": false,
      "special": true
    },
    {
      "id": 216,
      "content": "<0xCE>",
      "single_word": false,
      "lstrip": false,
      "rstrip": false,
      "normalized": false,
      "special": true
    },
    {
      "id": 217,
      "content": "<0xCF>",
      "single_word": false,
      "lstrip": false,
      "rstrip": false,
      "normalized": false,
      "special": true
    },
    {
      "id": 218,
      "content": "<0xD0>",
      "single_word": false,
      "lstrip": false,
      "rstrip": false,
      "normalized": false,
      "special": true
    },
    {
      "id": 219,
      "content": "<0xD1>",
      "single_word": false,
      "lstrip": false,
      "rstrip": false,
      "normalized": false,
      "special": true
    },
    {
      "id": 220,
      "content": "<0xD2>",
      "single_word": false,
      "lstrip": false,
      "rstrip": false,
      "normalized": false,
      "special": true
    },
    {
      "id": 221,
      "content": "<0xD3>",
      "single_word": false,
      "lstrip": false,
      "rstrip": false,
      "normalized": false,
      "special": true
    },
    {
      "id": 222,
      "content": "<0xD4>",
      "single_word": false,
      "lstrip": false,
      "rstrip": false,
      "normalized": false,
      "special": true
    },
    {
      "id": 223,
      "content": "<0xD5>",
      "single_word": false,
      "lstrip": false,
      "rstrip": false,
      "normalized": false,
      "special": true
    },
    {
      "id": 224,
      "content": "<0xD6>",
      "single_word": false,
      "lstrip": false,
      "rstrip": false,
      "normalized": false,
      "special": true
    },
    {
      "id": 225,
      "content": "<0xD7>",
      "single_word": false,
      "lstrip": false,
      "rstrip": false,
      "normalized": false,
      "special": true
    },
    {
      "id": 226,
      "content": "<0xD8>",
      "single_word": false,
      "lstrip": false,
      "rstrip": false,
      "normalized": false,
      "special": true
    },
    {
      "id": 227,
      "content": "<0xD9>",
      "single_word": false,
      "lstrip": false,
      "rstrip": false,
      "normalized": false,
      "special": true
    },
    {
      "id": 228,
      "content": "<0xDA>",
      "single_word": false,
      "lstrip": false,
      "rstrip": false,
      "normalized": false,
      "special": true
    },
    {
      "id": 229,
      "content": "<0xDB>",
      "single_word": false,
      "lstrip": false,
      "rstrip": false,
      "normalized": false,
      "special": true
    },
    {
      "id": 230,
      "content": "<0xDC>",
      "single_word": false,
      "lstrip": false,
      "rstrip": false,
      "normalized": false,
      "special": true
    },
    {
      "id": 231,
      "content": "<0xDD>",
      "single_word": false,
      "lstrip": false,
      "rstrip": false,
      "normalized": false,
      "special": true
    },
    {
      "id": 232,
      "content": "<0xDE>",
      "single_word": false,
      "lstrip": false,
      "rstrip": false,
      "normalized": false,
      "special": true
    },
    {
      "id": 233,
      "content": "<0xDF>",
      "single_word": false,
      "lstrip": false,
      "rstrip": false,
      "normalized": false,
      "special": true
    },
    {
      "id": 234,
      "content": "<0xE0>",
      "single_word": false,
      "lstrip": false,
      "rstrip": false,
      "normalized": false,
      "special": true
    },
    {
      "id": 235,
      "content": "<0xE1>",
      "single_word": false,
      "lstrip": false,
      "rstrip": false,
      "normalized": false,
      "special": true
    },
    {
      "id": 236,
      "content": "<0xE2>",
      "single_word": false,
      "lstrip": false,
      "rstrip": false,
      "normalized": false,
      "special": true
    },
    {
      "id": 237,
      "content": "<0xE3>",
      "single_word": false,
      "lstrip": false,
      "rstrip": false,
      "normalized": false,
      "special": true
    },
    {
      "id": 238,
      "content": "<0xE4>",
      "single_word": false,
      "lstrip": false,
      "rstrip": false,
      "normalized": false,
      "special": true
    },
    {
      "id": 239,
      "content": "<0xE5>",
      "single_word": false,
      "lstrip": false,
      "rstrip": false,
      "normalized": false,
      "special": true
    },
    {
      "id": 240,
      "content": "<0xE6>",
      "single_word": false,
      "lstrip": false,
      "rstrip": false,
      "normalized": false,
      "special": true
    },
    {
      "id": 241,
      "content": "<0xE7>",
      "single_word": false,
      "lstrip": false,
      "rstrip": false,
      "normalized": false,
      "special": true
    },
    {
      "id": 242,
      "content": "<0xE8>",
      "single_word": false,
      "lstrip": false,
      "rstrip": false,
      "normalized": false,
      "special": true
    },
    {
      "id": 243,
      "content": "<0xE9>",
      "single_word": false,
      "lstrip": false,
      "rstrip": false,
      "normalized": false,
      "special": true
    },
    {
      "id": 244,
      "content": "<0xEA>",
      "single_word": false,
      "lstrip": false,
      "rstrip": false,
      "normalized": false,
      "special": true
    },
    {
      "id": 245,
      "content": "<0xEB>",
      "single_word": false,
      "lstrip": false,
      "rstrip": false,
      "normalized": false,
      "special": true
    },
    {
      "id": 246,
      "content": "<0xEC>",
      "single_word": false,
      "lstrip": false,
      "rstrip": false,
      "normalized": false,
      "special": true
    },
    {
      "id": 247,
      "content": "<0xED>",
      "single_word": false,
      "lstrip": false,
      "rstrip": false,
      "normalized": false,
      "special": true
    },
    {
      "id": 248,
      "content": "<0xEE>",
      "single_word": false,
      "lstrip": false,
      "rstrip": false,
      "normalized": false,
      "special": true
    },
    {
      "id": 249,
      "content": "<0xEF>",
      "single_word": false,
      "lstrip": false,
      "rstrip": false,
      "normalized": false,
      "special": true
    },
    {
      "id": 250,
      "content": "<0xF0>",
      "single_word": false,
      "lstrip": false,
      "rstrip": false,
      "normalized": false,
      "special": true
    },
    {
      "id": 251,
      "content": "<0xF1>",
      "single_word": false,
      "lstrip": false,
      "rstrip": false,
      "normalized": false,
      "special": true
    },
    {
      "id": 252,
      "content": "<0xF2>",
      "single_word": false,
      "lstrip": false,
      "rstrip": false,
      "normalized": false,
      "special": true
    },
    {
      "id": 253,
      "content": "<0xF3>",
      "single_word": false,
      "lstrip": false,
      "rstrip": false,
      "normalized": false,
      "special": true
    },
    {
      "id": 254,
      "content": "<0xF4>",
      "single_word": false,
      "lstrip": false,
      "rstrip": false,
      "normalized": false,
      "special": true
    },
    {
      "id": 255,
      "content": "<0xF5>",
      "single_word": false,
      "lstrip": false,
      "rstrip": false,
      "normalized": false,
      "special": true
    },
    {
      "id": 256,
      "content": "<0xF6>",
      "single_word": false,
      "lstrip": false,
      "rstrip": false,
      "normalized": false,
      "special": true
    },
    {
      "id": 257,
      "content": "<0xF7>",
      "single_word": false,
      "lstrip": false,
      "rstrip": false,
      "normalized": false,
      "special": true
    },
    {
      "id": 258,
      "content": "<0xF8>",
      "single_word": false,
      "lstrip": false,
      "rstrip": false,
      "normalized": false,
      "special": true
    },
    {
      "id": 259,
      "content": "<0xF9>",
      "single_word": false,
      "lstrip": false,
      "rstrip": false,
      "normalized": false,
      "special": true
    },
    {
      "id": 260,
      "content": "<0xFA>",
      "single_word": false,
      "lstrip": false,
      "rstrip": false,
      "normalized": false,
      "special": true
    },
    {
      "id": 261,
      "content": "<0xFB>",
      "single_word": false,
      "lstrip": false,
      "rstrip": false,
      "normalized": false,
      "special": true
    },
    {
      "id": 262,
      "content": "<0xFC>",
      "single_word": false,
      "lstrip": false,
      "rstrip": false,
      "normalized": false,
      "special": true
    },
    {
      "id": 263,
      "content": "<0xFD>",
      "single_word": false,
      "lstrip": false,
      "rstrip": false,
      "normalized": false,
      "special": true
    },
    {
      "id": 264,
      "content": "<0xFE>",
      "single_word": false,
      "lstrip": false,
      "rstrip": false,
      "normalized": false,
      "special": true
    },
    {
      "id": 265,
      "content": "<0xFF>",
      "single_word": false,
      "lstrip": false,
      "rstrip": false,
      "normalized": false,
      "special": true
    }
  ],
  "normalizer": {
    "type": "NFKC"
  },
  "pre_tokenizer": null,
  "post_processor": null,
  "decoder": {
    "type": "Sequence",
    "decoders": [
      {
        "type": "ByteFallback"
      },
      {
        "type": "BPEDecoder",
        "suffix": "</w>"
      }
    ]
  },
  "model": {
    "type": "BPE",
    "dropout": null,
    "unk_token": "<unk>",
    "continuing_subword_prefix": null,
    "end_of_word_suffix": "</w>",
    "fuse_unk": false,
    "byte_fallback": true,
    "ignore_merges": false,
    "vocab": {
      "<unk>": 0,
      "<s>": 1,
      "</s>": 2,
      "<pad>": 3,
      "<mask>": 4,
      "<|fim_prefix|>": 5,
      "<|fim_middle|>": 6,
      "<|fim_suffix|>": 7,
      "<|fim_pad|>": 8,
      "<|file_separator|>": 9,
      "<0x00>": 10,
      "<0x01>": 11,
      "<0x02>": 12,
      "<0x03>": 13,
      "<0x04>": 14,
      "<0x05>": 15,
      "<0x06>": 16,
      "<0x07>": 17,
      "<0x08>": 18,
      "<0x09>": 19,
      "<0x0A>": 20,
      "<0x0B>": 21,
      "<0x0C>": 22,
      "<0x0D>": 23,
      "<0x0E>": 24,
      "<0x0F>": 25,
      "<0x10>": 26,
      "<0x11>": 27,
      "<0x12>": 28,
      "<0x13>": 29,
      "<0x14>": 30,
      "<0x15>": 31,
      "<0x16>": 32,
      "<0x17>": 33,
      "<0x18>": 34,
      "<0x19>": 35,
      "<0x1A>": 36,
      "<0x1B>": 37,
      "<0x1C>": 38,
      "<0x1D>": 39,
      "<0x1E>": 40,
      "<0x1F>": 41,
      "<0x20>": 42,
      "<0x21>": 43,
      "<0x22>": 44,
      "<0x23>": 45,
      "<0x24>": 46,
      "<0x25>": 47,
      "<0x26>": 48,
      "<0x27>": 49,
      "<0x28>": 50,
      "<0x29>": 51,
      "<0x2A>": 52,
      "<0x2B>": 53,
      "<0x2C>": 54,
      "<0x2D>": 55,
      "<0x2E>": 56,
      "<0x2F>": 57,
      "<0x30>": 58,
      "<0x31>": 59,
      "<0x32>": 60,
      "<0x33>": 61,
      "<0x34>": 62,
      "<0x35>": 63,
      "<0x36>": 64,
      "<0x37>": 65,
      "<0x38>": 66,
      "<0x39>": 67,
      "<0x3A>": 68,
      "<0x3B>": 69,
      "<0x3C>": 70,
      "<0x3D>": 71,
      "<0x3E>": 72,
      "<0x3F>": 73,
      "<0x40>": 74,
      "<0x41>": 75,
      "<0x42>": 76,
      "<0x43>": 77,
      "<0x44>": 78,
      "<0x45>": 79,
      "<0x46>": 80,
      "<0x47>": 81,
      "<0x48>": 82,
      "<0x49>": 83,
      "<0x4A>": 84,
      "<0x4B>": 85,
      "<0x4C>": 86,
      "<0x4D>": 87,
      "<0x4E>": 88,
      "<0x4F>": 89,
      "<0x50>": 90,
      "<0x51>": 91,
      "<0x52>": 92,
      "<0x53>": 93,
      "<0x54>": 94,
      "<0x55>": 95,
      "<0x56>": 96,
      "<0x57>": 97,
      "<0x58>": 98,
      "<0x59>": 99,
      "<0x5A>": 100,
      "<0x5B>": 101,
      "<0x5C>": 102,
      "<0x5D>": 103,
      "<0x5E>": 104,
      "<0x5F>": 105,
      "<0x60>": 106,
      "<0x61>": 107,
      "<0x62>": 108,
      "<0x63>": 109,
      "<0x64>": 110,
      "<0x65>": 111,
      "<0x66>": 112,
      "<0x67>": 113,
      "<0x68>": 114,
      "<0x69>": 115,
      "<0x6A>": 116,
      "<0x6B>": 117,
      "<0x6C>": 118,
      "<0x6D>": 119,
      "<0x6E>": 120,
      "<0x6F>": 121,
      "<0x70>": 122,
      "<0x71>": 123,
      "<0x72>": 124,
      "<0x73>": 125,
      "<0x74>": 126,
      "<0x75>": 127,
      "<0x76>": 128,
      "<0x77>": 129,
      "<0x78>": 130,
      "<0x79>": 131,
      "<0x7A>": 132,
      "<0x7B>": 133,
      "<0x7C>": 134,
      "<0x7D>": 135,
      "<0x7E>": 136,
      "<0x7F>": 137,
      "<0x80>": 138,
      "<0x81>": 139,
      "<0x82>": 140,
      "<0x83>": 141,
      "<0x84>": 142,
      "<0x85>": 143,
      "<0x86>": 144,
      "<0x87>": 145,
      "<0x88>": 146,
      "<0x89>": 147,
      "<0x8A>": 148,
      "<0x8B>": 149,
      "<0x8C>": 150,
      "<0x8D>": 151,
      "<0x8E>": 152,
      "<0x8F>": 153,
      "<0x90>": 154,
      "<0x91>": 155,
      "<0x92>": 156,
      "<0x93>": 157,
      "<0x94>": 158,
      "<0x95>": 159,
      "<0x96>": 160,
      "<0x97>": 161,
      "<0x98>": 162,
      "<0x99>": 163,
      "<0x9A>": 164,
      "<0x9B>": 165,
      "<0x9C>": 166,
      "<0x9D>": 167,
      "<0x9E>": 168,
      "<0x9F>": 169,
      "<0xA0>": 170,
      "<0xA1>": 171,
      "<0xA2>": 172,
      "<0xA3>": 173,
      "<0xA4>": 174,
      "<0xA5>": 175,
      "<0xA6>": 176,
      "<0xA7>": 177,
      "<0xA8>": 178,
      "<0xA9>": 179,
      "<0xAA>": 180,
      "<0xAB>": 181,
      "<0xAC>": 182,
      "<0xAD>": 183,
      "<0xAE>": 184,
      "<0xAF>": 185,
      "<0xB0>": 186,
      "<0xB1>": 187,
      "<0xB2>": 188,
      "<0xB3>": 189,
      "<0xB4>": 190,
      "<0xB5>": 191,
      "<0xB6>": 192,
      "<0xB7>": 193,
      "<0xB8>": 194,
      "<0xB9>": 195,
      "<0xBA>": 196,
      "<0xBB>": 197,
      "<0xBC>": 198,
      "<0xBD>": 199,
      "<0xBE>": 200,
      "<0xBF>": 201,
      "<0xC0>": 202,
      "<0xC1>": 203,
      "<0xC2>": 204,
      "<0xC3>": 205,
      "<0xC4>": 206,
      "<0xC5>": 207,
      "<0xC6>": 208,
      "<0xC7>": 209,
      "<0xC8>": 210,
      "<0xC9>": 211,
      "<0xCA>": 212,
      "<0xCB>": 213,
      "<0xCC>": 214,
      "<0xCD>": 215,
      "<0xCE>": 216,
      "<0xCF>": 217,
      "<0xD0>": 218,
      "<0xD1>": 219,
      "<0xD2>": 220,
      "<0xD3>": 221,
      "<0xD4>": 222,
      "<0xD5>": 223,
      "<0xD6>": 224,
      "<0xD7>": 225,
      "<0xD8>": 226,
      "<0xD9>": 227,
      "<0xDA>": 228,
      "<0xDB>": 229,
      "<0xDC>": 230,
      "<0xDD>": 231,
      "<0xDE>": 232,
      "<0xDF>": 233,
      "<0xE0>": 234,
      "<0xE1>": 235,
      "<0xE2>": 236,
      "<0xE3>": 237,
      "<0xE4>": 238,
      "<0xE5>": 239,
      "<0xE6>": 240,
      "<0xE7>": 241,
      "<0xE8>": 242,
      "<0xE9>": 243,
      "<0xEA>": 244,
      "<0xEB>": 245,
      "<0xEC>": 246,
      "<0xED>": 247,
      "<0xEE>": 248,
      "<0xEF>": 249,
      "<0xF0>": 250,
      "<0xF1>": 251,
      "<0xF2>": 252,
      "<0xF3>": 253,
      "<0xF4>": 254,
      "<0xF5>": 255,
      "<0xF6>": 256,
      "<0xF7>": 257,
      "<0xF8>": 258,
      "<0xF9>": 259,
      "<0xFA>": 260,
      "<0xFB>": 261,
      "<0xFC>": 262,
      "<0xFD>": 263,
      "<0xFE>": 264,
      "<0xFF>": 265,
      "\t": 266,
      "\n": 267,
      "\f": 268,
      "\r": 269,
      " ": 270,
      "!": 271,
      "\"": 272,
      "#": 273,
      "$": 274,
      "%": 275,
      "&": 276,
      "'": 277,
      "(": 278,
      ")": 279,
      "*": 280,
      "+": 281,
      ",": 282,
      "-": 283,
      ".": 284,
      "/": 285,
      "0": 286,
      "1": 287,
      "2": 288,
      "3": 289,
      "4": 290,
      "5": 291,
      "6": 292,
      "7": 293,
      "8": 294,
      "9": 295,
      ":": 296,
      ";": 297,
      "<": 298,
      "=": 299,
      ">": 300,
      "?": 301,
      "@": 302,
      "A": 303,
      "B": 304,
      "C": 305,
      "D": 306,
      "E": 307,
      "F": 308,
      "G": 309,
      "H": 310,
      "I": 311,
      "J": 312,
      "K": 313,
      "L": 314,
      "M": 315,
      "N": 316,
      "O": 317,
      "P": 318,
      "Q": 319,
      "R": 320,
      "S": 321,
      "T": 322,
      "U": 323,
      "V": 324,
      "W": 325,
      "X": 326,
      "Y": 327,
      "Z": 328,
      "[": 329,
      "\\": 330,
      "]": 331,
      "^": 332,
      "_": 333,
      "`": 334,
      "a": 335,
      "b": 336,
      "c": 337,
      "d": 338,
      "e": 339,
      "f": 340,
      "g": 341,
      "h": 342,
      "i": 343,
      "j": 344,
      "k": 345,
      "l": 346,
      "m": 347,
      "n": 348,
      "o": 349,
      "p": 350,
      "q": 351,
      "r": 352,
      "s": 353,
      "t": 354,
      "u": 355,
      "v": 356,
      "w": 357,
      "x": 358,
      "y": 359,
      "z": 360,
      "{": 361,
      "|": 362,
      "}": 363,
      "~": 364,
      ".</w>": 365,
      "?</w>": 366,
      "\n</w>": 367,
      "!</w>": 368,
      "e</w>": 369,
      "'</w>": 370,
      "}</w>": 371,
      "f</w>": 372,
      ")</w>": 373,
      "2</w>": 374,
      "y</w>": 375,
      "_</w>": 376,
      "D</w>": 377,
      "s</w>": 378,
      "]</w>": 379,
      "d</w>": 380,
      "r</w>": 381,
      "/</w>": 382,
      "h</w>": 383,
      "P</w>": 384,
      "\t</w>": 385,
      "t</w>": 386,
      ":</w>": 387,
      "g</w>": 388,
      "3</w>": 389,
      "|</w>": 390,
      " </w>": 391,
      "n</w>": 392,
      "6</w>": 393,
      "a</w>": 394,
      "S</w>": 395,
      "5</w>": 396,
      "9</w>": 397,
      "k</w>": 398,
      "m</w>": 399,
      ";</w>": 400,
      "0</w>": 401,
      "></w>": 402,
      ",</w>": 403,
      "7</w>": 404,
      "p</w>": 405,
      "l</w>": 406,
      "E</w>": 407,
      "-</w>": 408,
      "4</w>": 409,
      "B</w>": 410,
      "Q</w>": 411,
      "v</w>": 412,
      "i</w>": 413,
      "K</w>": 414,
      "1</w>": 415,
      "F</w>": 416,
      "+</w>": 417,
      "I</w>": 418,
      "c</w>": 419,
      "x</w>": 420,
      "O</w>": 421,
      "N</w>": 422,
      "w</w>": 423,
      "\"</w>": 424,
      "A</w>": 425,
      "o</w>": 426,
      "T</w>": 427,
      "M</w>": 428,
      "8</w>": 429,
      "C</w>": 430,
      "G</w>": 431,
      "R</w>": 432,
      "%</w>": 433,
      "H</w>": 434,
      "\r</w>": 435,
      "X</w>": 436,
      "  ": 437,
      "e ": 438,
      "    ": 439,
      "in": 440,
      "s ": 441,
      "th": 442,
      "er": 443,
      "on": 444,
      "t ": 445,
      "d ": 446,
      "an": 447,
      ", ": 448,
      "en": 449,
      "or": 450,
      "ti": 451,
      "re": 452,
      "al": 453,
      "        ": 454,
      "the ": 455,
      "ar": 456,
      "st": 457,
      "y ": 458,
      "f ": 459,
      "o ": 460,
      "ing": 461,
      "at": 462,
      "ou": 463,
      ";\n": 464,
      "of ": 465,
      "tion": 466,
      "and ": 467,
      "ed ": 468,
      "es": 469,
      "to ": 470,
      "ro": 471,
      "ing ": 472,
      "ic": 473,
      "ec": 474,
      "a ": 475,
      "it": 476,
      "ac": 477,
      "el": 478,
      "--": 479,
      "et": 480,
      "in ": 481,
      "il": 482,
      "es ": 483,
      "er ": 484,
      "as": 485,
      "is ": 486,
      "or ": 487,
      ");\n": 488,
      "ur": 489,
      "ol": 490,
      "is": 491,
      "om": 492,
      "= ": 493,
      "al ": 494,
      "//": 495,
      "am": 496,
      "::": 497,
      "ch": 498,
      "em": 499,
      "si": 500,
      "\n        ": 501,
      "ent": 502,
      "\n    ": 503,
      "at ": 504,
      "ation": 505,
      "con": 506,
      "\t\t": 507,
      "de": 508,
      "tr": 509,
      "le": 510,
      "lo": 511,
      ") ": 512,
      "us": 513,
      "an ": 514,
      "as ": 515,
      "ad": 516,
      "ed": 517,
      "un": 518,
      "Th": 519,
      "ul": 520,
      "ex": 521,
      "ab": 522,
      "pl": 523,
      "pro": 524,
      "ag": 525,
      "ig": 526,
      "n ": 527,
      "on ": 528,
      "th ": 529,
      "----": 530,
      "ir": 531,
      "en ": 532,
      "**": 533,
      "res": 534,
      "ap": 535,
      "im": 536,
      "id": 537,
      "ve ": 538,
      "for ": 539,
      "all": 540,
      "wh": 541,
      "ent ": 542,
      "op": 543,
      "->": 544,
      "ow": 545,
      "int": 546,
      "that ": 547,
      "ver": 548,
      "str": 549,
      "di": 550,
      "um": 551,
      "h ": 552,
      "os": 553,
      "s, ": 554,
      "ff": 555,
      "()": 556,
      "se": 557,
      "com": 558,
      "are ": 559,
      "of the ": 560,
      "The ": 561,
      "cl": 562,
      "wi": 563,
      "oun": 564,
      "ut": 565,
      "our": 566,
      "ation ": 567,
      "ect": 568,
      "\n  ": 569,
      "for": 570,
      "su": 571,
      "s.</w>": 572,
      "// ": 573,
      "m ": 574,
      "od": 575,
      "In": 576,
      "pe": 577,
      "qu": 578,
      "tic": 579,
      "k ": 580,
      "if ": 581,
      "ha": 582,
      "li": 583,
      "per": 584,
      "ma": 585,
      "uc": 586,
      "l ": 587,
      "tur": 588,
      "}\n": 589,
      "ud": 590,
      "ri": 591,
      "st ": 592,
      "the": 593,
      "with ": 594,
      "ne": 595,
      "no": 596,
      "e, ": 597,
      "ly ": 598,
      "oc": 599,
      "le ": 600,
      "00": 601,
      "ay": 602,
      "be": 603,
      "it ": 604,
      " = ": 605,
      "and": 606,
      "ce ": 607,
      "par": 608,
      "==": 609,
      "ate ": 610,
      "sh": 611,
      "tion ": 612,
      "be ": 613,
      "est": 614,
      "igh": 615,
      "'s ": 616,
      "ter": 617,
      "in the ": 618,
      "--------": 619,
      "by ": 620,
      ");\n    ": 621,
      "if (": 622,
      "ear": 623,
      ") {": 624,
      "****": 625,
      "e_": 626,
      "fro": 627,
      "bu": 628,
      ": ": 629,
      "gr": 630,
      "w ": 631,
      "ty": 632,
      "* ": 633,
      "., ": 634,
      "retur": 635,
      "por": 636,
      "s and ": 637,
      "get": 638,
      "end": 639,
      "ere ": 640,
      "from ": 641,
      "            ": 642,
      "ic ": 643,
      "bo": 644,
      "ity ": 645,
      "wor": 646,
      "p ": 647,
      "ce": 648,
      "s of ": 649,
      "sp": 650,
      "St": 651,
      "iz": 652,
      "ev": 653,
      "const ": 654,
      "\n\t\t": 655,
      "return ": 656,
      "; ": 657,
      "e(": 658,
      "og": 659,
      "loc": 660,
      "ch ": 661,
      "\n            ": 662,
      "ang": 663,
      "tim": 664,
      "po": 665,
      "////": 666,
      "ess": 667,
      "out ": 668,
      "our ": 669,
      ";\n    ": 670,
      "have ": 671,
      "ther ": 672,
      "ld ": 673,
      "ir ": 674,
      "ist": 675,
      "ers ": 676,
      "ak": 677,
      "if": 678,
      "y, ": 679,
      "alu": 680,
      "ain": 681,
      "id ": 682,
      "e of ": 683,
      "std": 684,
      "< ": 685,
      "pr": 686,
      "ed to ": 687,
      "ate": 688,
      "was ": 689,
      "ser": 690,
      "T_": 691,
      "not ": 692,
      "\n      ": 693,
      "std::": 694,
      "es, ": 695,
      "co": 696,
      "to": 697,
      "he": 698,
      "ar ": 699,
      "incl": 700,
      "& ": 701,
      "ind": 702,
      "bl": 703,
      "cont": 704,
      "can ": 705,
      ");\n  ": 706,
      "Re": 707,
      "form": 708,
      "pre": 709,
      "cre": 710,
      "0x": 711,
      "e.</w>": 712,
      "siz": 713,
      "includ": 714,
      "vel": 715,
      "ra": 716,
      "Con": 717,
      "es.</w>": 718,
      "s to ": 719,
      "mo": 720,
      "ext": 721,
      "ore ": 722,
      "ould ": 723,
      "pa": 724,
      "set": 725,
      "\n\t": 726,
      "ack": 727,
      "m_": 728,
      "this ": 729,
      "ich ": 730,
      "ER": 731,
      "ci": 732,
      "ill ": 733,
      "their ": 734,
      "ow ": 735,
      "(\"": 736,
      "dis": 737,
      "dat": 738,
      "0 ": 739,
      "port": 740,
      "\n#": 741,
      "all ": 742,
      "vi": 743,
      "se ": 744,
      "out": 745,
      "vo": 746,
      "so ": 747,
      "ure": 748,
      "int ": 749,
      "ment": 750,
      "ment ": 751,
      ");\n        ": 752,
      "ast": 753,
      "duc": 754,
      "which ": 755,
      "inter": 756,
      "sy": 757,
      "arg": 758,
      "you": 759,
      "rec": 760,
      "man": 761,
      ", and ": 762,
      "s.": 763,
      "IN": 764,
      "we": 765,
      "to the ": 766,
      "ally ": 767,
      "oug": 768,
      "Ch": 769,
      "der": 770,
      "ated ": 771,
      "one ": 772,
      "has ": 773,
      "}\n\n": 774,
      "me": 775,
      "ing the ": 776,
      "ult": 777,
      "====": 778,
      "nam": 779,
      "comm": 780,
      "ase ": 781,
      "will ": 782,
      "y.</w>": 783,
      "ine ": 784,
      "ass": 785,
      "tive ": 786,
      "ph": 787,
      "19": 788,
      "ay ": 789,
      "ong": 790,
      "ob": 791,
      "ant": 792,
      "put": 793,
      "enc": 794,
      "pres": 795,
      "fac": 796,
      "   ": 797,
      "able ": 798,
      "go": 799,
      "dr": 800,
      "> ": 801,
      "more ": 802,
      "au": 803,
      "== ": 804,
      "ft": 805,
      "ffer": 806,
      "pu": 807,
      ". ": 808,
      "********": 809,
      "<< ": 810,
      "est ": 811,
      "et ": 812,
      "you ": 813,
      ";\n        ": 814,
      "Get": 815,
      "pos": 816,
      "coun": 817,
      "ol ": 818,
      "enti": 819,
      "Ty": 820,
      ",\n        ": 821,
      "ans": 822,
      "ies ": 823,
      "ical ": 824,
      "its ": 825,
      "ant ": 826,
      "include ": 827,
      "Un": 828,
      "use ": 829,
      "age ": 830,
      "- ": 831,
      "), ": 832,
      "E_": 833,
      "col": 834,
      "32": 835,
      "ach": 836,
      "ail": 837,
      "tic ": 838,
      "fil": 839,
      "\", ": 840,
      "ents ": 841,
      "pt": 842,
      "ure ": 843,
      "they ": 844,
      "sig": 845,
      "av": 846,
      "te": 847,
      "ib": 848,
      "sc": 849,
      "ip": 850,
      "En": 851,
      "fo": 852,
      "ence ": 853,
      "low": 854,
      ", the ": 855,
      "sion": 856,
      "EC": 857,
      "od ": 858,
      "Pro": 859,
      "em ": 860,
      "ener": 861,
      "fl": 862,
      "ome ": 863,
      ";\r": 864,
      "In ": 865,
      "ost ": 866,
      "ke": 867,
      "valu": 868,
      "vid": 869,
      "ord": 870,
      "ed by ": 871,
      "iti": 872,
      "A ": 873,
      "ary ": 874,
      "ight": 875,
      "+ ": 876,
      "fin": 877,
      "20": 878,
      "ON": 879,
      "cur": 880,
      "other ": 881,
      "OR": 882,
      "ight ": 883,
      "Ar": 884,
      "ell": 885,
      "iv": 886,
      "num": 887,
      "ther": 888,
      ";\n  ": 889,
      "__": 890,
      "we ": 891,
      "ect ": 892,
      "your ": 893,
      "min": 894,
      "tiv": 895,
      "ess ": 896,
      "able": 897,
      "reg": 898,
      "anc": 899,
      "typ": 900,
      "up": 901,
      "fi": 902,
      "ard": 903,
      "ple ": 904,
      "ke ": 905,
      "year": 906,
      "Str": 907,
      "were ": 908,
      "are": 909,
      "ese ": 910,
      "void ": 911,
      "fe": 912,
      "rit": 913,
      "vic": 914,
      "eng": 915,
      "ance ": 916,
      "////////": 917,
      "sign": 918,
      "\t\t\t\t": 919,
      "\n#include ": 920,
      "fir": 921,
      "\n{": 922,
      "ough ": 923,
      "ver ": 924,
      "stud": 925,
      "ject": 926,
      "Ex": 927,
      "_t": 928,
      "than ": 929,
      "This ": 930,
      "also ": 931,
      "on the ": 932,
      "() ": 933,
      "dex": 934,
      "ame ": 935,
      "0.": 936,
      "ES": 937,
      "struc": 938,
      "0, ": 939,
      "ot": 940,
      "))": 941,
      "bas": 942,
      "olog": 943,
      "AL": 944,
      "unc": 945,
      "Wh": 946,
      "Com": 947,
      "ial ": 948,
      "about ": 949,
      "but ": 950,
      "ue": 951,
      "ari": 952,
      "mat": 953,
      "\" ": 954,
      "ous ": 955,
      "12": 956,
      "read": 957,
      "ew": 958,
      "sec": 959,
      "act": 960,
      "add": 961,
      "des": 962,
      "work": 963,
      "es and ": 964,
      "Type": 965,
      "new ": 966,
      ".h": 967,
      "AS": 968,
      "lock": 969,
      "ad ": 970,
      "Par": 971,
      "hel": 972,
      "row": 973,
      "br": 974,
      "Al": 975,
      "AR": 976,
      "16": 977,
      "tem": 978,
      "ill": 979,
      "AT": 980,
      "ator": 981,
      "s are ": 982,
      " * ": 983,
      "ound": 984,
      "bec": 985,
      "ound ": 986,
      "ector": 987,
      "sel": 988,
      "rel": 989,
      "requ": 990,
      "own ": 991,
      "been ": 992,
      "s in ": 993,
      "spec": 994,
      "Bu": 995,
      "ust ": 996,
      "Ad": 997,
      "ast ": 998,
      "eff": 999,
      "sa": 1000,
      " and ": 1001,
      "0., ": 1002,
      "EX": 1003,
      "1, ": 1004,
      "s that ": 1005,
      "De": 1006,
      "ed in ": 1007,
      "err": 1008,
      "syst": 1009,
      "comp": 1010,
      "s_": 1011,
      "{\n        ": 1012,
      "most ": 1013,
      "kn": 1014,
      "ens": 1015,
      "pol": 1016,
      "type": 1017,
      "fr": 1018,
      "18": 1019,
      "e.": 1020,
      "chil": 1021,
      "dec": 1022,
      "trans": 1023,
      "und": 1024,
      "sub": 1025,
      "Ac": 1026,
      "es of ": 1027,
      "may ": 1028,
      "sta": 1029,
      "data": 1030,
      "ful": 1031,
      "_S": 1032,
      "64": 1033,
      "EN": 1034,
      "is a ": 1035,
      "art": 1036,
      "ong ": 1037,
      "t of ": 1038,
      "e the ": 1039,
      "\\n": 1040,
      "ement": 1041,
      "cho": 1042,
      "for the ": 1043,
      "fal": 1044,
      "sion ": 1045,
      "It ": 1046,
      "us ": 1047,
      "Res": 1048,
      "1 ": 1049,
      "mon": 1050,
      "who ": 1051,
      "ion": 1052,
      "bet": 1053,
      "ode": 1054,
      "ach ": 1055,
      "lin": 1056,
      "s(": 1057,
      "ace ": 1058,
      "x ": 1059,
      "ptr": 1060,
      "TR": 1061,
      "case ": 1062,
      "ial": 1063,
      "bre": 1064,
      "sid": 1065,
      "publ": 1066,
      "_c": 1067,
      "i ": 1068,
      "velop": 1069,
      "age": 1070,
      "An": 1071,
      "off": 1072,
      "pp": 1073,
      "develop": 1074,
      "ech": 1075,
      "cri": 1076,
      "when ": 1077,
      "ber ": 1078,
      "back": 1079,
      "sur": 1080,
      "acc": 1081,
      ">(": 1082,
      "Valu": 1083,
      "mer": 1084,
      "ational ": 1085,
      "ok": 1086,
      "gram": 1087,
      "stat": 1088,
      "Tr": 1089,
      "thr": 1090,
      "ve": 1091,
      "inv": 1092,
      "and the ": 1093,
      "el ": 1094,
      "produc": 1095,
      "10": 1096,
      "++": 1097,
      "def": 1098,
      "false": 1099,
      "(), ": 1100,
      "provid": 1101,
      "of": 1102,
      "mod": 1103,
      "\n    // ": 1104,
      "mil": 1105,
      "ish": 1106,
      "very ": 1107,
      "cent": 1108,
      "( ": 1109,
      "string": 1110,
      "wat": 1111,
      "sup": 1112,
      "AN": 1113,
      "such ": 1114,
      "ID": 1115,
      "any ": 1116,
      "lear": 1117,
      "========": 1118,
      "proc": 1119,
      "this": 1120,
      "mem": 1121,
      "Dat": 1122,
      "over": 1123,
      ", 0x": 1124,
      "only ": 1125,
      "UL": 1126,
      "til": 1127,
      "med": 1128,
      ") {\n        ": 1129,
      "red ": 1130,
      "Is": 1131,
      "ber": 1132,
      "Im": 1133,
      "mar": 1134,
      "would ": 1135,
      "how ": 1136,
      "ely ": 1137,
      ")\n        ": 1138,
      "from the ": 1139,
      "s the ": 1140,
      "ta": 1141,
      "ing to ": 1142,
      "size": 1143,
      "e and ": 1144,
      "pon": 1145,
      "ople ": 1146,
      "ys": 1147,
      "Set": 1148,
      "many ": 1149,
      "ris": 1150,
      "15": 1151,
      "cor": 1152,
      "CH": 1153,
      "bool ": 1154,
      ");\n}\n\n": 1155,
      "ame": 1156,
      "result": 1157,
      "\r\n": 1158,
      "la": 1159,
      "tor": 1160,
      "heal": 1161,
      "String": 1162,
      "tre": 1163,
      "ign": 1164,
      "do": 1165,
      "det": 1166,
      "gre": 1167,
      "RE": 1168,
      "ed the ": 1169,
      "curr": 1170,
      "with": 1171,
      "up ": 1172,
      "ell ": 1173,
      "ost": 1174,
      "gin": 1175,
      "\n\n": 1176,
      "these ": 1177,
      "Ob": 1178,
      "tw": 1179,
      "ations ": 1180,
      "gl": 1181,
      "vir": 1182,
      "ating ": 1183,
      "\t\t\t": 1184,
      "ose ": 1185,
      "chang": 1186,
      "with the ": 1187,
      "S ": 1188,
      "flo": 1189,
      "e = ": 1190,
      "exp": 1191,
      "auto ": 1192,
      "ement ": 1193,
      "ep": 1194,
      "ing, ": 1195,
      "people ": 1196,
      "ble ": 1197,
      "tions ": 1198,
      "!= ": 1199,
      "ual ": 1200,
      "buil": 1201,
      "writ": 1202,
      "ard ": 1203,
      "}\n    ": 1204,
      "ile ": 1205,
      "ed.</w>": 1206,
      "ream": 1207,
      "Siz": 1208,
      "ause ": 1209,
      "map": 1210,
      "Cont": 1211,
      "200": 1212,
      "*/": 1213,
      "first ": 1214,
      "ann": 1215,
      "ub": 1216,
      "14": 1217,
      "had ": 1218,
      "IT": 1219,
      "sol": 1220,
      "Op": 1221,
      "ates ": 1222,
      "ack ": 1223,
      "fer": 1224,
      "ter ": 1225,
      "uint": 1226,
      "char": 1227,
      "tak": 1228,
      "um ": 1229,
      "vis": 1230,
      "some ": 1231,
      "e to ": 1232,
      "_t ": 1233,
      "ED": 1234,
      "test": 1235,
      "ull": 1236,
      "his ": 1237,
      "Sh": 1238,
      "soc": 1239,
      "differ": 1240,
      "->get": 1241,
      "\n  // ": 1242,
      "val": 1243,
      "true": 1244,
      "ory ": 1245,
      "ation of ": 1246,
      "Col": 1247,
      "To": 1248,
      ").</w>": 1249,
      "end ": 1250,
      "mis": 1251,
      "index": 1252,
      "25": 1253,
      "\n\t\t\t": 1254,
      ");\n            ": 1255,
      "a, ": 1256,
      "\n#include \"": 1257,
      "rol": 1258,
      "gener": 1259,
      "func": 1260,
      "ray": 1261,
      "oper": 1262,
      "is the ": 1263,
      "ing a ": 1264,
      "17": 1265,
      "ing.</w>": 1266,
      "through ": 1267,
      "ash": 1268,
      "Po": 1269,
      "into ": 1270,
      "E ": 1271,
      "oft": 1272,
      "echn": 1273,
      "1,": 1274,
      "&& ": 1275,
      "13": 1276,
      "99": 1277,
      "own": 1278,
      "over ": 1279,
      "tit": 1280,
      "under": 1281,
      "do ": 1282,
      "incre": 1283,
      "(const ": 1284,
      "what ": 1285,
      "there ": 1286,
      "ween ": 1287,
      "const": 1288,
      ")\n{": 1289,
      "program": 1290,
      "abl": 1291,
      "0,": 1292,
      "\n// ": 1293,
      "abil": 1294,
      "' ": 1295,
      "2 ": 1296,
      "pri": 1297,
      "ush": 1298,
      "For": 1299,
      "commun": 1300,
      "work ": 1301,
      "He": 1302,
      "import": 1303,
      "T ": 1304,
      "Test": 1305,
      "that the ": 1306,
      "param": 1307,
      "between ": 1308,
      "org": 1309,
      "ed, ": 1310,
      "\\n\"": 1311,
      "| ": 1312,
      "esp": 1313,
      "tx": 1314,
      "ld": 1315,
      "ort": 1316,
      "vern": 1317,
      "'t ": 1318,
      "ple": 1319,
      ");\n\n    ": 1320,
      ")\n    ": 1321,
      "ug": 1322,
      "plic": 1323,
      "ation.</w>": 1324,
      ") {\n    ": 1325,
      "CO": 1326,
      "sk": 1327,
      "as a ": 1328,
      "0., 0., ": 1329,
      "govern": 1330,
      "ative ": 1331,
      "should ": 1332,
      ".get": 1333,
      "ath": 1334,
      "Fil": 1335,
      "level": 1336,
      "y_": 1337,
      "mak": 1338,
      "else ": 1339,
      "aph": 1340,
      "ader": 1341,
      "break": 1342,
      "GL": 1343,
      "ing and ": 1344,
      "cr": 1345,
      "son": 1346,
      "vari": 1347,
      "red": 1348,
      "port ": 1349,
      "in a ": 1350,
      "mov": 1351,
      "resear": 1352,
      "att": 1353,
      "scho": 1354,
      "Data": 1355,
      "s::": 1356,
      "call": 1357,
      "inform": 1358,
      "way ": 1359,
      "peri": 1360,
      "ion ": 1361,
      "part": 1362,
      "ough": 1363,
      "TH": 1364,
      "leg": 1365,
      "emp": 1366,
      "] = ": 1367,
      "C_": 1368,
      "if (!": 1369,
      "high": 1370,
      "data ": 1371,
      "ene": 1372,
      "\n//": 1373,
      "larg": 1374,
      "ass ": 1375,
      "at the ": 1376,
      "s, and ": 1377,
      "cer": 1378,
      "no ": 1379,
      "econ": 1380,
      "\")": 1381,
      "Amer": 1382,
      "On": 1383,
      "t = ": 1384,
      "Americ": 1385,
      "can be ": 1386,
      "iter": 1387,
      "techn": 1388,
      "using ": 1389,
      "es to ": 1390,
      "ey": 1391,
      "LO": 1392,
      "sm": 1393,
      "adi": 1394,
      "inst": 1395,
      "Reg": 1396,
      "] ": 1397,
      "EXP": 1398,
      "Sy": 1399,
      "s[": 1400,
      "dep": 1401,
      "car": 1402,
      "t(": 1403,
      "tern": 1404,
      "vector": 1405,
      ");\n\t": 1406,
      ");\n      ": 1407,
      "} ": 1408,
      "fter ": 1409,
      "Er": 1410,
      "e::": 1411,
      "cap": 1412,
      "hand": 1413,
      "iver": 1414,
      "two ": 1415,
      "system": 1416,
      "for (": 1417,
      "Fr": 1418,
      "er, ": 1419,
      "Stat": 1420,
      "ous": 1421,
      "eld": 1422,
      "where ": 1423,
      "tion of ": 1424,
      "IS": 1425,
      "exam": 1426,
      "childr": 1427,
      "ans ": 1428,
      "y and ": 1429,
      "ia ": 1430,
      "old": 1431,
      "il ": 1432,
      "ULL": 1433,
      "Add": 1434,
      "tical ": 1435,
      "way": 1436,
      "them ": 1437,
      "countr": 1438,
      "If ": 1439,
      "make ": 1440,
      "ust": 1441,
      "aliz": 1442,
      "could ": 1443,
      "ection": 1444,
      "ation, ": 1445,
      "point": 1446,
      "plac": 1447,
      ";\n}\n\n": 1448,
      "RO": 1449,
      "y of ": 1450,
      "del": 1451,
      "hist": 1452,
      "ed_": 1453,
      "TI": 1454,
      ",  ": 1455,
      "eck": 1456,
      "respon": 1457,
      "eas": 1458,
      "help ": 1459,
      "educ": 1460,
      "time ": 1461,
      "ey ": 1462,
      "ever": 1463,
      "().": 1464,
      "NULL": 1465,
      "pow": 1466,
      "lif": 1467,
      "/ ": 1468,
      "Gr": 1469,
      "lob": 1470,
      "stor": 1471,
      "count": 1472,
      "app": 1473,
      "Err": 1474,
      "Id": 1475,
      "I ": 1476,
      "equ": 1477,
      "he ": 1478,
      "like ": 1479,
      "\n#include <": 1480,
      "used ": 1481,
      "ite ": 1482,
      "ECT_": 1483,
      "cons": 1484,
      "stand": 1485,
      "e-": 1486,
      "ity": 1487,
      "ade ": 1488,
      "rang": 1489,
      "dur": 1490,
      "each ": 1491,
      "tis": 1492,
      ".h\"": 1493,
      "ew ": 1494,
      "such as ": 1495,
      "bod": 1496,
      "posi": 1497,
      "AM": 1498,
      "cep": 1499,
      "tt": 1500,
      ";\n            ": 1501,
      "As": 1502,
      "ance": 1503,
      "cul": 1504,
      ";\n\t": 1505,
      ");\r": 1506,
      "ok ": 1507,
      "Loc": 1508,
      "OS": 1509,
      "cal": 1510,
      "1.": 1511,
      "ici": 1512,
      "string ": 1513,
      "<< \"": 1514,
      "amil": 1515,
      "grou": 1516,
      "_F": 1517,
      "water ": 1518,
      ") {\n  ": 1519,
      "24": 1520,
      "}\n        ": 1521,
      "IL": 1522,
      "AC": 1523,
      "es the ": 1524,
      "thre": 1525,
      "Coun": 1526,
      "conn": 1527,
      "EQ": 1528,
      "lim": 1529,
      "tra": 1530,
      "tional ": 1531,
      "UN": 1532,
      "wid": 1533,
      "ject ": 1534,
      "new": 1535,
      "bi": 1536,
      "ish ": 1537,
      "hum": 1538,
      "ask": 1539,
      "a.</w>": 1540,
      "error": 1541,
      ",\n    ": 1542,
      "ca": 1543,
      "to be ": 1544,
      "fig": 1545,
      "c_": 1546,
      "ibut": 1547,
      "EXPECT_": 1548,
      "dou": 1549,
      "ond": 1550,
      "coll": 1551,
      "viron": 1552,
      "ress": 1553,
      "cop": 1554,
      "it is ": 1555,
      "size_": 1556,
      "ning ": 1557,
      "Sp": 1558,
      "\n * ": 1559,
      "f, ": 1560,
      "begin": 1561,
      "es in ": 1562,
      "ome": 1563,
      "low ": 1564,
      "s for ": 1565,
      "ity of ": 1566,
      "contin": 1567,
      "Tim": 1568,
      "ult ": 1569,
      "Cl": 1570,
      "those ": 1571,
      "get ": 1572,
      "nor": 1573,
      "5 ": 1574,
      "prot": 1575,
      "met": 1576,
      "US": 1577,
      "arm": 1578,
      "meth": 1579,
      "Index": 1580,
      "ide": 1581,
      " *": 1582,
      "ep ": 1583,
      "direc": 1584,
      "number ": 1585,
      "gu": 1586,
      "mul": 1587,
      "block": 1588,
      "null": 1589,
      "s of the ": 1590,
      "ving ": 1591,
      "ited ": 1592,
      "Pl": 1593,
      "ros": 1594,
      "public ": 1595,
      "node": 1596,
      "reduc": 1597,
      "bel": 1598,
      "3 ": 1599,
      "ustr": 1600,
      "max": 1601,
      "even ": 1602,
      "mp": 1603,
      "static ": 1604,
      "run": 1605,
      "].": 1606,
      "Cre": 1607,
      "sour": 1608,
      "econom": 1609,
      "because ": 1610,
      ", \"": 1611,
      "after ": 1612,
      "sin": 1613,
      "ific": 1614,
      "ual": 1615,
      "fa": 1616,
      "..": 1617,
      "well ": 1618,
      "mu": 1619,
      "appro": 1620,
      "ist ": 1621,
      "fol": 1622,
      "Bo": 1623,
      "itt": 1624,
      "atur": 1625,
      "eg": 1626,
      "Info": 1627,
      "Wi": 1628,
      "them": 1629,
      "pop": 1630,
      "())": 1631,
      "cc": 1632,
      "}\n  ": 1633,
      "clo": 1634,
      "es are ": 1635,
      "mark": 1636,
      "Mod": 1637,
      " of ": 1638,
      ");\n\n  ": 1639,
      "}\n\n    ": 1640,
      "ain ": 1641,
      "{ ": 1642,
      "partic": 1643,
      "Ver": 1644,
      "ine": 1645,
      "E(": 1646,
      "ins": 1647,
      "action": 1648,
      "We ": 1649,
      "form ": 1650,
      "famil": 1651,
      "per ": 1652,
      "list": 1653,
      "servic": 1654,
      "state ": 1655,
      "then ": 1656,
      "ue ": 1657,
      "ble": 1658,
      "NO": 1659,
      "er.</w>": 1660,
      "organ": 1661,
      "different ": 1662,
      "push": 1663,
      "return": 1664,
      "atch": 1665,
      "ular ": 1666,
      "ASS": 1667,
      "devic": 1668,
      "if(": 1669,
      "system ": 1670,
      "allet": 1671,
      "ven": 1672,
      "Param": 1673,
      "key": 1674,
      "istr": 1675,
      "s = ": 1676,
      "act ": 1677,
      "sist": 1678,
      "iqu": 1679,
      "For ": 1680,
      "line ": 1681,
      "100": 1682,
      "DE": 1683,
      "start": 1684,
      "[i": 1685,
      "igh ": 1686,
      "|| ": 1687,
      "0; ": 1688,
      "health ": 1689,
      "while ": 1690,
      "pi": 1691,
      "requi": 1692,
      "er_": 1693,
      "important ": 1694,
      "probl": 1695,
      "information ": 1696,
      "inf": 1697,
      "led": 1698,
      "ful ": 1699,
      "ick": 1700,
      "yt": 1701,
      "Object": 1702,
      "Node": 1703,
      "sci": 1704,
      "grow": 1705,
      "ually ": 1706,
      "ection ": 1707,
      "ip ": 1708,
      "under ": 1709,
      "old ": 1710,
      "anti": 1711,
      "_C": 1712,
      "ts ": 1713,
      "being ": 1714,
      "Ser": 1715,
      "unsign": 1716,
      "intern": 1717,
      "less ": 1718,
      "pati": 1719,
      "aw": 1720,
      "must ": 1721,
      "g ": 1722,
      "ence": 1723,
      "need": 1724,
      "cas": 1725,
      "play": 1726,
      "vector<": 1727,
      "ret": 1728,
      "increas": 1729,
      "Fl": 1730,
      "Hand": 1731,
      "sim": 1732,
      "ed a ": 1733,
      "divid": 1734,
      "AD": 1735,
      "es that ": 1736,
      "based ": 1737,
      "fre": 1738,
      "\", \"": 1739,
      "ui": 1740,
      "can": 1741,
      "ution": 1742,
      ",0x": 1743,
      "just ": 1744,
      "ast<": 1745,
      "Pr": 1746,
      "g_": 1747,
      "dem": 1748,
      "befor": 1749,
      "input": 1750,
      "ice ": 1751,
      "Arg": 1752,
      "print": 1753,
      " (": 1754,
      "right ": 1755,
      "p_": 1756,
      "land": 1757,
      "environ": 1758,
      "->Get": 1759,
      "non": 1760,
      "UR": 1761,
      "bil": 1762,
      ";\n      ": 1763,
      "both ": 1764,
      "Or": 1765,
      "Error": 1766,
      "ed by the ": 1767,
      "ity.</w>": 1768,
      "Co": 1769,
      "set ": 1770,
      "giv": 1771,
      "_P": 1772,
      "graph": 1773,
      "Ev": 1774,
      "as the ": 1775,
      "er::": 1776,
      ".S": 1777,
      "11": 1778,
      "with a ": 1779,
      "doc": 1780,
      "ength": 1781,
      "so": 1782,
      "other": 1783,
      "ax": 1784,
      "found ": 1785,
      "much ": 1786,
      "2, ": 1787,
      "aff": 1788,
      "23": 1789,
      "lion ": 1790,
      "path": 1791,
      "ected ": 1792,
      "Value": 1793,
      "defin": 1794,
      "er to ": 1795,
      "net": 1796,
      "ings ": 1797,
      "ity, ": 1798,
      "ting ": 1799,
      "IC": 1800,
      "Pre": 1801,
      "cell": 1802,
      "ument": 1803,
      ";\n\n    ": 1804,
      "condi": 1805,
      "else": 1806,
      "\" << ": 1807,
      "buffer": 1808,
      "MP": 1809,
      "compl": 1810,
      "nullptr": 1811,
      "\r\n        ": 1812,
      "stream": 1813,
      "Man": 1814,
      "same ": 1815,
      "ive ": 1816,
      "ext ": 1817,
      "ECK": 1818,
      "ature": 1819,
      "000 ": 1820,
      "[0": 1821,
      "value": 1822,
      "ank": 1823,
      "\n\t\t\t\t": 1824,
      "raw": 1825,
      "CHECK": 1826,
      "issu": 1827,
      "Wor": 1828,
      "ode ": 1829,
      "impl": 1830,
      "hy": 1831,
      "get_": 1832,
      "Comm": 1833,
      "students ": 1834,
      "D ": 1835,
      "has been ": 1836,
      "rom": 1837,
      "technolog": 1838,
      "dif": 1839,
      "sw": 1840,
      "ved ": 1841,
      "will be ": 1842,
      "Size": 1843,
      "indow": 1844,
      "text": 1845,
      "_cast<": 1846,
      "fail": 1847,
      "high ": 1848,
      "El": 1849,
      "{\n            ": 1850,
      "have been ": 1851,
      "MA": 1852,
      "sive ": 1853,
      "cent ": 1854,
      "cour": 1855,
      "right": 1856,
      "air": 1857,
      "possi": 1858,
      "children ": 1859,
      "research ": 1860,
      "es.": 1861,
      "gy ": 1862,
      "gen": 1863,
      "namesp": 1864,
      "Out": 1865,
      "class ": 1866,
      "back(": 1867,
      "eter": 1868,
      "_T": 1869,
      "type ": 1870,
      "lab": 1871,
      "by the ": 1872,
      "ential ": 1873,
      "{\n    ": 1874,
      "vol": 1875,
      "Int": 1876,
      "ING": 1877,
      "ge": 1878,
      "Key": 1879,
      "ie": 1880,
      "unsigned ": 1881,
      "50": 1882,
      "Num": 1883,
      "view": 1884,
      "proper": 1885,
      "No": 1886,
      "List": 1887,
      "put ": 1888,
      "ry": 1889,
      "\r\n    ": 1890,
      "day": 1891,
      "e of the ": 1892,
      "number of ": 1893,
      "om ": 1894,
      "udi": 1895,
      "aut": 1896,
      ");\n\t\t": 1897,
      "2.": 1898,
      "Typ": 1899,
      "ation and ": 1900,
      "ty ": 1901,
      ",   ": 1902,
      "();\n    ": 1903,
      "def ": 1904,
      "e() ": 1905,
      "IG": 1906,
      "27": 1907,
      "her": 1908,
      "ded": 1909,
      "28": 1910,
      "t, ": 1911,
      "Dev": 1912,
      "identi": 1913,
      "At": 1914,
      "rece": 1915,
      ".h\"\n#include \"": 1916,
      "mater": 1917,
      "(c": 1918,
      "build": 1919,
      "ator ": 1920,
      "world": 1921,
      "tri": 1922,
      "ently ": 1923,
      "set_": 1924,
      "v_": 1925,
      "impro": 1926,
      "ly": 1927,
      "more than ": 1928,
      "long": 1929,
      "()->": 1930,
      "Lo": 1931,
      "ectr": 1932,
      "cle": 1933,
      "Se": 1934,
      ")\n{\n    ": 1935,
      "4 ": 1936,
      "wom": 1937,
      "What ": 1938,
      "top": 1939,
      "\\\"": 1940,
      "bor": 1941,
      "comput": 1942,
      "6 ": 1943,
      "s a ": 1944,
      "ativ": 1945,
      "often ": 1946,
      "OF": 1947,
      "some": 1948,
      "(&": 1949,
      "Inter": 1950,
      "Trans": 1951,
      "sr": 1952,
      "government ": 1953,
      "tribut": 1954,
      "ether ": 1955,
      "anal": 1956,
      "al_": 1957,
      "          ": 1958,
      "activ": 1959,
      "EQ(": 1960,
      "ign ": 1961,
      "U.S": 1962,
      "sl": 1963,
      "} else ": 1964,
      "ename ": 1965,
      ";\n\t\t": 1966,
      ", which ": 1967,
      "loy": 1968,
      "re ": 1969,
      "ind ": 1970,
      "29": 1971,
      "roll": 1972,
      "1., ": 1973,
      "ST": 1974,
      "ace": 1975,
      "0)": 1976,
      "ric": 1977,
      "push_": 1978,
      "name": 1979,
      "t_": 1980,
      "ory": 1981,
      "process": 1982,
      "((": 1983,
      "prac": 1984,
      "Map": 1985,
      "ed and ": 1986,
      "BO": 1987,
      "Nam": 1988,
      "ref": 1989,
      "ner": 1990,
      "ture": 1991,
      "uro": 1992,
      "info": 1993,
      "ivers": 1994,
      "chem": 1995,
      "able to ": 1996,
      "this->": 1997,
      "object": 1998,
      "ing of ": 1999,
      "treat": 2000,
      ", but ": 2001,
      "expl": 2002,
      "Dec": 2003,
      "     ": 2004,
      "IP": 2005,
      "pur": 2006,
      "33": 2007,
      "ASSER": 2008,
      "cover": 2009,
      "present": 2010,
      "angu": 2011,
      "war": 2012,
      "manag": 2013,
      "gg": 2014,
      "orig": 2015,
      "Di": 2016,
      "boost": 2017,
      "arch": 2018,
      "don": 2019,
      "+= ": 2020,
      "i = ": 2021,
      "qual": 2022,
      "teach": 2023,
      ">\n#include <": 2024,
      "ian ": 2025,
      "Block": 2026,
      ", a ": 2027,
      "obj": 2028,
      "         ": 2029,
      "ix": 2030,
      "spe": 2031,
      "distr": 2032,
      "}\n\n  ": 2033,
      "art ": 2034,
      "state": 2035,
      "T(": 2036,
      "known ": 2037,
      "reas": 2038,
      "use of ": 2039,
      "C ": 2040,
      "fic": 2041,
      "namespace ": 2042,
      "around ": 2043,
      "Off": 2044,
      "AG": 2045,
      "saf": 2046,
      "ink": 2047,
      "thing ": 2048,
      "meas": 2049,
      "Bas": 2050,
      "flu": 2051,
      "lat": 2052,
      "Buffer": 2053,
      "s in the ": 2054,
      "AB": 2055,
      "eth": 2056,
      "There ": 2057,
      "y to ": 2058,
      "mess": 2059,
      "sever": 2060,
      "prev": 2061,
      "health": 2062,
      "arget": 2063,
      "Rec": 2064,
      "long ": 2065,
      "bit": 2066,
      "made ": 2067,
      "When ": 2068,
      "ise ": 2069,
      "Func": 2070,
      "/* ": 2071,
      "They ": 2072,
      "Dis": 2073,
      "is_": 2074,
      "dri": 2075,
      "maj": 2076,
      "sha": 2077,
      "Text": 2078,
      "dist": 2079,
      "ern ": 2080,
      "s (": 2081,
      "ability ": 2082,
      "find": 2083,
      "size_t ": 2084,
      "thor": 2085,
      "8 ": 2086,
      "AP": 2087,
      "initi": 2088,
      "natur": 2089,
      "ERR": 2090,
      "typename ": 2091,
      "individ": 2092,
      "person": 2093,
      "allow": 2094,
      "adv": 2095,
      "ment of ": 2096,
      "acter": 2097,
      "ture ": 2098,
      "But ": 2099,
      "including ": 2100,
      "inc": 2101,
      "Log": 2102,
      "local ": 2103,
      "ton": 2104,
      "experi": 2105,
      "main": 2106,
      "word": 2107,
      "std::vector<": 2108,
      "help": 2109,
      "ed for ": 2110,
      "Array": 2111,
      "is not ": 2112,
      "30": 2113,
      "school ": 2114,
      "_ ": 2115,
      "priv": 2116,
      "sit": 2117,
      "These ": 2118,
      "back ": 2119,
      "press": 2120,
      "LE": 2121,
      "follow": 2122,
      "descri": 2123,
      "26": 2124,
      "dom": 2125,
      "depend": 2126,
      "34": 2127,
      "2., ": 2128,
      "again": 2129,
      "second": 2130,
      "provide ": 2131,
      "now ": 2132,
      "without ": 2133,
      "ary": 2134,
      "0.0": 2135,
      "stem": 2136,
      "multi": 2137,
      "row ": 2138,
      "design": 2139,
      ");\n\n        ": 2140,
      "tion, ": 2141,
      "care ": 2142,
      "Name": 2143,
      "check": 2144,
      "             ": 2145,
      "pass": 2146,
      "human ": 2147,
      "% ": 2148,
      ".\n": 2149,
      "itor": 2150,
      "ship ": 2151,
      "U.S. ": 2152,
      "norm": 2153,
      "polic": 2154,
      "specif": 2155,
      ") {\n      ": 2156,
      "pot": 2157,
      "File": 2158,
      "event": 2159,
      "phys": 2160,
      "glob": 2161,
      "eral ": 2162,
      "ature ": 2163,
      "ency ": 2164,
      "problem": 2165,
      "group": 2166,
      "serv": 2167,
      "class": 2168,
      "method": 2169,
      "electr": 2170,
      "popul": 2171,
      "OP": 2172,
      "float": 2173,
      "aim": 2174,
      "bin": 2175,
      "80": 2176,
      "array": 2177,
      "37": 2178,
      "<<": 2179,
      "Des": 2180,
      "amoun": 2181,
      "tal": 2182,
      "TES": 2183,
      "ource": 2184,
      "mean": 2185,
      "context": 2186,
      "Per": 2187,
      "school": 2188,
      "item": 2189,
      "output": 2190,
      "           ": 2191,
      "icen": 2192,
      "environment": 2193,
      "American ": 2194,
      "United ": 2195,
      "mus": 2196,
      "ties ": 2197,
      "day ": 2198,
      "as well ": 2199,
      "Ph": 2200,
      "\n   ": 2201,
      "ms": 2202,
      "hear": 2203,
      "does ": 2204,
      "arly ": 2205,
      "land ": 2206,
      "std::string ": 2207,
      "deter": 2208,
      "imp": 2209,
      "Vector": 2210,
      "oci": 2211,
      "owever": 2212,
      "Mem": 2213,
      "of a ": 2214,
      "take ": 2215,
      "();\n  ": 2216,
      "als ": 2217,
      "ital ": 2218,
      "al, ": 2219,
      "push_back(": 2220,
      "ted ": 2221,
      "need to ": 2222,
      "ities ": 2223,
      "ender": 2224,
      "study ": 2225,
      "since ": 2226,
      "ore": 2227,
      "lay": 2228,
      "jo": 2229,
      "into the ": 2230,
      "son ": 2231,
      "wallet": 2232,
      "ective ": 2233,
      "histor": 2234,
      "ide ": 2235,
      "load": 2236,
      "_M": 2237,
      "{\n\t\t": 2238,
      "Vi": 2239,
      "ship": 2240,
      "every ": 2241,
      "sym": 2242,
      "bene": 2243,
      "sing": 2244,
      "succ": 2245,
      "bus": 2246,
      "code": 2247,
      "langu": 2248,
      "35": 2249,
      "imag": 2250,
      "scal": 2251,
      "defa": 2252,
      "contain": 2253,
      "cept": 2254,
      "year ": 2255,
      "ern": 2256,
      "public": 2257,
      "templ": 2258,
      "ed(": 2259,
      "blo": 2260,
      "/*": 2261,
      "ock": 2262,
      "tion.</w>": 2263,
      "BU": 2264,
      "to_": 2265,
      "Mar": 2266,
      "percent ": 2267,
      "void": 2268,
      "lik": 2269,
      "field": 2270,
      "Ptr": 2271,
      "ress ": 2272,
      "Nor": 2273,
      "dic": 2274,
      "static": 2275,
      "s, the ": 2276,
      "anci": 2277,
      "may be ": 2278,
      "diff": 2279,
      "report": 2280,
      "Manag": 2281,
      ">::": 2282,
      "endif": 2283,
      "ION": 2284,
      "Inst": 2285,
      "ed in the ": 2286,
      "return false": 2287,
      "exist": 2288,
      "rol ": 2289,
      "\",": 2290,
      "60": 2291,
      "It is ": 2292,
      "};\n": 2293,
      "ek": 2294,
      "e, and ": 2295,
      "foc": 2296,
      "said ": 2297,
      "medi": 2298,
      "We": 2299,
      "90": 2300,
      "ump": 2301,
      "Mess": 2302,
      "plan": 2303,
      "VER": 2304,
      "small ": 2305,
      "for a ": 2306,
      "show": 2307,
      "To ": 2308,
      "know": 2309,
      "Min": 2310,
      "65": 2311,
      "e is ": 2312,
      "Cur": 2313,
      "er and ": 2314,
      "(*": 2315,
      "years ": 2316,
      "sert(": 2317,
      "std::string": 2318,
      "SC_": 2319,
      "40": 2320,
      "syn": 2321,
      "Writ": 2322,
      "before ": 2323,
      "request": 2324,
      "Create": 2325,
      "soci": 2326,
      "till ": 2327,
      "ed with ": 2328,
      "n't ": 2329,
      "SE": 2330,
      "am ": 2331,
      "en, ": 2332,
      "ond ": 2333,
      "three ": 2334,
      "action ": 2335,
      "against ": 2336,
      "one of the ": 2337,
      "Acc": 2338,
      "ho": 2339,
      "ger": 2340,
      "used to ": 2341,
      "70": 2342,
      "tain ": 2343,
      "prim": 2344,
      "origin": 2345,
      "though ": 2346,
      "-1": 2347,
      "ate the ": 2348,
      "ule": 2349,
      "sum": 2350,
      "New ": 2351,
      ", &": 2352,
      "fund": 2353,
      "0000": 2354,
      "Be": 2355,
      "come ": 2356,
      "ism ": 2357,
      "ution ": 2358,
      "New": 2359,
      "af": 2360,
      "ply ": 2361,
      "hom": 2362,
      "food ": 2363,
      "(); ": 2364,
      "Table": 2365,
      "social ": 2366,
      "addi": 2367,
      "ers, ": 2368,
      "Regist": 2369,
      "pat": 2370,
      "ati": 2371,
      "ild": 2372,
      "tor ": 2373,
      "support ": 2374,
      "cam": 2375,
      "boost::": 2376,
      "flag": 2377,
      "Call": 2378,
      "energy ": 2379,
      "YP": 2380,
      "sam": 2381,
      "applic": 2382,
      "employ": 2383,
      "Input": 2384,
      "x_": 2385,
      "last ": 2386,
      "Fe": 2387,
      "poli": 2388,
      "on a ": 2389,
      "double ": 2390,
      "uint32": 2391,
      "FF": 2392,
      "Oper": 2393,
      "model": 2394,
      "tex": 2395,
      "ourc": 2396,
      "define ": 2397,
      "ves ": 2398,
      "log": 2399,
      "good ": 2400,
      "te ": 2401,
      "Requ": 2402,
      "key ": 2403,
      "anim": 2404,
      "ice": 2405,
      "know ": 2406,
      "(p": 2407,
      "char ": 2408,
      "early ": 2409,
      "ession": 2410,
      "ield": 2411,
      "continu": 2412,
      "Y ": 2413,
      "ers.</w>": 2414,
      "any": 2415,
      "file": 2416,
      "Euro": 2417,
      "forc": 2418,
      "Context": 2419,
      "centur": 2420,
      "imm": 2421,
      "sor": 2422,
      "practic": 2423,
      "oftw": 2424,
      "Point": 2425,
      "es, and ": 2426,
      "nes": 2427,
      "invol": 2428,
      "still ": 2429,
      "),": 2430,
      "signific": 2431,
      "detail": 2432,
      "sen": 2433,
      "sequ": 2434,
      "common ": 2435,
      "prof": 2436,
      "organiz": 2437,
      "ali": 2438,
      "large ": 2439,
      "see ": 2440,
      "38": 2441,
      "world ": 2442,
      "util": 2443,
      "67": 2444,
      "canc": 2445,
      "million ": 2446,
      "->set": 2447,
      "? ": 2448,
      ").": 2449,
      "sider": 2450,
      "Val": 2451,
      "mor": 2452,
      "power ": 2453,
      "ures": 2454,
      "find ": 2455,
      "97": 2456,
      "expect": 2457,
      "s or ": 2458,
      "ism": 2459,
      "Qu": 2460,
      "Mat": 2461,
      "ft ": 2462,
      "              ": 2463,
      "CL": 2464,
      "lock ": 2465,
      "d_": 2466,
      "avail": 2467,
      "ge ": 2468,
      "first": 2469,
      "become ": 2470,
      "might ": 2471,
      "plant": 2472,
      "current ": 2473,
      "bro": 2474,
      "Cent": 2475,
      "risk ": 2476,
      "s with ": 2477,
      "ogn": 2478,
      "IM": 2479,
      "ension": 2480,
      "rap": 2481,
      "try": 2482,
      "construc": 2483,
      "OR ": 2484,
      "Gener": 2485,
      "nec": 2486,
      "option": 2487,
      "alloc": 2488,
      "a's ": 2489,
      "about the ": 2490,
      "s were ": 2491,
      "dy": 2492,
      "b ": 2493,
      "i < ": 2494,
      "factor": 2495,
      "\r\n\t": 2496,
      "Flag": 2497,
      "Item": 2498,
      ",000 ": 2499,
      "ques": 2500,
      "time": 2501,
      "have a ": 2502,
      "1]": 2503,
      "OD": 2504,
      "ry ": 2505,
      "_N": 2506,
      "Sub": 2507,
      "industr": 2508,
      "down ": 2509,
      "\");\n    ": 2510,
      "In the ": 2511,
      "lead": 2512,
      "regul": 2513,
      "10 ": 2514,
      "ically ": 2515,
      "support": 2516,
      "95": 2517,
      "IR": 2518,
      "life ": 2519,
      "Cop": 2520,
      "current": 2521,
      "it's ": 2522,
      "part ": 2523,
      "of(": 2524,
      "student": 2525,
      "studi": 2526,
      "cu": 2527,
      "},": 2528,
      "perform": 2529,
      "research": 2530,
      "ies.</w>": 2531,
      "body ": 2532,
      "function": 2533,
      "gh": 2534,
      "ont": 2535,
      "ed to the ": 2536,
      "is to ": 2537,
      "ly, ": 2538,
      "Event": 2539,
      "ensor": 2540,
      "benef": 2541,
      "Chin": 2542,
      "45": 2543,
      "law": 2544,
      "du": 2545,
      "place ": 2546,
      "EL": 2547,
      "pay": 2548,
      "los": 2549,
      "dest": 2550,
      "Pol": 2551,
      "shap": 2552,
      "byt": 2553,
      "From": 2554,
      "consider": 2555,
      "SC_(": 2556,
      "*)": 2557,
      "es a ": 2558,
      "Mo": 2559,
      "ateg": 2560,
      "Up": 2561,
      "db": 2562,
      "self": 2563,
      "example": 2564,
      "ll": 2565,
      " to ": 2566,
      "bur": 2567,
      "INT": 2568,
      "Stream": 2569,
      "Le": 2570,
      "use": 2571,
      "State": 2572,
      "fut": 2573,
      "non-": 2574,
      "create ": 2575,
      ", S": 2576,
      "order": 2577,
      "());\n  ": 2578,
      "How ": 2579,
      "agn": 2580,
      "ations.</w>": 2581,
      "offic": 2582,
      "indic": 2583,
      "ing_": 2584,
      "88": 2585,
      "Window": 2586,
      "ing in ": 2587,
      "               ": 2588,
      "ed that ": 2589,
      "ily ": 2590,
      "let": 2591,
      "point ": 2592,
      "owever, ": 2593,
      "As ": 2594,
      "erg": 2595,
      "exper": 2596,
      "natural ": 2597,
      "IF": 2598,
      "{\n      ": 2599,
      "ety ": 2600,
      "hal": 2601,
      "rele": 2602,
      "());\n    ": 2603,
      "System": 2604,
      "= 0": 2605,
      "3., ": 2606,
      "s/": 2607,
      "buf": 2608,
      "complet": 2609,
      "s: ": 2610,
      "_D": 2611,
      "light": 2612,
      ";\n\n  ": 2613,
      "*/\n": 2614,
      "vely ": 2615,
      "control ": 2616,
      "_id": 2617,
      "00 ": 2618,
      "they are ": 2619,
      ".\n  ": 2620,
      "default": 2621,
      "EXPECT_EQ(": 2622,
      "uniqu": 2623,
      "centr": 2624,
      "among ": 2625,
      "to a ": 2626,
      "should be ": 2627,
      "PRO": 2628,
      "ological ": 2629,
      "region": 2630,
      "appe": 2631,
      "Wid": 2632,
      "\n *": 2633,
      "e, the ": 2634,
      "surfac": 2635,
      "sett": 2636,
      "beg": 2637,
      "caus": 2638,
      "Can": 2639,
      "36": 2640,
      "ought ": 2641,
      "CP": 2642,
      "color": 2643,
      "dro": 2644,
      ") == ": 2645,
      "main ": 2646,
      "address": 2647,
      "cy": 2648,
      "return true": 2649,
      ", or ": 2650,
      "associ": 2651,
      "material": 2652,
      "it.</w>": 2653,
      "given ": 2654,
      "effect": 2655,
      "economic ": 2656,
      "her ": 2657,
      "parent": 2658,
      "bar": 2659,
      "as well as ": 2660,
      "eld ": 2661,
      ".Get": 2662,
      "dim": 2663,
      "Am": 2664,
      "dig": 2665,
      "ation of the ": 2666,
      "Proc": 2667,
      "fur": 2668,
      "\t\t\t\t\t": 2669,
      "TRU": 2670,
      "He ": 2671,
      ";\r\n": 2672,
      "during ": 2673,
      "great": 2674,
      "Univers": 2675,
      "(1": 2676,
      "47": 2677,
      "[0]": 2678,
      "Licen": 2679,
      "author": 2680,
      "Color": 2681,
      "likely ": 2682,
      "National ": 2683,
      "ox": 2684,
      "scienti": 2685,
      "Lay": 2686,
      "several ": 2687,
      "));\n    ": 2688,
      "train": 2689,
      "better ": 2690,
      "}\n}\n\n": 2691,
      "48": 2692,
      "tod": 2693,
      "ious ": 2694,
      "length": 2695,
      "arti": 2696,
      "OST_": 2697,
      "found": 2698,
      "open": 2699,
      "not": 2700,
      "conver": 2701,
      "az": 2702,
      "With": 2703,
      "well": 2704,
      "ederal ": 2705,
      "cript": 2706,
      "ity and ": 2707,
      "establ": 2708,
      "hash": 2709,
      "disc": 2710,
      "Check": 2711,
      "read ": 2712,
      "condition": 2713,
      "cost": 2714,
      "ately ": 2715,
      "s' ": 2716,
      "Ap": 2717,
      "project": 2718,
      "PC": 2719,
      "aver": 2720,
      "number": 2721,
      "under the ": 2722,
      "ASSERT_": 2723,
      ":\n        ": 2724,
      "S_": 2725,
      "excep": 2726,
      "specific ": 2727,
      "require": 2728,
      "tradi": 2729,
      "has": 2730,
      "busin": 2731,
      "Med": 2732,
      "x, ": 2733,
      "s) ": 2734,
      "Handle": 2735,
      "es_": 2736,
      "accord": 2737,
      "ision": 2738,
      "();\n        ": 2739,
      "ition": 2740,
      "grad": 2741,
      "config": 2742,
      "increase ": 2743,
      "file ": 2744,
      "Ed": 2745,
      "i = 0; ": 2746,
      "}\r\n": 2747,
      "whether ": 2748,
      "Y_": 2749,
      "\n{\n    ": 2750,
      "expr": 2751,
      "scri": 2752,
      "Function": 2753,
      "); ": 2754,
      "mut": 2755,
      "Read": 2756,
      "cat": 2757,
      "ori": 2758,
      "3, ": 2759,
      "thread": 2760,
      "a and ": 2761,
      ")\n            ": 2762,
      "acros": 2763,
      "Ref": 2764,
      "s on ": 2765,
      "ment.</w>": 2766,
      ".\n    ": 2767,
      "women ": 2768,
      "tural ": 2769,
      "home ": 2770,
      "L ": 2771,
      "major ": 2772,
      "receiv": 2773,
      "ve the ": 2774,
      "BOOST_": 2775,
      "Indi": 2776,
      "ready ": 2777,
      "t the ": 2778,
      "Ret": 2779,
      "man ": 2780,
      "eck ": 2781,
      "98": 2782,
      "static_cast<": 2783,
      "ally, ": 2784,
      "Ab": 2785,
      "JS": 2786,
      "fu": 2787,
      "called ": 2788,
      "dam": 2789,
      "es for ": 2790,
      "hou": 2791,
      "[i]": 2792,
      "s from ": 2793,
      "learn ": 2794,
      "is an ": 2795,
      "look": 2796,
      "necess": 2797,
      "ence of ": 2798,
      "iev": 2799,
      "secur": 2800,
      "one": 2801,
      "limit": 2802,
      "communic": 2803,
      "You": 2804,
      "possible ": 2805,
      "float ": 2806,
      "Time": 2807,
      "empty": 2808,
      "change ": 2809,
      "fric": 2810,
      "Type ": 2811,
      "Result": 2812,
      "(S": 2813,
      "io": 2814,
      "Bit": 2815,
      "size() ": 2816,
      "ire ": 2817,
      "ink ": 2818,
      "Copy": 2819,
      "75": 2820,
      "vm": 2821,
      ", const ": 2822,
      "bal": 2823,
      "Gre": 2824,
      "havi": 2825,
      "ength ": 2826,
      "temper": 2827,
      "view ": 2828,
      "present ": 2829,
      "_type": 2830,
      "CON": 2831,
      "addr": 2832,
      "step": 2833,
      "resourc": 2834,
      "ever ": 2835,
      "air ": 2836,
      "program ": 2837,
      "Intern": 2838,
      "Del": 2839,
      "say": 2840,
      "View": 2841,
      "bir": 2842,
      "few ": 2843,
      "cir": 2844,
      "concer": 2845,
      "}\n\n        ": 2846,
      "youn": 2847,
      "underst": 2848,
      "Jo": 2849,
      "blood ": 2850,
      "higher ": 2851,
      "X_": 2852,
      "best ": 2853,
      "area ": 2854,
      "refer": 2855,
      "en.</w>": 2856,
      "sizeof(": 2857,
      "source ": 2858,
      "And ": 2859,
      "history ": 2860,
      "int32": 2861,
      "child ": 2862,
      "appl": 2863,
      "s->": 2864,
      "clear": 2865,
      "skill": 2866,
      "flow": 2867,
      "care": 2868,
      "diseas": 2869,
      "measure": 2870,
      "great ": 2871,
      "did ": 2872,
      "status": 2873,
      "Engl": 2874,
      "last": 2875,
      "valid": 2876,
      "emo": 2877,
      ");\n\t\t\t": 2878,
      "), SC_(": 2879,
      "  // ": 2880,
      "Path": 2881,
      "ers and ": 2882,
      "It": 2883,
      ",    ": 2884,
      "c_str": 2885,
      "occur": 2886,
      "over the ": 2887,
      "TION": 2888,
      "op ": 2889,
      "law ": 2890,
      "-- ": 2891,
      "(C": 2892,
      "idd": 2893,
      "68": 2894,
      "in 19": 2895,
      "ers to ": 2896,
      ".hpp": 2897,
      "UT": 2898,
      "i = 0; i < ": 2899,
      "\n            \"": 2900,
      "ero": 2901,
      ".0": 2902,
      "through the ": 2903,
      "er(": 2904,
      "acti": 2905,
      "Defin": 2906,
      "big": 2907,
      "another ": 2908,
      "tract": 2909,
      "drug": 2910,
      "tot": 2911,
      "ither ": 2912,
      "tool": 2913,
      "Hel": 2914,
      "ying ": 2915,
      "effici": 2916,
      "pack": 2917,
      "ate_": 2918,
      "tain": 2919,
      "md": 2920,
      "\r\n\t\t": 2921,
      ">>": 2922,
      "during the ": 2923,
      "Rel": 2924,
      "ere": 2925,
      "til ": 2926,
      "alleng": 2927,
      "exec": 2928,
      "Element": 2929,
      "esh": 2930,
      "9 ": 2931,
      "Max": 2932,
      "estim": 2933,
      "ements ": 2934,
      "ron": 2935,
      "ental ": 2936,
      "hol": 2937,
      "target": 2938,
      "src": 2939,
      "ET": 2940,
      "ies, ": 2941,
      "ath ": 2942,
      "knowled": 2943,
      "ort ": 2944,
      "cle ": 2945,
      "EM": 2946,
      "____": 2947,
      "stit": 2948,
      "abo": 2949,
      "-1,": 2950,
      "umn": 2951,
      "maint": 2952,
      ";\n    }\n    ": 2953,
      "ializ": 2954,
      "(i": 2955,
      "child": 2956,
      "Us": 2957,
      "}\n\t": 2958,
      "::S": 2959,
      "medical ": 2960,
      "Europe": 2961,
      ");\n}\n\nvoid ": 2962,
      "WAR": 2963,
      "sem": 2964,
      "how to ": 2965,
      "sal": 2966,
      "PP": 2967,
      "ak ": 2968,
      "Heal": 2969,
      "down": 2970,
      "cli": 2971,
      "learn": 2972,
      "ied ": 2973,
      "atic": 2974,
      "group ": 2975,
      "Lab": 2976,
      "Code": 2977,
      "understand": 2978,
      "scop": 2979,
      "would be ": 2980,
      "outh ": 2981,
      ">\n": 2982,
      "areas ": 2983,
      "s to the ": 2984,
      "State ": 2985,
      "sz": 2986,
      "Ro": 2987,
      "D_": 2988,
      "mission ": 2989,
      "ERROR": 2990,
      "rate ": 2991,
      "acces": 2992,
      "bol": 2993,
      "ttp": 2994,
      "Afric": 2995,
      "ople": 2996,
      "ake ": 2997,
      "head": 2998,
      "94": 2999,
      "ages ": 3000,
      "draw": 3001,
      "discus": 3002,
      "book": 3003,
      "sch": 3004,
      "character": 3005,
      "tog": 3006,
      "Proper": 3007,
      "TEST_": 3008,
      "side ": 3009,
      "imin": 3010,
      "shared": 3011,
      "there": 3012,
      "test ": 3013,
      "Request": 3014,
      "er = ": 3015,
      "Class": 3016,
      "hold": 3017,
      "comple": 3018,
      "s have ": 3019,
      "rul": 3020,
      "_.": 3021,
      ":\n    ": 3022,
      "that is ": 3023,
      "connect": 3024,
      "various ": 3025,
      "already ": 3026,
      "light ": 3027,
      "times ": 3028,
      "Servic": 3029,
      "Tx": 3030,
      "ate(": 3031,
      "ially ": 3032,
      "mic": 3033,
      ") + ": 3034,
      "i++": 3035,
      "22": 3036,
      "er of ": 3037,
      "96": 3038,
      "ga": 3039,
      "global ": 3040,
      "challeng": 3041,
      "_ptr": 3042,
      ", and the ": 3043,
      "radi": 3044,
      "happ": 3045,
      "double": 3046,
      "parti": 3047,
      "portun": 3048,
      "wa": 3049,
      "bool": 3050,
      "value ": 3051,
      "that": 3052,
      "it was ": 3053,
      "success": 3054,
      "particip": 3055,
      "Ge": 3056,
      "_H": 3057,
      "igr": 3058,
      "ease ": 3059,
      "pap": 3060,
      "medic": 3061,
      "analys": 3062,
      "liv": 3063,
      "him": 3064,
      "date": 3065,
      "swit": 3066,
      "gres": 3067,
      "Offset": 3068,
      "element": 3069,
      "Message": 3070,
      "record": 3071,
      "process ": 3072,
      "all the ": 3073,
      "ot ": 3074,
      "spac": 3075,
      ";\n\n        ": 3076,
      "least ": 3077,
      "Met": 3078,
      "Sel": 3079,
      "Ne": 3080,
      ");\n\n\t": 3081,
      "int64": 3082,
      "recogn": 3083,
      "resp": 3084,
      "resid": 3085,
      "keep ": 3086,
      "CHECK(": 3087,
      "sugg": 3088,
      "there are ": 3089,
      "ministr": 3090,
      "diffic": 3091,
      "post": 3092,
      "Option": 3093,
      "off ": 3094,
      "mal": 3095,
      "bug": 3096,
      "community ": 3097,
      "oth": 3098,
      "Cli": 3099,
      "offset": 3100,
      "4., ": 3101,
      "national ": 3102,
      "With ": 3103,
      "}\n            ": 3104,
      "55": 3105,
      "ache": 3106,
      "until ": 3107,
      "tow": 3108,
      "struct ": 3109,
      "tru": 3110,
      "don't ": 3111,
      "7 ": 3112,
      "my": 3113,
      "self ": 3114,
      "function ": 3115,
      "cause ": 3116,
      "4, ": 3117,
      "Run": 3118,
      "ways ": 3119,
      "har": 3120,
      "ing to the ": 3121,
      ";\n\t\t\t": 3122,
      "RES": 3123,
      "interpre": 3124,
      "auto": 3125,
      "Vis": 3126,
      "ood ": 3127,
      "endl": 3128,
      "behavi": 3129,
      "making ": 3130,
      "term": 3131,
      "remo": 3132,
      "tern ": 3133,
      "fix": 3134,
      "Config": 3135,
      "consum": 3136,
      "opportun": 3137,
      "IZ": 3138,
      "OK": 3139,
      "bab": 3140,
      "ed.": 3141,
      "server": 3142,
      "political ": 3143,
      "softw": 3144,
      "y's ": 3145,
      "for (int ": 3146,
      "Start": 3147,
      "expres": 3148,
      "does not ": 3149,
      "education ": 3150,
      "::k": 3151,
      "ste": 3152,
      "assert(": 3153,
      "Of": 3154,
      "s; ": 3155,
      "Cor": 3156,
      "real": 3157,
      "Format": 3158,
      "ordin": 3159,
      "active ": 3160,
      ";\n    }\n\n    ": 3161,
      "now": 3162,
      "tig": 3163,
      "By ": 3164,
      "roduc": 3165,
      "You ": 3166,
      "Const": 3167,
      "name ": 3168,
      "bers ": 3169,
      "pair": 3170,
      "9999": 3171,
      "compon": 3172,
      "Count": 3173,
      "ed from ": 3174,
      "account": 3175,
      "Char": 3176,
      "o, ": 3177,
      "\n\t{\n\t\t": 3178,
      "development ": 3179,
      "proces": 3180,
      "next ": 3181,
      "mission": 3182,
      "osp": 3183,
      "\n#if": 3184,
      "interest": 3185,
      "hor": 3186,
      "er.": 3187,
      "Frame": 3188,
      "coin": 3189,
      "people": 3190,
      "ancial ": 3191,
      "result ": 3192,
      "Device": 3193,
      "ology ": 3194,
      "P ": 3195,
      "y(": 3196,
      "printf": 3197,
      "es in the ": 3198,
      "ance of ": 3199,
      "sourc": 3200,
      "/// ": 3201,
      "role ": 3202,
      "ations, ": 3203,
      "suppl": 3204,
      "age of ": 3205,
      "0, 0x": 3206,
      "virt": 3207,
      "influ": 3208,
      "Sc": 3209,
      "rop": 3210,
      "not be ": 3211,
      "claim": 3212,
      "espec": 3213,
      "a_": 3214,
      "term ": 3215,
      "book ": 3216,
      "));\n  ": 3217,
      "y-": 3218,
      "between the ": 3219,
      "Print": 3220,
      "rect": 3221,
      "pris": 3222,
      "Tre": 3223,
      "}, ": 3224,
      "var": 3225,
      "month": 3226,
      "ek ": 3227,
      "gle": 3228,
      "ed on ": 3229,
      "Status": 3230,
      "ten ": 3231,
      "agnos": 3232,
      "link": 3233,
      "establish": 3234,
      "ef": 3235,
      "job": 3236,
      "78": 3237,
      "oph": 3238,
      "s and the ": 3239,
      "amp": 3240,
      "look ": 3241,
      "utton": 3242,
      "start ": 3243,
      "Fir": 3244,
      ">= ": 3245,
      "inci": 3246,
      "#endif": 3247,
      "es(": 3248,
      "format": 3249,
      "pc": 3250,
      "learning ": 3251,
      "Sk": 3252,
      "ur ": 3253,
      "Model": 3254,
      "simil": 3255,
      "ward": 3256,
      "size ": 3257,
      "citi": 3258,
      "mm": 3259,
      "44": 3260,
      "An ": 3261,
      "lower ": 3262,
      "delet": 3263,
      "Dr": 3264,
      "_ST": 3265,
      "\n#define ": 3266,
      "All ": 3267,
      "four ": 3268,
      "CK": 3269,
      "al.</w>": 3270,
      "ensive ": 3271,
      "Command": 3272,
      "pt ": 3273,
      "clim": 3274,
      ",\n            ": 3275,
      "go ": 3276,
      "len": 3277,
      "erv": 3278,
      "activi": 3279,
      "egr": 3280,
      "ector ": 3281,
      "num_": 3282,
      "char* ": 3283,
      "tion and ": 3284,
      "second ": 3285,
      "OF ": 3286,
      "viol": 3287,
      "IV": 3288,
      "Net": 3289,
      "evid": 3290,
      "annel": 3291,
      "especially ": 3292,
      ",\n      ": 3293,
      ") and ": 3294,
      "isol": 3295,
      "rain ": 3296,
      "t.</w>": 3297,
      "food": 3298,
      "Impl": 3299,
      "responsi": 3300,
      "_ _ ": 3301,
      "next": 3302,
      "table": 3303,
      "Definition": 3304,
      "age, ": 3305,
      "mental ": 3306,
      "person ": 3307,
      "relation": 3308,
      "_B": 3309,
      "required ": 3310,
      "compa": 3311,
      "String ": 3312,
      "(0": 3313,
      "evalu": 3314,
      "purpos": 3315,
      "prote": 3316,
      "------------": 3317,
      "give ": 3318,
      ");\n\n  // ": 3319,
      "conduc": 3320,
      "part of ": 3321,
      "Su": 3322,
      "Image": 3323,
      "UM": 3324,
      "promo": 3325,
      "agre": 3326,
      "_b": 3327,
      "\n          ": 3328,
      "individual": 3329,
      "inj": 3330,
      ")\n  ": 3331,
      "es of the ": 3332,
      "12 ": 3333,
      "v_[": 3334,
      "order to ": 3335,
      "ending ": 3336,
      "ence.</w>": 3337,
      "'re ": 3338,
      "End": 3339,
      "allow ": 3340,
      "remain": 3341,
      "handl": 3342,
      "ittle ": 3343,
      "sav": 3344,
      "field ": 3345,
      "relig": 3346,
      "every": 3347,
      "adem": 3348,
      "pan": 3349,
      "family ": 3350,
      "Vari": 3351,
      "language ": 3352,
      "Meth": 3353,
      "SP": 3354,
      "On ": 3355,
      "remov": 3356,
      "ant to ": 3357,
      "addres": 3358,
      "position": 3359,
      "sure ": 3360,
      "VAL": 3361,
      "Alloc": 3362,
      "ated": 3363,
      "ness ": 3364,
      "th, ": 3365,
      "\");\n  ": 3366,
      "erc": 3367,
      "nu": 3368,
      "%s": 3369,
      "is, ": 3370,
      "must be ": 3371,
      "sert": 3372,
      "(P": 3373,
      "facil": 3374,
      "se, ": 3375,
      "patients ": 3376,
      "Sec": 3377,
      "instit": 3378,
      "LOG": 3379,
      "potential ": 3380,
      ");\n\n    // ": 3381,
      "reason": 3382,
      "There are ": 3383,
      "men": 3384,
      "ed as ": 3385,
      "fully ": 3386,
      "::Get": 3387,
      "Value(": 3388,
      "ies of ": 3389,
      "publish": 3390,
      "introduc": 3391,
      "ren": 3392,
      "along ": 3393,
      "Value ": 3394,
      "39": 3395,
      "que": 3396,
      "Thread": 3397,
      "age.</w>": 3398,
      "compan": 3399,
      ";\r\n    ": 3400,
      "ance, ": 3401,
      "following ": 3402,
      "EXT": 3403,
      "ing for ": 3404,
      "physical ": 3405,
      "n, ": 3406,
      "Type::": 3407,
      "Glob": 3408,
      "mine ": 3409,
      "Curr": 3410,
      "6, ": 3411,
      "financial ": 3412,
      "belie": 3413,
      "Some ": 3414,
      "Many ": 3415,
      "omet": 3416,
      "certain ": 3417,
      "federal ": 3418,
      "combin": 3419,
      "_p": 3420,
      "Output": 3421,
      "init": 3422,
      "s is ": 3423,
      "make_": 3424,
      "either ": 3425,
      "vec": 3426,
      "milit": 3427,
      "prevent ": 3428,
      "through": 3429,
      "hic": 3430,
      "filter": 3431,
      "ank ": 3432,
      "deb": 3433,
      "do not ": 3434,
      "ute ": 3435,
      "Grou": 3436,
      "ince ": 3437,
      "ask ": 3438,
      "));\n        ": 3439,
      "report ": 3440,
      "atory ": 3441,
      "))\n        ": 3442,
      "Chang": 3443,
      "command": 3444,
      "ical": 3445,
      "associated ": 3446,
      "ground": 3447,
      "at a ": 3448,
      "() == ": 3449,
      "ensure ": 3450,
      "B ": 3451,
      "template ": 3452,
      "Field": 3453,
      "\");\n        ": 3454,
      "degre": 3455,
      "20 ": 3456,
      "too ": 3457,
      "),\n        ": 3458,
      "ence, ": 3459,
      "Pos": 3460,
      "frequ": 3461,
      "network": 3462,
      "handle": 3463,
      "And": 3464,
      "al and ": 3465,
      "resul": 3466,
      "sure": 3467,
      "al of ": 3468,
      "85": 3469,
      "77": 3470,
      "Buil": 3471,
      "develop ": 3472,
      "integr": 3473,
      "Chris": 3474,
      "net ": 3475,
      "at least ": 3476,
      "determin": 3477,
      ".m_": 3478,
      ">> ": 3479,
      "was a ": 3480,
      "technology ": 3481,
      "However, ": 3482,
      "countries ": 3483,
      "out the ": 3484,
      "recent ": 3485,
      "rix": 3486,
      "IO": 3487,
      "usually ": 3488,
      "ible ": 3489,
      "growth ": 3490,
      "FA": 3491,
      "}\n\n\t": 3492,
      "example, ": 3493,
      "represent": 3494,
      "young ": 3495,
      "lion": 3496,
      "Graph": 3497,
      "code ": 3498,
      "rac": 3499,
      "ision ": 3500,
      "are the ": 3501,
      "Conn": 3502,
      "treatment ": 3503,
      "if ( ": 3504,
      "significant ": 3505,
      "if the ": 3506,
      "L_": 3507,
      ")\n      ": 3508,
      "previ": 3509,
      "you can ": 3510,
      "Ger": 3511,
      "      ": 3512,
      "Hist": 3513,
      "tax": 3514,
      "single ": 3515,
      "atic ": 3516,
      "sil": 3517,
      "Init": 3518,
      "way to ": 3519,
      "Wallet": 3520,
      "bind": 3521,
      "count ": 3522,
      "46": 3523,
      "es (": 3524,
      "method ": 3525,
      "begin(), ": 3526,
      "l_": 3527,
      "tion to ": 3528,
      "Depart": 3529,
      "uint8": 3530,
      "thir": 3531,
      "created ": 3532,
      "yte": 3533,
      "Mode": 3534,
      "uint32_t ": 3535,
      "ants ": 3536,
      "Mul": 3537,
      "TRUE(": 3538,
      " == ": 3539,
      "\n\n    ": 3540,
      "Lin": 3541,
      "little ": 3542,
      "ember ": 3543,
      "Sci": 3544,
      "stain": 3545,
      ") { ": 3546,
      "Pe": 3547,
      "real ": 3548,
      "[2": 3549,
      "VK": 3550,
      "age_": 3551,
      "controll": 3552,
      "*>(": 3553,
      "Bl": 3554,
      "rc": 3555,
      "ograph": 3556,
      "Stud": 3557,
      "from a ": 3558,
      "thern ": 3559,
      "mi": 3560,
      "space ": 3561,
      "TYP": 3562,
      "amin": 3563,
      "uint64": 3564,
      "ENT": 3565,
      "Local": 3566,
      "hib": 3567,
      "ord ": 3568,
      "App": 3569,
      "ven ": 3570,
      "evol": 3571,
      "Resear": 3572,
      "tok": 3573,
      ")\n\t\t": 3574,
      "rat": 3575,
      "ake": 3576,
      "techniqu": 3577,
      "ors ": 3578,
      "ments ": 3579,
      "when the ": 3580,
      "root": 3581,
      "mach": 3582,
      "play ": 3583,
      "continue": 3584,
      "mt": 3585,
      "fore": 3586,
      "llvm": 3587,
      "expos": 3588,
      "liter": 3589,
      "line": 3590,
      "ED ": 3591,
      "ourn": 3592,
      "individual ": 3593,
      "wal": 3594,
      "It's ": 3595,
      "fc": 3596,
      "UI": 3597,
      "instr": 3598,
      ", v": 3599,
      "project ": 3600,
      "Render": 3601,
      "CC": 3602,
      "part of the ": 3603,
      "bb": 3604,
      "ously ": 3605,
      "from": 3606,
      ".end": 3607,
      "Scal": 3608,
      "aint": 3609,
      "stric": 3610,
      "States ": 3611,
      "ment, ": 3612,
      "particul": 3613,
      "height": 3614,
      "ucle": 3615,
      "Spec": 3616,
      "ibu": 3617,
      "ure.</w>": 3618,
      "ity to ": 3619,
      "window": 3620,
      "clas": 3621,
      "prec": 3622,
      "disease ": 3623,
      "structure": 3624,
      "an, ": 3625,
      "charg": 3626,
      "Bar": 3627,
      "separ": 3628,
      "country ": 3629,
      "effective ": 3630,
      "Mon": 3631,
      "Car": 3632,
      "fy ": 3633,
      "er than ": 3634,
      "tion of the ": 3635,
      "cost ": 3636,
      "civ": 3637,
      "Rang": 3638,
      "Address": 3639,
      "level ": 3640,
      "diver": 3641,
      "design ": 3642,
      "nod": 3643,
      "was the ": 3644,
      "open ": 3645,
      "cell ": 3646,
      "say ": 3647,
      "echan": 3648,
      "operator": 3649,
      "has a ": 3650,
      "Gu": 3651,
      "attr": 3652,
      "throw ": 3653,
      "sty": 3654,
      "working ": 3655,
      "conf": 3656,
      "ectiv": 3657,
      "msg": 3658,
      "World ": 3659,
      "fri": 3660,
      "tax ": 3661,
      "Mic": 3662,
      "den": 3663,
      ";\n\t\t\t\t": 3664,
      "EP": 3665,
      "ipel": 3666,
      "rather ": 3667,
      "Open": 3668,
      "order ": 3669,
      ".size": 3670,
      "cod": 3671,
      ") {\n\t\t": 3672,
      "within ": 3673,
      "estig": 3674,
      "Fail": 3675,
      "());\n        ": 3676,
      "enci": 3677,
      "sident ": 3678,
      "Pu": 3679,
      ".push_back(": 3680,
      "invest": 3681,
      "implement": 3682,
      "e that ": 3683,
      "OL": 3684,
      "Iter": 3685,
      "numer": 3686,
      "hab": 3687,
      "th.</w>": 3688,
      "reli": 3689,
      "_m": 3690,
      "far ": 3691,
      "could be ": 3692,
      "Hash": 3693,
      "_s": 3694,
      "parse": 3695,
      "JSON": 3696,
      "cout ": 3697,
      "international ": 3698,
      "0.5": 3699,
      ");\n\t\t\t\t": 3700,
      "Shader": 3701,
      "STR": 3702,
      "whol": 3703,
      "short": 3704,
      "Expr": 3705,
      "= false": 3706,
      "SD": 3707,
      "instruc": 3708,
      "lead ": 3709,
      "ATE_": 3710,
      "\n    {\n        ": 3711,
      "_RE": 3712,
      "++i": 3713,
      "vehic": 3714,
      "ear ": 3715,
      "2c": 3716,
      "ering ": 3717,
      "::get": 3718,
      "unk": 3719,
      "wide ": 3720,
      "-1, ": 3721,
      "_data": 3722,
      "hous": 3723,
      "{\"": 3724,
      "why ": 3725,
      "ated to ": 3726,
      "within the ": 3727,
      "f32": 3728,
      "living ": 3729,
      "<T": 3730,
      "Flo": 3731,
      "control": 3732,
      "pect": 3733,
      "show ": 3734,
      "hard": 3735,
      "five ": 3736,
      "DB": 3737,
      "er->": 3738,
      "Lib": 3739,
      "\n ": 3740,
      "kid": 3741,
      "Entry": 3742,
      "private ": 3743,
      "fd": 3744,
      "namic": 3745,
      "tran": 3746,
      "M ": 3747,
      "king ": 3748,
      "label": 3749,
      "princi": 3750,
      "internal": 3751,
      "sens": 3752,
      "transform": 3753,
      "sun": 3754,
      "[1]": 3755,
      "th centur": 3756,
      "ument ": 3757,
      "there is ": 3758,
      "further ": 3759,
      "LIN": 3760,
      "basic ": 3761,
      "replac": 3762,
      "Retur": 3763,
      "     0,": 3764,
      "86": 3765,
      "_IN": 3766,
      "refl": 3767,
      "small": 3768,
      "base": 3769,
      "(m_": 3770,
      "direct": 3771,
      "experienc": 3772,
      "due to ": 3773,
      "ernel": 3774,
      "micro": 3775,
      "ru": 3776,
      "propos": 3777,
      "Initi": 3778,
      "mode": 3779,
      "LI": 3780,
      "Inf": 3781,
      "interpret": 3782,
      "_index": 3783,
      "object ": 3784,
      "ance.</w>": 3785,
      "O ": 3786,
      "er's ": 3787,
      "future ": 3788,
      "_d": 3789,
      "ers are ": 3790,
      "taken ": 3791,
      "ase": 3792,
      "= true": 3793,
      "bound": 3794,
      "clu": 3795,
      "&&": 3796,
      "ade": 3797,
      "face": 3798,
      "diagnos": 3799,
      "zen": 3800,
      "t and ": 3801,
      "plann": 3802,
      "consist": 3803,
      "ustom": 3804,
      "rem": 3805,
      "uses ": 3806,
      "lar": 3807,
      "__ ": 3808,
      "pric": 3809,
      "Parameter": 3810,
      "build ": 3811,
      "o-": 3812,
      "rand": 3813,
      "around the ": 3814,
      "5., ": 3815,
      "ning": 3816,
      "past ": 3817,
      "ite": 3818,
      "(int ": 3819,
      "Base": 3820,
      "is that ": 3821,
      "ety of ": 3822,
      "emerg": 3823,
      "This is ": 3824,
      "Lev": 3825,
      "time_": 3826,
      "student ": 3827,
      "entry": 3828,
      "quer": 3829,
      "Ag": 3830,
      ";\n\n": 3831,
      "e in ": 3832,
      "Method": 3833,
      "block ": 3834,
      "<= ": 3835,
      "ym": 3836,
      "s to be ": 3837,
      "predic": 3838,
      "ww": 3839,
      "based on ": 3840,
      "script": 3841,
      "Program": 3842,
      "suff": 3843,
      "US ": 3844,
      "recomm": 3845,
      "is.</w>": 3846,
      "regist": 3847,
      "fault": 3848,
      "proto": 3849,
      "\"), ": 3850,
      "problem ": 3851,
      "in_": 3852,
      "enough ": 3853,
      "ick ": 3854,
      "ies and ": 3855,
      "y, and ": 3856,
      "ground ": 3857,
      "Load": 3858,
      "always ": 3859,
      "cp": 3860,
      "weight": 3861,
      "themsel": 3862,
      "member": 3863,
      "men ": 3864,
      "force ": 3865,
      "Most ": 3866,
      "Coll": 3867,
      "hold ": 3868,
      "Valid": 3869,
      "concern": 3870,
      "ing of the ": 3871,
      "spir": 3872,
      "client": 3873,
      "v8": 3874,
      "\",\n        ": 3875,
      "guid": 3876,
      "out of ": 3877,
      "If you ": 3878,
      "tific": 3879,
      "left ": 3880,
      "(q": 3881,
      "contribut": 3882,
      "CS": 3883,
      "therap": 3884,
      "provides ": 3885,
      "available ": 3886,
      "minim": 3887,
      "gas ": 3888,
      "Gui": 3889,
      "largest ": 3890,
      "built ": 3891,
      "1 = ": 3892,
      "tk": 3893,
      "money ": 3894,
      "colleg": 3895,
      "necessary ": 3896,
      "ufac": 3897,
      "_W": 3898,
      "-based ": 3899,
      "ef ": 3900,
      "version": 3901,
      "Write": 3902,
      "er the ": 3903,
      "need ": 3904,
      "Our ": 3905,
      "So ": 3906,
      "}\n      ": 3907,
      "them.</w>": 3908,
      "tag": 3909,
      "val ": 3910,
      "free ": 3911,
      "think ": 3912,
      "distribut": 3913,
      "Pri": 3914,
      "check ": 3915,
      "situ": 3916,
      "investig": 3917,
      "1.0": 3918,
      "else if (": 3919,
      "(2": 3920,
      "3.": 3921,
      "error ": 3922,
      "enn": 3923,
      "/**": 3924,
      "Il": 3925,
      "period": 3926,
      "GP": 3927,
      "together ": 3928,
      "create": 3929,
      "fun": 3930,
      "week": 3931,
      "round": 3932,
      "ate, ": 3933,
      "Sur": 3934,
      "ood": 3935,
      " + ": 3936,
      "ation_": 3937,
      "Filter": 3938,
      "chron": 3939,
      ", M": 3940,
      "128": 3941,
      "ket": 3942,
      "->Set": 3943,
      "chain": 3944,
      "\n      \"": 3945,
      "<typename ": 3946,
      "encour": 3947,
      "half ": 3948,
      "sych": 3949,
      "Engin": 3950,
      "Cal": 3951,
      "mechan": 3952,
      "sustain": 3953,
      "(M": 3954,
      "resol": 3955,
      "time.</w>": 3956,
      "U ": 3957,
      "pool": 3958,
      "scre": 3959,
      "Tok": 3960,
      "Process": 3961,
      "cast": 3962,
      "time, ": 3963,
      "effect ": 3964,
      "bri": 3965,
      "roc": 3966,
      ".h>\n#include <": 3967,
      "(std::": 3968,
      "ability to ": 3969,
      "in which ": 3970,
      "Gen": 3971,
      "While ": 3972,
      "subst": 3973,
      "_rang": 3974,
      "ould": 3975,
      "frame": 3976,
      "similar ": 3977,
      "Comp": 3978,
      "capac": 3979,
      "environmental ": 3980,
      "Action": 3981,
      "plan ": 3982,
      "Activ": 3983,
      "up to ": 3984,
      "rout": 3985,
      "amount of ": 3986,
      "ptom": 3987,
      "size(": 3988,
      "Sim": 3989,
      "ered ": 3990,
      "66": 3991,
      "becom": 3992,
      "let ": 3993,
      "Jew": 3994,
      "Accord": 3995,
      "Br": 3996,
      "experience ": 3997,
      "less": 3998,
      "on.</w>": 3999,
      "ent.</w>": 4000,
      "Isra": 4001,
      "(s": 4002,
      "CHECK_": 4003,
      "ing that ": 4004,
      ",\n": 4005,
      "ui->": 4006,
      "whil": 4007,
      "us, ": 4008,
      "management ": 4009,
      "##": 4010,
      "Christi": 4011,
      "ics ": 4012,
      "North ": 4013,
      "never ": 4014,
      "overn": 4015,
      "which is ": 4016,
      "analy": 4017,
      "value_": 4018,
      "The": 4019,
      "host": 4020,
      "ward ": 4021,
      "almost ": 4022,
      "it, ": 4023,
      "ation is ": 4024,
      "Cap": 4025,
      "cry": 4026,
      "Ext": 4027,
      "military ": 4028,
      "Copyright ": 4029,
      "match": 4030,
      "protect ": 4031,
      "RA": 4032,
      "s?</w>": 4033,
      "LL": 4034,
      "means ": 4035,
      "average ": 4036,
      "\n#ifdef ": 4037,
      "i_": 4038,
      "\\n\", ": 4039,
      "Scho": 4040,
      "exerc": 4041,
      "legal ": 4042,
      "United States ": 4043,
      "{\n\t\t\t": 4044,
      "live ": 4045,
      "became ": 4046,
      "on, ": 4047,
      "actually ": 4048,
      "reduce ": 4049,
      "une ": 4050,
      "ized ": 4051,
      "\nvoid ": 4052,
      "describ": 4053,
      "ae": 4054,
      "= (": 4055,
      "file_": 4056,
      "related ": 4057,
      "determine ": 4058,
      "Group": 4059,
      "tili": 4060,
      "s can ": 4061,
      "cut": 4062,
      " is ": 4063,
      "new_": 4064,
      "mag": 4065,
      "Resource": 4066,
      "http": 4067,
      "Box": 4068,
      "\") ": 4069,
      "building ": 4070,
      "engine": 4071,
      "exc": 4072,
      "LE_": 4073,
      "nucle": 4074,
      "market": 4075,
      "true ": 4076,
      "Austr": 4077,
      "full ": 4078,
      "ecti": 4079,
      "ESS": 4080,
      "String(": 4081,
      "network ": 4082,
      "sition": 4083,
      "Dep": 4084,
      "Dur": 4085,
      "CR": 4086,
      "vide": 4087,
      "SL": 4088,
      "glew": 4089,
      "to re": 4090,
      "effort": 4091,
      "here ": 4092,
      "crip": 4093,
      "tr(\"": 4094,
      "d, ": 4095,
      "s.h": 4096,
      "security ": 4097,
      "farm": 4098,
      "Number": 4099,
      "ian": 4100,
      "contr": 4101,
      "mit": 4102,
      "European ": 4103,
      "rh": 4104,
      "cancer ": 4105,
      "Fin": 4106,
      "sou": 4107,
      ">& ": 4108,
      "Bri": 4109,
      "aster": 4110,
      "les ": 4111,
      "extern ": 4112,
      "general ": 4113,
      "Jap": 4114,
      "years.</w>": 4115,
      "Util": 4116,
      "ton ": 4117,
      "ster": 4118,
      "equip": 4119,
      "ma ": 4120,
      "attack": 4121,
      "2C": 4122,
      "piec": 4123,
      "ent, ": 4124,
      "surve": 4125,
      "personal ": 4126,
      "nation": 4127,
      "42": 4128,
      "fill": 4129,
      "manufac": 4130,
      "LOCK": 4131,
      "Source": 4132,
      "War": 4133,
      "thous": 4134,
      "n_": 4135,
      "risk": 4136,
      "augh": 4137,
      ") - ": 4138,
      "aren": 4139,
      "copy": 4140,
      "Chil": 4141,
      "clin": 4142,
      "Uni": 4143,
      "policy ": 4144,
      "sampl": 4145,
      "particular ": 4146,
      "TOR": 4147,
      "anch": 4148,
      ");\r\n": 4149,
      "es[": 4150,
      "cover ": 4151,
      ";\n\n\t": 4152,
      "board": 4153,
      "impact ": 4154,
      "optim": 4155,
      "header": 4156,
      "total ": 4157,
      "she ": 4158,
      "57": 4159,
      "thes": 4160,
      "87": 4161,
      "independ": 4162,
      "hard ": 4163,
      "increased ": 4164,
      "b_": 4165,
      "modern ": 4166,
      "carb": 4167,
      "self-": 4168,
      "bank": 4169,
      "())\n        ": 4170,
      ">{": 4171,
      "e(\"": 4172,
      "() const ": 4173,
      "one of ": 4174,
      "infl": 4175,
      "done ": 4176,
      "ImGui": 4177,
      "software ": 4178,
      "2_": 4179,
      "seen ": 4180,
      "], ": 4181,
      "neg": 4182,
      "Joh": 4183,
      "11 ": 4184,
      "South ": 4185,
      "thing": 4186,
      "according to ": 4187,
      "THE ": 4188,
      "ray ": 4189,
      "ik": 4190,
      "Work": 4191,
      "cos": 4192,
      "travel": 4193,
      "ly.</w>": 4194,
      "experim": 4195,
      "...": 4196,
      "calcul": 4197,
      "break;\n        ": 4198,
      "Arch": 4199,
      "United Stat": 4200,
      "material ": 4201,
      "(\n        ": 4202,
      "wast": 4203,
      "fram": 4204,
      "weight ": 4205,
      "this, ": 4206,
      "% of ": 4207,
      "plant ": 4208,
      "today": 4209,
      "box": 4210,
      ".c": 4211,
      "49": 4212,
      "advanc": 4213,
      "reach": 4214,
      "track": 4215,
      "oil ": 4216,
      "istic": 4217,
      "ele": 4218,
      "E, ": 4219,
      "Health ": 4220,
      "document": 4221,
      "onstr": 4222,
      "2d": 4223,
      "simple ": 4224,
      "ations of ": 4225,
      "nutri": 4226,
      "into a ": 4227,
      "DN": 4228,
      "Publ": 4229,
      "ation in ": 4230,
      "Default": 4231,
      "strateg": 4232,
      "', ": 4233,
      "<float": 4234,
      "Var": 4235,
      "F(": 4236,
      "column": 4237,
      "Control": 4238,
      "pressure ": 4239,
      "special ": 4240,
      "Debug": 4241,
      "ize ": 4242,
      "Since ": 4243,
      "nov": 4244,
      "pression": 4245,
      "traditional ": 4246,
      "Govern": 4247,
      "wx": 4248,
      "and, ": 4249,
      "Py": 4250,
      "once ": 4251,
      "\"\n#include \"": 4252,
      "left": 4253,
      "ane": 4254,
      "_->": 4255,
      "ed by a ": 4256,
      "les": 4257,
      "II": 4258,
      "word ": 4259,
      "interest ": 4260,
      "Current": 4261,
      "ired ": 4262,
      "\r\n  ": 4263,
      "corpor": 4264,
      "administr": 4265,
      "es, the ": 4266,
      "After ": 4267,
      "Ear": 4268,
      "urb": 4269,
      "21": 4270,
      "5, ": 4271,
      "Educ": 4272,
      "virtual ": 4273,
      "Property": 4274,
      "i, ": 4275,
      "abled": 4276,
      "Ke": 4277,
      "Module": 4278,
      "attribut": 4279,
      "accept": 4280,
      "affect": 4281,
      "lex": 4282,
      "symptom": 4283,
      "war ": 4284,
      " = 0": 4285,
      "their own ": 4286,
      "IND": 4287,
      "types of ": 4288,
      "science ": 4289,
      "knowledg": 4290,
      "or the ": 4291,
      "unit": 4292,
      "name, ": 4293,
      "||": 4294,
      "ers": 4295,
      "000": 4296,
      "in, ": 4297,
      "improve ": 4298,
      "That ": 4299,
      "ussi": 4300,
      "pho": 4301,
      "32 ": 4302,
      "primary ": 4303,
      "0, 0, ": 4304,
      "releas": 4305,
      "\n        // ": 4306,
      "Fre": 4307,
      "(n": 4308,
      "rais": 4309,
      "heart ": 4310,
      "RT": 4311,
      "Client": 4312,
      "s[i": 4313,
      "Float": 4314,
      "SION": 4315,
      "Exec": 4316,
      "period ": 4317,
      "proced": 4318,
      "flow ": 4319,
      "en's ": 4320,
      "core": 4321,
      "fast": 4322,
      "inal ": 4323,
      "id.</w>": 4324,
      "o.</w>": 4325,
      "after the ": 4326,
      "model ": 4327,
      "answ": 4328,
      "computer ": 4329,
      "2,": 4330,
      "kind": 4331,
      "->get_": 4332,
      "enh": 4333,
      "an.</w>": 4334,
      "abor": 4335,
      "estern ": 4336,
      "\" + ": 4337,
      "FOR": 4338,
      "hour": 4339,
      "spr": 4340,
      "Global": 4341,
      "local": 4342,
      "id, ": 4343,
      "able_": 4344,
      "percent": 4345,
      "assess": 4346,
      "fic ": 4347,
      "es from ": 4348,
      "regard": 4349,
      "er-": 4350,
      "plat": 4351,
      "demonstr": 4352,
      "standard": 4353,
      "growing ": 4354,
      "adat": 4355,
      "expr ": 4356,
      "member ": 4357,
      "appropri": 4358,
      "xim": 4359,
      "R ": 4360,
      ":\n            ": 4361,
      "year.</w>": 4362,
      "s, but ": 4363,
      "Direc": 4364,
      "All": 4365,
      ");": 4366,
      "makes ": 4367,
      "de ": 4368,
      "F ": 4369,
      "understand ": 4370,
      "city ": 4371,
      ", typename ": 4372,
      "suggest": 4373,
      "EW": 4374,
      "Multi": 4375,
      "inclu": 4376,
      "task": 4377,
      "ural ": 4378,
      "academ": 4379,
      "One ": 4380,
      "TO": 4381,
      "not only ": 4382,
      "Byt": 4383,
      "Data ": 4384,
      "tish ": 4385,
      "Bec": 4386,
      "produce ": 4387,
      "Instance": 4388,
      "profession": 4389,
      "Ir": 4390,
      "Emp": 4391,
      "Vertex": 4392,
      ";\r\n\t": 4393,
      "ities.</w>": 4394,
      "\"))": 4395,
      "Que": 4396,
      "in this ": 4397,
      "ner ": 4398,
      "as, ": 4399,
      "identifi": 4400,
      "ception": 4401,
      "audi": 4402,
      "above ": 4403,
      "u ": 4404,
      "Rect": 4405,
      "something ": 4406,
      "super": 4407,
      "Button": 4408,
      "began ": 4409,
      "approach ": 4410,
      "attem": 4411,
      "16 ": 4412,
      "Target": 4413,
      "a new ": 4414,
      "fact ": 4415,
      "::D": 4416,
      "Texture": 4417,
      "shif": 4418,
      "written ": 4419,
      "setting": 4420,
      "switch ": 4421,
      "climate ": 4422,
      "ission": 4423,
      "}\n\t\t": 4424,
      "decision": 4425,
      "poll": 4426,
      "position ": 4427,
      "UP": 4428,
      ";\n  }\n\n  ": 4429,
      "sex": 4430,
      "\n#endif": 4431,
      "ences ": 4432,
      "://": 4433,
      "extr": 4434,
      "df": 4435,
      "phas": 4436,
      "pattern": 4437,
      "_CON": 4438,
      "ness": 4439,
      "type of ": 4440,
      "Obj": 4441,
      "antly ": 4442,
      "atten": 4443,
      "want to ": 4444,
      "input_": 4445,
      "length ": 4446,
      "iterator ": 4447,
      "tin": 4448,
      "Sym": 4449,
      "ia": 4450,
      ") || ": 4451,
      "healthy ": 4452,
      "brain ": 4453,
      "focus ": 4454,
      "world.</w>": 4455,
      "30 ": 4456,
      "room": 4457,
      "wr": 4458,
      "(m": 4459,
      "hosp": 4460,
      "Length": 4461,
      "\n      // ": 4462,
      "billion ": 4463,
      "\r\n            ": 4464,
      "ation to ": 4465,
      "assign": 4466,
      "kind ": 4467,
      "2 = ": 4468,
      "()\n{\n    ": 4469,
      "survi": 4470,
      "Memory": 4471,
      "gn": 4472,
      "Matrix": 4473,
      "variety of ": 4474,
      "lic": 4475,
      "difficult ": 4476,
      ", we ": 4477,
      "heat ": 4478,
      "s as ": 4479,
      "analysis ": 4480,
      "_DE": 4481,
      "response ": 4482,
      "particularly ": 4483,
      "head ": 4484,
      "6., ": 4485,
      "as.</w>": 4486,
      ")\n{\n\t": 4487,
      "Operand": 4488,
      "sion of ": 4489,
      "s)": 4490,
      "multiple ": 4491,
      "fib": 4492,
      "(),\n        ": 4493,
      "programm": 4494,
      "199": 4495,
      "r = ": 4496,
      "()) {\n        ": 4497,
      "involv": 4498,
      "t::": 4499,
      ")\n{\n  ": 4500,
      "c ": 4501,
      "Pointer": 4502,
      "Fro": 4503,
      "s by ": 4504,
      ", it ": 4505,
      "memory ": 4506,
      "Kind": 4507,
      "ting": 4508,
      "stop": 4509,
      "template": 4510,
      "leav": 4511,
      "<< \" ": 4512,
      "inste": 4513,
      "max_": 4514,
      "Cam": 4515,
      "15 ": 4516,
      "EQU": 4517,
      "call ": 4518,
      ");\n    if (": 4519,
      "clos": 4520,
      "skin ": 4521,
      "resist": 4522,
      "power": 4523,
      "(v": 4524,
      "58": 4525,
      "system.</w>": 4526,
      "major": 4527,
      "have to ": 4528,
      "ict ": 4529,
      "human": 4530,
      "tmp": 4531,
      "Vk": 4532,
      "256": 4533,
      "text::": 4534,
      "path ": 4535,
      "width": 4536,
      "ing is ": 4537,
      "base::": 4538,
      "Syn": 4539,
      "lot": 4540,
      "came ": 4541,
      "species ": 4542,
      "ire": 4543,
      "nearly ": 4544,
      "test_": 4545,
      "road": 4546,
      "osph": 4547,
      "firm": 4548,
      "Return": 4549,
      "mitt": 4550,
      "};\n\n": 4551,
      "across the ": 4552,
      "course ": 4553,
      "sle": 4554,
      "Not": 4555,
      ") * ": 4556,
      "in their ": 4557,
      "pen": 4558,
      "tissu": 4559,
      "dd": 4560,
      "s  ": 4561,
      "ended ": 4562,
      "updat": 4563,
      "(R": 4564,
      "s, which ": 4565,
      "good": 4566,
      "standard ": 4567,
      "consid": 4568,
      "bit ": 4569,
      "} else if (": 4570,
      "TM": 4571,
      "reset": 4572,
      "bott": 4573,
      "intell": 4574,
      "ARG": 4575,
      "json": 4576,
      "kill": 4577,
      "Although ": 4578,
      "President ": 4579,
      "dst": 4580,
      "product": 4581,
      "Sw": 4582,
      "Sol": 4583,
      "step ": 4584,
      "es were ": 4585,
      "Addr": 4586,
      "hop": 4587,
      "cros": 4588,
      "stim": 4589,
      ");\n    }\n    ": 4590,
      "add_": 4591,
      "having ": 4592,
      "Main": 4593,
      "fall": 4594,
      "move(": 4595,
      "boost::text::": 4596,
      "s on the ": 4597,
      "(L": 4598,
      "Addres": 4599,
      "idea ": 4600,
      "ah": 4601,
      "energ": 4602,
      "Found": 4603,
      "_CO": 4604,
      "neigh": 4605,
      "In addi": 4606,
      "Respon": 4607,
      "s[0": 4608,
      "std::array": 4609,
      "69": 4610,
      "Unit": 4611,
      "yn": 4612,
      "clear ": 4613,
      "ten": 4614,
      "ing, and ": 4615,
      "ME": 4616,
      "where the ": 4617,
      "}\r\n\r\n": 4618,
      "libr": 4619,
      "ia, ": 4620,
      "_R": 4621,
      "ash ": 4622,
      "3D": 4623,
      "feature": 4624,
      "environment ": 4625,
      "Header": 4626,
      "install": 4627,
      "defined(": 4628,
      "Research ": 4629,
      "3f": 4630,
      "s-": 4631,
      "forn": 4632,
      "Pair": 4633,
      "IT_": 4634,
      "fore ": 4635,
      "Cali": 4636,
      "FN": 4637,
      "        // ": 4638,
      "critical ": 4639,
      "site ": 4640,
      ") const": 4641,
      "SH": 4642,
      "Sam": 4643,
      "accur": 4644,
      "c4": 4645,
      "acy ": 4646,
      "Constant": 4647,
      "have the ": 4648,
      "Stor": 4649,
      "inline ": 4650,
      "-1,    ": 4651,
      "vision ": 4652,
      "IX": 4653,
      "market ": 4654,
      "hap": 4655,
      "think": 4656,
      ".get_": 4657,
      "x = ": 4658,
      "ate.</w>": 4659,
      "Label": 4660,
      "output ": 4661,
      "Play": 4662,
      "tistic": 4663,
      "Tag": 4664,
      "stack": 4665,
      "_NO": 4666,
      "range of ": 4667,
      "structure ": 4668,
      "Handl": 4669,
      "alog": 4670,
      "y, the ": 4671,
      "Next": 4672,
      "Au": 4673,
      "respond": 4674,
      "scientist": 4675,
      "away ": 4676,
      "run ": 4677,
      "Sign": 4678,
      "business ": 4679,
      "address ": 4680,
      "insur": 4681,
      "close ": 4682,
      "Californ": 4683,
      "had been ": 4684,
      "IGN": 4685,
      "xy": 4686,
      "channel": 4687,
      "UD": 4688,
      ";\n  }\n  ": 4689,
      "p.": 4690,
      "Height": 4691,
      "(F": 4692,
      "gene": 4693,
      "service ": 4694,
      "high-": 4695,
      "T, ": 4696,
      "        if (": 4697,
      ";\r\n        ": 4698,
      "friend": 4699,
      "ative": 4700,
      "Web": 4701,
      "Remo": 4702,
      "ed at ": 4703,
      "()\n{": 4704,
      "ave ": 4705,
      "far": 4706,
      "it = ": 4707,
      "50 ": 4708,
      "fron": 4709,
      "rather than ": 4710,
      "ations and ": 4711,
      "char *": 4712,
      "opt": 4713,
      "Pal": 4714,
      "es: ": 4715,
      "activiti": 4716,
      "injur": 4717,
      "s of a ": 4718,
      "plas": 4719,
      "explor": 4720,
      "appear": 4721,
      "Row": 4722,
      "bud": 4723,
      "English ": 4724,
      "crimin": 4725,
      "happen": 4726,
      "Tex": 4727,
      "V ": 4728,
      "buff": 4729,
      "; // ": 4730,
      "Name ": 4731,
      "simply ": 4732,
      "Instit": 4733,
      "carri": 4734,
      "ROW": 4735,
      "God ": 4736,
      "percent of ": 4737,
      "ALL": 4738,
      "gen ": 4739,
      "ASSERT(": 4740,
      "exampl": 4741,
      "iddle ": 4742,
      "itch": 4743,
      "%d": 4744,
      "jud": 4745,
      "uary ": 4746,
      "paint": 4747,
      "100 ": 4748,
      "seg": 4749,
      "access to ": 4750,
      "istic ": 4751,
      "write_": 4752,
      "date ": 4753,
      "fish": 4754,
      "Russi": 4755,
      "From ": 4756,
      "peti": 4757,
      "Rom": 4758,
      "nuclear ": 4759,
      "ml": 4760,
      "Lock": 4761,
      "K ": 4762,
      "on_": 4763,
      "___": 4764,
      "ic_": 4765,
      "&& !": 4766,
      "mol": 4767,
      "temperature ": 4768,
      "render": 4769,
      "original ": 4770,
      "does": 4771,
      "arget ": 4772,
      "ated by ": 4773,
      "my ": 4774,
      "%%": 4775,
      "constexpr ": 4776,
      "greater ": 4777,
      "bly ": 4778,
      "hav": 4779,
      "wind": 4780,
      "Build": 4781,
      "autom": 4782,
      "designed to ": 4783,
      "Widget": 4784,
      "env": 4785,
      "roy": 4786,
      "ists ": 4787,
      "Prot": 4788,
      "risk of ": 4789,
      "discover": 4790,
      "cultural ": 4791,
      "       ": 4792,
      "input ": 4793,
      "ines ": 4794,
      "quality ": 4795,
      "\r\n{": 4796,
      "if you ": 4797,
      "habit": 4798,
      ":\n  ": 4799,
      "Level": 4800,
      "ID ": 4801,
      "aa": 4802,
      "typedef ": 4803,
      "lam": 4804,
      "late ": 4805,
      "Fact": 4806,
      "Do": 4807,
      "trig": 4808,
      "ics": 4809,
      "printf(\"": 4810,
      "official": 4811,
      "ingly ": 4812,
      "prior": 4813,
      "},\n    ": 4814,
      "age(": 4815,
      "unsigned int ": 4816,
      "and a ": 4817,
      "yet ": 4818,
      "s that are ": 4819,
      "Server": 4820,
      "existing ": 4821,
      "Register": 4822,
      "evidence ": 4823,
      "RPC": 4824,
      "used in ": 4825,
      "If the ": 4826,
      "normal ": 4827,
      "License": 4828,
      "ll ": 4829,
      "moun": 4830,
      "add ": 4831,
      "members ": 4832,
      "Il2C": 4833,
      "Il2Cpp": 4834,
      "Aut": 4835,
      "compar": 4836,
      "argv": 4837,
      "keep": 4838,
      "ov": 4839,
      "table ": 4840,
      "essential ": 4841,
      "y = ": 4842,
      "so that ": 4843,
      "OU": 4844,
      "death": 4845,
      "MAX": 4846,
      "occ": 4847,
      "In this ": 4848,
      "population ": 4849,
      "Te": 4850,
      "move ": 4851,
      "innov": 4852,
      ");\n    }\n\n    ": 4853,
      "ifi": 4854,
      "avoid ": 4855,
      "sg": 4856,
      "dir": 4857,
      "llvm::": 4858,
      ")) ": 4859,
      "shown ": 4860,
      "observ": 4861,
      "face ": 4862,
      "compared ": 4863,
      ";\n    if (": 4864,
      "British ": 4865,
      "Asi": 4866,
      "ric ": 4867,
      "Amoun": 4868,
      "1_": 4869,
      "cra": 4870,
      "strong ": 4871,
      "feed": 4872,
      "e0": 4873,
      "assist": 4874,
      "deriv": 4875,
      "citizen": 4876,
      "smo": 4877,
      "Provid": 4878,
      "distribu": 4879,
      "sensi": 4880,
      "\n\t\t\t\t\t": 4881,
      "content": 4882,
      "e of a ": 4883,
      "heav": 4884,
      "correc": 4885,
      "gam": 4886,
      "long-": 4887,
      "scientific ": 4888,
      "in-": 4889,
      "improv": 4890,
      "arily ": 4891,
      "RAN": 4892,
      "pay ": 4893,
      "who are ": 4894,
      ")\n\t{\n\t\t": 4895,
      "argument": 4896,
      "ATION": 4897,
      "; i++": 4898,
      "{}": 4899,
      "utf32": 4900,
      ";\n    case ": 4901,
      "ure, ": 4902,
      "if( ": 4903,
      "region ": 4904,
      "initializ": 4905,
      "central ": 4906,
      "hund": 4907,
      "us.</w>": 4908,
      "psych": 4909,
      "legis": 4910,
      "select": 4911,
      "m_p": 4912,
      "tun": 4913,
      "std::endl": 4914,
      "squ": 4915,
      "commit": 4916,
      ";\r\n  ": 4917,
      "took ": 4918,
      "Line": 4919,
      "1f": 4920,
      "\"\n        ": 4921,
      "God": 4922,
      "URE": 4923,
      "QU": 4924,
      "8, ": 4925,
      "house ": 4926,
      "death ": 4927,
      "stream ": 4928,
      "Over": 4929,
      "\n#if ": 4930,
      "ctx": 4931,
      "held ": 4932,
      "Info ": 4933,
      "device": 4934,
      "univers": 4935,
      "VM": 4936,
      "cb": 4937,
      "er is ": 4938,
      "ap ": 4939,
      "se.</w>": 4940,
      "desc": 4941,
      "vtk": 4942,
      "* p": 4943,
      ":\n      ": 4944,
      "status ": 4945,
      "War ": 4946,
      "unch": 4947,
      "image ": 4948,
      "monitor": 4949,
      "append": 4950,
      "Yor": 4951,
      "room ": 4952,
      "altern": 4953,
      "achiev": 4954,
      "patient": 4955,
      "constit": 4956,
      "bio": 4957,
      "researchers ": 4958,
      "chur": 4959,
      "cult": 4960,
      "extrem": 4961,
      "taking ": 4962,
      "mas": 4963,
      "to make ": 4964,
      "solar ": 4965,
      "developing ": 4966,
      "property ": 4967,
      "as an ": 4968,
      "near ": 4969,
      "estin": 4970,
      "[1": 4971,
      "EXPECT_TRUE(": 4972,
      "Lear": 4973,
      "income ": 4974,
      "some of the ": 4975,
      "sing ": 4976,
      "and/": 4977,
      "stem ": 4978,
      "concentr": 4979,
      "74": 4980,
      "dog": 4981,
      "icul": 4982,
      "dang": 4983,
      "Tur": 4984,
      "top ": 4985,
      "transfer": 4986,
      "adj": 4987,
      "life.</w>": 4988,
      "Script": 4989,
      "PR": 4990,
      "_NAM": 4991,
      "ed to be ": 4992,
      "bodi": 4993,
      "quick": 4994,
      "Lat": 4995,
      "f, 0.": 4996,
      "79": 4997,
      "shared_ptr": 4998,
      "Shap": 4999,
      "itect": 5000,
      "Last": 5001,
      "vit": 5002,
      "\n\t\t\t\t\t\t": 5003,
      "ource ": 5004,
      "later ": 5005,
      "User": 5006,
      "whole ": 5007,
      "Find": 5008,
      "Scop": 5009,
      ") << \"": 5010,
      "His ": 5011,
      "Attr": 5012,
      "Decl": 5013,
      "short ": 5014,
      "side": 5015,
      "leader": 5016,
      "ality ": 5017,
      "Exception": 5018,
      "studies ": 5019,
      "onic ": 5020,
      "seem": 5021,
      ",2": 5022,
      "ict": 5023,
      "believ": 5024,
      "current_": 5025,
      "likely to ": 5026,
      ") const ": 5027,
      "FL": 5028,
      "ist of ": 5029,
      "question": 5030,
      "59": 5031,
      "ing with ": 5032,
      "adult": 5033,
      "utf32_rang": 5034,
      "others ": 5035,
      "subject ": 5036,
      ")) {\n        ": 5037,
      "rot": 5038,
      "Tw": 5039,
      "i.": 5040,
      "transaction": 5041,
      "(D": 5042,
      "node->": 5043,
      ".0), SC_(": 5044,
      "le, ": 5045,
      "Go": 5046,
      "sus": 5047,
      "IGH": 5048,
      "Department of ": 5049,
      "AV": 5050,
      "notic": 5051,
      "prop": 5052,
      "manufactur": 5053,
      "Port": 5054,
      "connection": 5055,
      "sigh": 5056,
      "ause of ": 5057,
      "government": 5058,
      "rights ": 5059,
      "ably ": 5060,
      "while (": 5061,
      "we are ": 5062,
      "try ": 5063,
      "entire ": 5064,
      "3d": 5065,
      "d = ": 5066,
      "Send": 5067,
      "lack ": 5068,
      "ITH": 5069,
      "elect": 5070,
      "v8::": 5071,
      "raw ": 5072,
      "s.push_back(": 5073,
      "require ": 5074,
      "patch": 5075,
      "wis": 5076,
      "commer": 5077,
      "sn": 5078,
      "threat": 5079,
      "send": 5080,
      "ush ": 5081,
      "At ": 5082,
      ": The ": 5083,
      "she": 5084,
      "ER_": 5085,
      "Attribut": 5086,
      "Vir": 5087,
      "Version": 5088,
      "unic": 5089,
      "== \"": 5090,
      "directly ": 5091,
      "advant": 5092,
      "(N": 5093,
      "tiliz": 5094,
      "alg": 5095,
      "doesn't ": 5096,
      "poly": 5097,
      "infra": 5098,
      ";\n}\n\nvoid ": 5099,
      "(r": 5100,
      "ale ": 5101,
      "subject": 5102,
      "Fren": 5103,
      "activity ": 5104,
      "foreign ": 5105,
      "examin": 5106,
      "info.": 5107,
      "V_": 5108,
      "BUG": 5109,
      "END": 5110,
      "g_type": 5111,
      "sync": 5112,
      "positive ": 5113,
      "atter": 5114,
      "bacter": 5115,
      "creating ": 5116,
      "84": 5117,
      "Coin": 5118,
      "trac": 5119,
      "*/\n    ": 5120,
      "Sup": 5121,
      "es/": 5122,
      "or a ": 5123,
      "AND": 5124,
      "orith": 5125,
      "_ = ": 5126,
      "difi": 5127,
      "89": 5128,
      "currently ": 5129,
      "amount": 5130,
      "complex ": 5131,
      "bed": 5132,
      "star": 5133,
      "loop": 5134,
      "ger ": 5135,
      "decl": 5136,
      "result = ": 5137,
      "FAL": 5138,
      "or to ": 5139,
      "ating the ": 5140,
      "ing from ": 5141,
      "broad": 5142,
      "();\n}\n\n": 5143,
      "inval": 5144,
      "///": 5145,
      "includes ": 5146,
      "s at ": 5147,
      "54": 5148,
      "{\n": 5149,
      "enter": 5150,
      "License ": 5151,
      "PAR": 5152,
      "to-": 5153,
      "auth": 5154,
      "ocol": 5155,
      "additional ": 5156,
      "DefinitionSize": 5157,
      "reserv": 5158,
      "volum": 5159,
      "datab": 5160,
      "etc": 5161,
      "six ": 5162,
      "confl": 5163,
      "conven": 5164,
      "Dial": 5165,
      "ustic": 5166,
      "did not ": 5167,
      "x::": 5168,
      "arr": 5169,
      "adap": 5170,
      "pet": 5171,
      "brow": 5172,
      "pain ": 5173,
      "Dim": 5174,
      "educational ": 5175,
      "safety ": 5176,
      "Tem": 5177,
      "memor": 5178,
      "BB": 5179,
      "ai": 5180,
      "EV": 5181,
      "int32_t ": 5182,
      "clud": 5183,
      "First": 5184,
      "tu": 5185,
      "ition ": 5186,
      "valid ": 5187,
      "OW": 5188,
      "Heap": 5189,
      "76": 5190,
      "unique ": 5191,
      "{\n  ": 5192,
      "whose ": 5193,
      "tl": 5194,
      "delete ": 5195,
      "atom": 5196,
      "Phys": 5197,
      "Transform": 5198,
      "ANY ": 5199,
      "bd": 5200,
      "offer": 5201,
      "reason ": 5202,
      "7, ": 5203,
      "TT": 5204,
      "mix": 5205,
      "Back": 5206,
      "Transaction": 5207,
      "agric": 5208,
      "development of ": 5209,
      "y is ": 5210,
      "ich": 5211,
      "actions ": 5212,
      "its": 5213,
      "scen": 5214,
      "chemical ": 5215,
      "generally ": 5216,
      "Mus": 5217,
      "want": 5218,
      "Environ": 5219,
      "cannot ": 5220,
      "counter": 5221,
      "FO": 5222,
      "TUR": 5223,
      "ium ": 5224,
      "EG": 5225,
      "->m_": 5226,
      "ared ": 5227,
      ", int ": 5228,
      ".  ": 5229,
      "_TYP": 5230,
      "s such as ": 5231,
      "load ": 5232,
      "-1, -1, ": 5233,
      "Because ": 5234,
      "params.": 5235,
      "in order to ": 5236,
      "shar": 5237,
      "the most ": 5238,
      "mean ": 5239,
      "2f": 5240,
      "Access": 5241,
      "Jes": 5242,
      "()) {\n    ": 5243,
      "ride": 5244,
      "Comput": 5245,
      "camer": 5246,
      "thus ": 5247,
      "ee": 5248,
      "GB": 5249,
      "direct ": 5250,
      "ather ": 5251,
      "Do ": 5252,
      "strong": 5253,
      "- 1": 5254,
      "dail": 5255,
      "MS": 5256,
      "in.</w>": 5257,
      "custom": 5258,
      "we can ": 5259,
      "maxim": 5260,
      "10, ": 5261,
      "protect": 5262,
      "immedi": 5263,
      "turn": 5264,
      "vision": 5265,
      "7., ": 5266,
      "anti-": 5267,
      "s will ": 5268,
      "third ": 5269,
      "py": 5270,
      "Medic": 5271,
      "base ": 5272,
      "ff ": 5273,
      "Bool": 5274,
      "cout << \"": 5275,
      "(k": 5276,
      "Dom": 5277,
      "lib": 5278,
      "ACK": 5279,
      "aid ": 5280,
      "data.": 5281,
      "thousand": 5282,
      "brid": 5283,
      "photo": 5284,
      "things ": 5285,
      "ation for ": 5286,
      "ean ": 5287,
      "Has": 5288,
      "atures": 5289,
      "preh": 5290,
      "Token": 5291,
      "ections ": 5292,
      "Sha": 5293,
      "source": 5294,
      "shared_ptr<": 5295,
      "+ 1": 5296,
      "ection of ": 5297,
      "upon ": 5298,
      "via ": 5299,
      "IN ": 5300,
      "them to ": 5301,
      "they were ": 5302,
      "earli": 5303,
      "receive ": 5304,
      "reinterpret": 5305,
      "}\n\n    // ": 5306,
      "DEC": 5307,
      "promis": 5308,
      "(3": 5309,
      "Low": 5310,
      "form of ": 5311,
      "SU": 5312,
      "and/or ": 5313,
      "ses ": 5314,
      "identify ": 5315,
      "56": 5316,
      "LIC": 5317,
      "endi": 5318,
      "Struc": 5319,
      "auto& ": 5320,
      "across ": 5321,
      "ean": 5322,
      "WOR": 5323,
      "Det": 5324,
      "University of ": 5325,
      "();\n": 5326,
      "for (auto ": 5327,
      ".\n        ": 5328,
      "ing on ": 5329,
      "New Yor": 5330,
      "exception": 5331,
      "Dialog": 5332,
      "return 0": 5333,
      "properti": 5334,
      "enabl": 5335,
      "ER ": 5336,
      "uni": 5337,
      "years, ": 5338,
      "spl": 5339,
      "uint64_t ": 5340,
      "dol": 5341,
      ", p": 5342,
      "rup": 5343,
      "uments ": 5344,
      "Wil": 5345,
      "Test, ": 5346,
      "By": 5347,
      "fem": 5348,
      "et.</w>": 5349,
      "Non": 5350,
      "ent to ": 5351,
      "Position": 5352,
      "token": 5353,
      "ons ": 5354,
      "Associ": 5355,
      "search": 5356,
      "specific": 5357,
      "Pool": 5358,
      "digital ": 5359,
      "gard": 5360,
      "International ": 5361,
      "really ": 5362,
      "()) ": 5363,
      "},\n": 5364,
      "rain": 5365,
      "symbol": 5366,
      "used for ": 5367,
      "historical ": 5368,
      "_text": 5369,
      "believe ": 5370,
      "Vec": 5371,
      "*p": 5372,
      "the first ": 5373,
      "clean": 5374,
      "a.": 5375,
      "le_": 5376,
      "es with ": 5377,
      "gradu": 5378,
      "restric": 5379,
      "scap": 5380,
      "\n/// ": 5381,
      "ards ": 5382,
      "ES ": 5383,
      "life": 5384,
      "Update": 5385,
      "web": 5386,
      "Oc": 5387,
      "drug ": 5388,
      "Task": 5389,
      "ounc": 5390,
      "ilos": 5391,
      "it_": 5392,
      "Wat": 5393,
      "iterator": 5394,
      "Childr": 5395,
      "er for ": 5396,
      "win": 5397,
      "andid": 5398,
      "ENT_": 5399,
      "xmm": 5400,
      "es or ": 5401,
      "rich ": 5402,
      "ation(": 5403,
      "carbon ": 5404,
      "Conver": 5405,
      "13 ": 5406,
      "EQUAL": 5407,
      "ense ": 5408,
      "th and ": 5409,
      "(f": 5410,
      "device ": 5411,
      "fru": 5412,
      "production ": 5413,
      "ters ": 5414,
      "well-": 5415,
      "Layout": 5416,
      "appropriate ": 5417,
      "z ": 5418,
      "Track": 5419,
      "families ": 5420,
      "More ": 5421,
      "os ": 5422,
      "veget": 5423,
      "incom": 5424,
      "million": 5425,
      "pain": 5426,
      "surface ": 5427,
      ", in ": 5428,
      "ia.</w>": 5429,
      "straint": 5430,
      "ed in a ": 5431,
      "rest": 5432,
      "ponent": 5433,
      "ance and ": 5434,
      "VERSION": 5435,
      "als.</w>": 5436,
      "companies ": 5437,
      "'ll ": 5438,
      "N ": 5439,
      "use the ": 5440,
      "today ": 5441,
      "Israel": 5442,
      "allows ": 5443,
      "acqu": 5444,
      "type = ": 5445,
      "reve": 5446,
      "Counc": 5447,
      "Set ": 5448,
      "those who ": 5449,
      "A, ": 5450,
      "however, ": 5451,
      "display": 5452,
      "feel ": 5453,
      "     0,     0,": 5454,
      "text ": 5455,
      "damage ": 5456,
      "big ": 5457,
      "Pack": 5458,
      "Af": 5459,
      "For example, ": 5460,
      "Cell": 5461,
      "dw": 5462,
      "idx": 5463,
      "//--------": 5464,
      "n = ": 5465,
      "event ": 5466,
      "water": 5467,
      "uint32_t": 5468,
      "house": 5469,
      "(_": 5470,
      "param ": 5471,
      "out_": 5472,
      "Even ": 5473,
      "Cha": 5474,
      "ba": 5475,
      "academic ": 5476,
      "Y, ": 5477,
      "at's ": 5478,
      "Argument": 5479,
      "ptr<": 5480,
      "\n    if (": 5481,
      "School ": 5482,
      "Enti": 5483,
      "tox": 5484,
      "turn ": 5485,
      "approach": 5486,
      "explain": 5487,
      "Each ": 5488,
      "decad": 5489,
      "Builder": 5490,
      "(0)": 5491,
      "height ": 5492,
      "Size ": 5493,
      "Polic": 5494,
      "Name(": 5495,
      "message": 5496,
      "ing their ": 5497,
      "Mis": 5498,
      "TRAN": 5499,
      "const int ": 5500,
      "meet ": 5501,
      "occup": 5502,
      "Jan": 5503,
      "a = ": 5504,
      "extern": 5505,
      "compil": 5506,
      "Right": 5507,
      "\n              ": 5508,
      "highly ": 5509,
      "politic": 5510,
      "}\n\n  // ": 5511,
      ", as ": 5512,
      "ocket": 5513,
      "University ": 5514,
      ") = ": 5515,
      "Tra": 5516,
      "o_": 5517,
      "xx": 5518,
      "edg": 5519,
      ": \"": 5520,
      "less than ": 5521,
      "benefit": 5522,
      "pas": 5523,
      "itself ": 5524,
      "write ": 5525,
      "Object ": 5526,
      "cris": 5527,
      ")*": 5528,
      "by": 5529,
      "helps ": 5530,
      "atively ": 5531,
      "benefit ": 5532,
      "paper ": 5533,
      ", n": 5534,
      "Initializ": 5535,
      " < ": 5536,
      "1, 0x": 5537,
      "as_": 5538,
      "Contain": 5539,
      "f_": 5540,
      "req": 5541,
      "difference ": 5542,
      "Secon": 5543,
      "share ": 5544,
      "ERN": 5545,
      "iver ": 5546,
      "oil": 5547,
      "dit ": 5548,
      "le.</w>": 5549,
      "full": 5550,
      "else\n        ": 5551,
      "AIL": 5552,
      "crim": 5553,
      "architect": 5554,
      "gy": 5555,
      "it->": 5556,
      "ement.</w>": 5557,
      "bably ": 5558,
      "responsible ": 5559,
      "pix": 5560,
      "URL": 5561,
      "Hol": 5562,
      "fall ": 5563,
      "\\x": 5564,
      "_L": 5565,
      "immigr": 5566,
      "i::": 5567,
      "ET_": 5568,
      "La": 5569,
      "Sty": 5570,
      "affect ": 5571,
      "speak": 5572,
      "aging ": 5573,
      "frag": 5574,
      "providing ": 5575,
      "one.</w>": 5576,
      "TRAC": 5577,
      "Hum": 5578,
      "No ": 5579,
      "ouse": 5580,
      "complete ": 5581,
      "target ": 5582,
      "3,": 5583,
      "societ": 5584,
      "user": 5585,
      "entially ": 5586,
      "dynamic": 5587,
      "instanc": 5588,
      "ror": 5589,
      "es = ": 5590,
      "access ": 5591,
      "t in ": 5592,
      "ers in ": 5593,
      "employe": 5594,
      "s. ": 5595,
      "\n//\n// ": 5596,
      "output_": 5597,
      "Softw": 5598,
      "Students ": 5599,
      "recommend": 5600,
      "align": 5601,
      "John ": 5602,
      "write": 5603,
      "set of ": 5604,
      "________": 5605,
      "(int": 5606,
      "transl": 5607,
      ")->": 5608,
      "grow ": 5609,
      "shad": 5610,
      "progres": 5611,
      "visit": 5612,
      "abet": 5613,
      "ies": 5614,
      "beh": 5615,
      "an and ": 5616,
      "DE_": 5617,
      "throughout the ": 5618,
      "approxim": 5619,
      "Av": 5620,
      "we have ": 5621,
      "ancient ": 5622,
      "religious ": 5623,
      ")\n  {\n    ": 5624,
      "mad": 5625,
      "Obam": 5626,
      "TYPE_": 5627,
      "CM": 5628,
      "property": 5629,
      "summ": 5630,
      "Devel": 5631,
      "aged ": 5632,
      "cipl": 5633,
      "seek": 5634,
      "commerci": 5635,
      "Cour": 5636,
      "descrip": 5637,
      "},\n        ": 5638,
      "previous ": 5639,
      "Ma": 5640,
      "instead ": 5641,
      "pil": 5642,
      "dimension": 5643,
      "vertex": 5644,
      "parent ": 5645,
      "Cache": 5646,
      "())\n    ": 5647,
      "poor ": 5648,
      "(b": 5649,
      "FNGL": 5650,
      "democ": 5651,
      "dc": 5652,
      "mind": 5653,
      "Prim": 5654,
      "es on ": 5655,
      "It was ": 5656,
      "algorith": 5657,
      "bul": 5658,
      "conserv": 5659,
      "(T": 5660,
      "ed under the ": 5661,
      "in 200": 5662,
      "bey": 5663,
      "serve ": 5664,
      "prepa": 5665,
      "component": 5666,
      "hood ": 5667,
      "mid": 5668,
      "Inte": 5669,
      "ify": 5670,
      "screen": 5671,
      "hydro": 5672,
      "ity of the ": 5673,
      "mask": 5674,
      ".set": 5675,
      "transport": 5676,
      "white ": 5677,
      "patient ": 5678,
      "coordin": 5679,
      "const char* ": 5680,
      "[j": 5681,
      "fat": 5682,
      "serious ": 5683,
      "meet": 5684,
      "compos": 5685,
      "4.": 5686,
      "rever": 5687,
      "quanti": 5688,
      "OB": 5689,
      "execut": 5690,
      ",\n\t": 5691,
      "v = ": 5692,
      "tabl": 5693,
      "ed that the ": 5694,
      "COP": 5695,
      "gress ": 5696,
      "or, ": 5697,
      "day.</w>": 5698,
      "_UN": 5699,
      "ones ": 5700,
      "zer": 5701,
      "_test": 5702,
      "Mac": 5703,
      "schem": 5704,
      "als, ": 5705,
      "below ": 5706,
      "\n}\n\n": 5707,
      "clinical ": 5708,
      "As a ": 5709,
      "begin ": 5710,
      "schol": 5711,
      "online ": 5712,
      "world's ": 5713,
      "w.": 5714,
      "pic": 5715,
      "TRI": 5716,
      "[3": 5717,
      "extern const ": 5718,
      "surround": 5719,
      "French ": 5720,
      "of these ": 5721,
      "() const": 5722,
      "probably ": 5723,
      "using the ": 5724,
      "const_": 5725,
      "bc": 5726,
      "yl": 5727,
      "<int": 5728,
      "ations": 5729,
      "ior ": 5730,
      "k_": 5731,
      "before the ": 5732,
      "it to ": 5733,
      "Tree": 5734,
      "discipl": 5735,
      "modul": 5736,
      "offer ": 5737,
      "AST": 5738,
      "sq": 5739,
      ".c_str": 5740,
      "Name, ": 5741,
      "migr": 5742,
      "ete": 5743,
      "(Q": 5744,
      "Error ": 5745,
      "domin": 5746,
      "rates ": 5747,
      "ouse ": 5748,
      "ings.</w>": 5749,
      "ed out ": 5750,
      "=\n      ": 5751,
      "Manager": 5752,
      "s that the ": 5753,
      "conditions ": 5754,
      "! ": 5755,
      "Canad": 5756,
      "Enum": 5757,
      "story ": 5758,
      "XX": 5759,
      "though": 5760,
      "typically ": 5761,
      "repe": 5762,
      "parameter": 5763,
      "a is ": 5764,
      "ation, and ": 5765,
      "because of ": 5766,
      "<float,2": 5767,
      "31": 5768,
      "Bind": 5769,
      "ceed": 5770,
      "<float,2>{": 5771,
      "shader": 5772,
      "known as ": 5773,
      "},\nstd::array": 5774,
      "clou": 5775,
      "args.": 5776,
      ".is": 5777,
      "Record": 5778,
      "Wash": 5779,
      "temp": 5780,
      "result_": 5781,
      "Chinese ": 5782,
      "copy ": 5783,
      "developed ": 5784,
      "Setting": 5785,
      "Layer": 5786,
      "Def": 5787,
      "override": 5788,
      "seas": 5789,
      "normaliz": 5790,
      "due ": 5791,
      "feel": 5792,
      "increasing ": 5793,
      "a0": 5794,
      "VALID": 5795,
      "ogle": 5796,
      "business": 5797,
      "most": 5798,
      "or.</w>": 5799,
      "() << ": 5800,
      "_h": 5801,
      "bird": 5802,
      "gi": 5803,
      "known": 5804,
      "AND ": 5805,
      "principl": 5806,
      "Manager::": 5807,
      "low-": 5808,
      "daily ": 5809,
      "Entity": 5810,
      "vin": 5811,
      ", D": 5812,
      "Techn": 5813,
      "years ag": 5814,
      "transi": 5815,
      "offers ": 5816,
      "las": 5817,
      "The first ": 5818,
      "ING ": 5819,
      "Quer": 5820,
      "14 ": 5821,
      "it the ": 5822,
      "key_": 5823,
      "ail ": 5824,
      "molec": 5825,
      "::M": 5826,
      "heap": 5827,
      "rely ": 5828,
      "served ": 5829,
      "from_": 5830,
      "fuel ": 5831,
      "(str": 5832,
      "b0": 5833,
      "ech ": 5834,
      "ave": 5835,
      "Har": 5836,
      "hr": 5837,
      "filen": 5838,
      "body": 5839,
      "cach": 5840,
      "by a ": 5841,
      "Dr. ": 5842,
      "gar": 5843,
      "Are": 5844,
      "ss": 5845,
      "zero": 5846,
      "matter ": 5847,
      "SIL": 5848,
      "sched": 5849,
      "protein ": 5850,
      "ures ": 5851,
      "G ": 5852,
      "THROW": 5853,
      "uly ": 5854,
      "ILIT": 5855,
      "relationship ": 5856,
      "Eff": 5857,
      "Inv": 5858,
      "Bi": 5859,
      "clust": 5860,
      "data, ": 5861,
      "possible": 5862,
      "sometimes ": 5863,
      "maintain": 5864,
      "Check ": 5865,
      "http://": 5866,
      "list of ": 5867,
      "k, ": 5868,
      "f8": 5869,
      "ed or ": 5870,
      "insert(": 5871,
      "parents ": 5872,
      "attach": 5873,
      "Pat": 5874,
      "concep": 5875,
      "Tool": 5876,
      "ensi": 5877,
      "popular ": 5878,
      "fundam": 5879,
      "in an ": 5880,
      "Address(": 5881,
      "compreh": 5882,
      "concept": 5883,
      "Pub": 5884,
      "th of ": 5885,
      "porary ": 5886,
      "toward ": 5887,
      "fish ": 5888,
      "able.</w>": 5889,
      "Exam": 5890,
      "a few ": 5891,
      "him ": 5892,
      "[\"": 5893,
      "fav": 5894,
      "longer ": 5895,
      "surger": 5896,
      "ine, ": 5897,
      "systems ": 5898,
      "children": 5899,
      "amin ": 5900,
      "located ": 5901,
      "unique_": 5902,
      "ED_": 5903,
      "sequenc": 5904,
      "Mesh": 5905,
      "how the ": 5906,
      "Descript": 5907,
      "since the ": 5908,
      "_ERROR": 5909,
      "Fix": 5910,
      "tensor": 5911,
      "ipp": 5912,
      "regular ": 5913,
      " and the ": 5914,
      "[2]": 5915,
      "8., ": 5916,
      "ing or ": 5917,
      ": public ": 5918,
      "pointer": 5919,
      "nur": 5920,
      "Vol": 5921,
      "Develop": 5922,
      "Bin": 5923,
      "elimin": 5924,
      "\r\n\t\t\t": 5925,
      "e for ": 5926,
      ");\r\n    ": 5927,
      "Journ": 5928,
      "depart": 5929,
      "PL": 5930,
      "Arab": 5931,
      "response": 5932,
      "born ": 5933,
      "Anim": 5934,
      "is also ": 5935,
      "Clo": 5936,
      "\\n\"\n      \"": 5937,
      "KE": 5938,
      "titud": 5939,
      "ify ": 5940,
      "issues ": 5941,
      "Sm": 5942,
      "because the ": 5943,
      "std::string& ": 5944,
      "media ": 5945,
      "switch": 5946,
      "Callback": 5947,
      "IMP": 5948,
      "ili": 5949,
      "<<<<": 5950,
      "neighbor": 5951,
      "traff": 5952,
      "\n\n#include \"": 5953,
      "18 ": 5954,
      "\n\nnamespace ": 5955,
      "First ": 5956,
      "arch ": 5957,
      "tel": 5958,
      "driver": 5959,
      "Null": 5960,
      "to help ": 5961,
      "VERIF": 5962,
      "amm": 5963,
      "presents ": 5964,
      "Part": 5965,
      "\n\n// ": 5966,
      "'ve ": 5967,
      "(0, ": 5968,
      "brief ": 5969,
      "modif": 5970,
      "mapp": 5971,
      "stimul": 5972,
      "[i].": 5973,
      "Bound": 5974,
      "SC": 5975,
      "ess, ": 5976,
      "marri": 5977,
      ") {\n\t": 5978,
      "> 0": 5979,
      "proper ": 5980,
      "that they ": 5981,
      "suffer": 5982,
      "temperature": 5983,
      "Cmd": 5984,
      "card": 5985,
      "ate and ": 5986,
      "paramet": 5987,
      "Americans ": 5988,
      "CAS": 5989,
      "Nav": 5990,
      "analyz": 5991,
      "size, ": 5992,
      "exercis": 5993,
      "the same ": 5994,
      ");\n   ": 5995,
      "Washing": 5996,
      "getting ": 5997,
      "!= NULL": 5998,
      "expected ": 5999,
      "et, ": 6000,
      "yy": 6001,
      "black ": 6002,
      "(void": 6003,
      "led ": 6004,
      "lack of ": 6005,
      "WITH": 6006,
      "movement ": 6007,
      ".Set": 6008,
      "collabor": 6009,
      "create a ": 6010,
      "ent of ": 6011,
      "arri": 6012,
      "weap": 6013,
      "Content": 6014,
      "record ": 6015,
      "();\n\n    ": 6016,
      "SQ": 6017,
      "uck": 6018,
      "termin": 6019,
      "said.</w>": 6020,
      "wall": 6021,
      "electric": 6022,
      "recogniz": 6023,
      "er in ": 6024,
      "ing your ": 6025,
      "overall ": 6026,
      "99999999": 6027,
      "thousands of ": 6028,
      "hon": 6029,
      "year, ": 6030,
      "operating ": 6031,
      "(x": 6032,
      "responsibil": 6033,
      "t of the ": 6034,
      "olic ": 6035,
      "relev": 6036,
      "map_": 6037,
      "4,": 6038,
      "Aug": 6039,
      "total": 6040,
      "size = ": 6041,
      "ates the ": 6042,
      "Bod": 6043,
      "std::make_": 6044,
      "Inform": 6045,
      "Georg": 6046,
      "id_": 6047,
      "than the ": 6048,
      "performance ": 6049,
      "5.": 6050,
      "seed": 6051,
      "color ": 6052,
      "ilosoph": 6053,
      "IS ": 6054,
      "agenci": 6055,
      "ated.</w>": 6056,
      "African ": 6057,
      "behind ": 6058,
      "reference ": 6059,
      "Secur": 6060,
      ") && ": 6061,
      "company ": 6062,
      ")\n": 6063,
      "useful ": 6064,
      "knowledge ": 6065,
      "you are ": 6066,
      "EA": 6067,
      "reach ": 6068,
      "sed": 6069,
      "ers of ": 6070,
      "rist": 6071,
      "std::move(": 6072,
      "astern ": 6073,
      "team": 6074,
      "9, ": 6075,
      "range ": 6076,
      "Sch": 6077,
      "vacc": 6078,
      "one, ": 6079,
      "Mark": 6080,
      "WARRAN": 6081,
      "negative ": 6082,
      "(H": 6083,
      "Pass": 6084,
      "0,000 ": 6085,
      "relationship": 6086,
      "-20": 6087,
      "pul": 6088,
      "account ": 6089,
      "level of ": 6090,
      "Public ": 6091,
      "agricul": 6092,
      "ane ": 6093,
      ".n": 6094,
      "Pa": 6095,
      "internal ": 6096,
      "(B": 6097,
      "ic, ": 6098,
      "So": 6099,
      "West ": 6100,
      "example ": 6101,
      "ay, ": 6102,
      "board ": 6103,
      "Nov": 6104,
      "interven": 6105,
      "mutex": 6106,
      "oral ": 6107,
      "value, ": 6108,
      "depth": 6109,
      "cv": 6110,
      ");\n}\n": 6111,
      "al-": 6112,
      "ization ": 6113,
      "Parse": 6114,
      "s which ": 6115,
      "There": 6116,
      "Chur": 6117,
      "weak": 6118,
      "Draw": 6119,
      "cou": 6120,
      "ez": 6121,
      "hun": 6122,
      "enu": 6123,
      "== 0": 6124,
      "Pix": 6125,
      "Sou": 6126,
      "impact": 6127,
      "GR": 6128,
      "hi": 6129,
      "although ": 6130,
      "Orig": 6131,
      "consider ": 6132,
      "40 ": 6133,
      "Nod": 6134,
      "mort": 6135,
      ")) {": 6136,
      ", false": 6137,
      "insul": 6138,
      "Select": 6139,
      "Use": 6140,
      "Pop": 6141,
      "_TES": 6142,
      "thought ": 6143,
      "access": 6144,
      "()) {": 6145,
      "}\n}\n\nvoid ": 6146,
      "According to ": 6147,
      "Japan": 6148,
      "cook": 6149,
      "Not ": 6150,
      "Soc": 6151,
      "in 20": 6152,
      "categ": 6153,
      "nar": 6154,
      "colon": 6155,
      "Lim": 6156,
      "e8": 6157,
      "with an ": 6158,
      "doctor": 6159,
      "memory": 6160,
      "Use ": 6161,
      "adop": 6162,
      "suffici": 6163,
      "fire": 6164,
      "message ": 6165,
      "road ": 6166,
      ";\n   ": 6167,
      "ing an ": 6168,
      "lead to ": 6169,
      "ToString": 6170,
      "Tensor": 6171,
      ";\nextern const ": 6172,
      "false ": 6173,
      "services ": 6174,
      "theory ": 6175,
      "Location": 6176,
      "uint8_t ": 6177,
      "include": 6178,
      "easily ": 6179,
      "that a ": 6180,
      "home": 6181,
      "uint8_t": 6182,
      "etch": 6183,
      "ence and ": 6184,
      "vot": 6185,
      "nd": 6186,
      "image": 6187,
      "assum": 6188,
      "data_": 6189,
      "training ": 6190,
      "version ": 6191,
      "(c) ": 6192,
      "Ptr ": 6193,
      "random": 6194,
      "a4": 6195,
      "rati": 6196,
      "ply": 6197,
      "element ": 6198,
      "_SIZ": 6199,
      "--------------": 6200,
      "ed with the ": 6201,
      "phone ": 6202,
      ";\n          ": 6203,
      "volun": 6204,
      "entr": 6205,
      "decision ": 6206,
      "ock ": 6207,
      "industry ": 6208,
      "kind of ": 6209,
      "General ": 6210,
      "Scene": 6211,
      ");\n  if (": 6212,
      ".Is": 6213,
      "brought ": 6214,
      "animal ": 6215,
      "\";\n    ": 6216,
      "nature ": 6217,
      "purch": 6218,
      "[]": 6219,
      "builder": 6220,
      "distinc": 6221,
      "Msg": 6222,
      "198": 6223,
      "Params": 6224,
      "close": 6225,
      "5,": 6226,
      "and other ": 6227,
      "aspect": 6228,
      "health care ": 6229,
      "o::": 6230,
      ", C": 6231,
      "TEST(": 6232,
      "adata": 6233,
      "requires ": 6234,
      "1d": 6235,
      "Child": 6236,
      "important to ": 6237,
      "ed into ": 6238,
      "Connection": 6239,
      "return \"": 6240,
      "ptor": 6241,
      "last_": 6242,
      "25 ": 6243,
      "simpl": 6244,
      "Your ": 6245,
      "pal": 6246,
      "a5": 6247,
      "];\n    ": 6248,
      "licen": 6249,
      "people.</w>": 6250,
      "::get_": 6251,
      "2D": 6252,
      "exic": 6253,
      "))*": 6254,
      "Wal": 6255,
      "Refer": 6256,
      "Symbol": 6257,
      "ouble": 6258,
      "umul": 6259,
      "s in a ": 6260,
      "}\n    }\n    ": 6261,
      "MM": 6262,
      "ured ": 6263,
      "raq": 6264,
      "section": 6265,
      "explo": 6266,
      "they": 6267,
      "Sing": 6268,
      "Help": 6269,
      "(false": 6270,
      "_util": 6271,
      "protection ": 6272,
      "Size(": 6273,
      "] + ": 6274,
      "}\n    }\n\n    ": 6275,
      "Column": 6276,
      "g.": 6277,
      "absor": 6278,
      "Width": 6279,
      ") != ": 6280,
      "pregn": 6281,
      "error_": 6282,
      "Iraq": 6283,
      "result.": 6284,
      "_FOR": 6285,
      "freed": 6286,
      "\r\n      ": 6287,
      "kernel": 6288,
      "levels of ": 6289,
      "ings, ": 6290,
      "competi": 6291,
      "institution": 6292,
      "ed from the ": 6293,
      "Response": 6294,
      "{\r\n        ": 6295,
      "Sept": 6296,
      "endif ": 6297,
      "a-": 6298,
      "er of the ": 6299,
      "cf": 6300,
      "etary ": 6301,
      "lip": 6302,
      "un ": 6303,
      "legisl": 6304,
      "civil ": 6305,
      "=\n        ": 6306,
      "const& ": 6307,
      "(the ": 6308,
      "Bal": 6309,
      "up the ": 6310,
      "efficient ": 6311,
      "dev": 6312,
      "->Is": 6313,
      "GL_": 6314,
      "college ": 6315,
      "used": 6316,
      "es; ": 6317,
      "preci": 6318,
      "obtain": 6319,
      "\n\"": 6320,
      "edi": 6321,
      ");\n  }\n\n  ": 6322,
      "larger ": 6323,
      "00000000": 6324,
      "equal": 6325,
      "licens": 6326,
      "Status ": 6327,
      "ideas ": 6328,
      "ipeline": 6329,
      "hospit": 6330,
      "cd": 6331,
      "covery ": 6332,
      "capital ": 6333,
      "demand ": 6334,
      "contact ": 6335,
      "are not ": 6336,
      "annual ": 6337,
      "_to_": 6338,
      "lu": 6339,
      "river": 6340,
      "Type(": 6341,
      "Node ": 6342,
      "GD": 6343,
      ": \" << ": 6344,
      "themselv": 6345,
      "in your ": 6346,
      "CD": 6347,
      "beyond ": 6348,
      "outcom": 6349,
      "ios": 6350,
      "Austral": 6351,
      ");\n\n\t\t": 6352,
      "int64_t ": 6353,
      ".size() ": 6354,
      "Tri": 6355,
      "sent": 6356,
      "if(!": 6357,
      "wood": 6358,
      "map<": 6359,
      "Socket": 6360,
      "in 18": 6361,
      "tar": 6362,
      "highest ": 6363,
      "equal ": 6364,
      "against the ": 6365,
      "Register::": 6366,
      "Thr": 6367,
      "ess.</w>": 6368,
      "Match": 6369,
      "Internal": 6370,
      "Cath": 6371,
      "Dem": 6372,
      "won": 6373,
      "emission": 6374,
      "value.": 6375,
      "ities, ": 6376,
      "mom": 6377,
      "events ": 6378,
      "mind ": 6379,
      "Her": 6380,
      "solution": 6381,
      "Tod": 6382,
      "update": 6383,
      "appli": 6384,
      "At the ": 6385,
      "exact": 6386,
      "Bud": 6387,
      "}\n</w>": 6388,
      "estic ": 6389,
      ">>>>": 6390,
      "oppos": 6391,
      "Commit": 6392,
      "FAUL": 6393,
      "Get ": 6394,
      "static void ": 6395,
      "rad": 6396,
      "list ": 6397,
      "ignor": 6398,
      "Component": 6399,
      "Doc": 6400,
      "Pres": 6401,
      "strug": 6402,
      "critic": 6403,
      "One of the ": 6404,
      "t to ": 6405,
      "is of ": 6406,
      "prov": 6407,
      "\n  {\n    ": 6408,
      "speed ": 6409,
      "X ": 6410,
      "says ": 6411,
      "s, or ": 6412,
      "ine.</w>": 6413,
      "HE": 6414,
      "s who ": 6415,
      "elements ": 6416,
      "actual ": 6417,
      "Descriptor": 6418,
      "2*": 6419,
      "MO": 6420,
      "enom": 6421,
      "univer": 6422,
      ");\n    return ": 6423,
      "Style": 6424,
      "user ": 6425,
      "197": 6426,
      "_V": 6427,
      "someone ": 6428,
      "f = ": 6429,
      "emphas": 6430,
      "weal": 6431,
      "Network": 6432,
      "TL": 6433,
      "Apr": 6434,
      "us to ": 6435,
      "onom": 6436,
      "signal ": 6437,
      "Identi": 6438,
      "_FAIL": 6439,
      "Json": 6440,
      "ingu": 6441,
      "asp": 6442,
      "labor": 6443,
      "len ": 6444,
      "on-": 6445,
      "can help ": 6446,
      "choic": 6447,
      "Stack": 6448,
      "protobuf": 6449,
      "grant": 6450,
      "contains ": 6451,
      "Other ": 6452,
      "{\n\t\t\t\t": 6453,
      "handle ": 6454,
      "consump": 6455,
      "_STAT": 6456,
      "ATCH": 6457,
      "measure ": 6458,
      "s like ": 6459,
      "index ": 6460,
      "Soci": 6461,
      "ic and ": 6462,
      "private": 6463,
      "c, ": 6464,
      "tip": 6465,
      "scr": 6466,
      "can't ": 6467,
      "Mexic": 6468,
      "perf": 6469,
      "China ": 6470,
      "cred": 6471,
      "ology, ": 6472,
      "or of ": 6473,
      "scale ": 6474,
      "inser": 6475,
      "can also ": 6476,
      "tab": 6477,
      "activities ": 6478,
      "pre-": 6479,
      "teach ": 6480,
      "communication ": 6481,
      "suit": 6482,
      "settl": 6483,
      "create_": 6484,
      "front": 6485,
      "occur ": 6486,
      "11, ": 6487,
      "insp": 6488,
      "17 ": 6489,
      "promote ": 6490,
      "-> ": 6491,
      "Rece": 6492,
      "LICEN": 6493,
      "wise ": 6494,
      "-1,    -1,    ": 6495,
      ".org": 6496,
      "logg": 6497,
      "intellig": 6498,
      "gain": 6499,
      "->is": 6500,
      "green ": 6501,
      "Descrip": 6502,
      ")(": 6503,
      "PROC": 6504,
      "factor ": 6505,
      ".empty": 6506,
      "Li": 6507,
      "s()": 6508,
      "will": 6509,
      "ed on the ": 6510,
      ",\n    0x": 6511,
      "Mach": 6512,
      "Jewish ": 6513,
      "approximately ": 6514,
      "pression ": 6515,
      "Distr": 6516,
      "Link": 6517,
      "sort": 6518,
      "scor": 6519,
      "cut ": 6520,
      "1.</w>": 6521,
      "achie": 6522,
      ";\n}\n\nbool ": 6523,
      "der ": 6524,
      "pe ": 6525,
      "ster ": 6526,
      "Colleg": 6527,
      "easi": 6528,
      "Em": 6529,
      "url": 6530,
      "re-": 6531,
      "cin": 6532,
      "device_": 6533,
      "switch (": 6534,
      "deal ": 6535,
      "tool ": 6536,
      "water.</w>": 6537,
      "might be ": 6538,
      "FIL": 6539,
      "encod": 6540,
      "Operation": 6541,
      "atel": 6542,
      "che": 6543,
      "READ": 6544,
      "cn": 6545,
      "comb": 6546,
      "wild": 6547,
      "Empty": 6548,
      "vul": 6549,
      "trade ": 6550,
      "such a ": 6551,
      "f(\"": 6552,
      "prefer": 6553,
      "past": 6554,
      ";\n\n    // ": 6555,
      "s.size": 6556,
      "reduce the ": 6557,
      "had a ": 6558,
      "diabet": 6559,
      "overr": 6560,
      "const auto ": 6561,
      "minut": 6562,
      "for (const ": 6563,
      "Rev": 6564,
      "ather": 6565,
      "ostream": 6566,
      "journ": 6567,
      "expand": 6568,
      "Assem": 6569,
      "enz": 6570,
      "decid": 6571,
      "Audi": 6572,
      "->n": 6573,
      "s from the ": 6574,
      "sea ": 6575,
      "F_": 6576,
      "Internet ": 6577,
      "themselves ": 6578,
      "08": 6579,
      ";\n\n  // ": 6580,
      "cycl": 6581,
      "zz": 6582,
      "structur": 6583,
      "save ": 6584,
      "width ": 6585,
      "_v": 6586,
      "requirement": 6587,
      ");\n  }\n  ": 6588,
      "credit ": 6589,
      "long-term ": 6590,
      "takes ": 6591,
      "63": 6592,
      "ing in the ": 6593,
      "spread ": 6594,
      "ABL": 6595,
      "tol": 6596,
      "pover": 6597,
      "Priv": 6598,
      "es have ": 6599,
      "ment and ": 6600,
      "fai": 6601,
      "nan": 6602,
      "som": 6603,
      "in our ": 6604,
      "which the ": 6605,
      "(d": 6606,
      "eat ": 6607,
      "complex": 6608,
      "urban ": 6609,
      "9., ": 6610,
      "throw": 6611,
      "lot of ": 6612,
      "AS ": 6613,
      "Act ": 6614,
      "as it ": 6615,
      "that it ": 6616,
      "utions ": 6617,
      "forward": 6618,
      "launch": 6619,
      "director": 6620,
      "ary, ": 6621,
      "int n": 6622,
      "Indian ": 6623,
      "stop ": 6624,
      "TE": 6625,
      "}\n\t\t\t": 6626,
      "joint": 6627,
      "ASSERT_EQ(": 6628,
      "rig": 6629,
      "soil ": 6630,
      "cmd": 6631,
      "fres": 6632,
      "ycl": 6633,
      "ile": 6634,
      "(\n    ": 6635,
      "Kernel": 6636,
      "liqu": 6637,
      "} // ": 6638,
      "incid": 6639,
      "products ": 6640,
      "recently ": 6641,
      "google": 6642,
      "Root": 6643,
      "Channel": 6644,
      "();\n\t": 6645,
      "<float,2>{0.": 6646,
      "Federal ": 6647,
      "Pay": 6648,
      "catch ": 6649,
      "Copyright (c) ": 6650,
      "(\n      ": 6651,
      "->add": 6652,
      "x + ": 6653,
      "influence ": 6654,
      "Instruc": 6655,
      "I_": 6656,
      "ndef ": 6657,
      "MAT_": 6658,
      "alco": 6659,
      "www.": 6660,
      "Syri": 6661,
      "): ": 6662,
      "economy ": 6663,
      ".h>": 6664,
      "size_t": 6665,
      "pk": 6666,
      "Exp": 6667,
      "ump ": 6668,
      "scan": 6669,
      "0., 1., ": 6670,
      "PH": 6671,
      "complic": 6672,
      "Http": 6673,
      "b.": 6674,
      "ways to ": 6675,
      "lost ": 6676,
      "including the ": 6677,
      "Helper": 6678,
      "Libr": 6679,
      "\n *\n * ": 6680,
      "Edit": 6681,
      "deep ": 6682,
      "Anal": 6683,
      "Parent": 6684,
      "Is ": 6685,
      "all of ": 6686,
      "ate a ": 6687,
      "significantly ": 6688,
      "type == ": 6689,
      "town ": 6690,
      ";\r\n\t\t": 6691,
      "found in ": 6692,
      "sustainable ": 6693,
      ")\n\t\t\t": 6694,
      ") << ": 6695,
      "Graphics": 6696,
      "hug": 6697,
      "tou": 6698,
      "), SC_(0.": 6699,
      "ney ": 6700,
      "IT ": 6701,
      "My": 6702,
      "ADD": 6703,
      "theor": 6704,
      "ibil": 6705,
      "cours": 6706,
      "people who ": 6707,
      "export": 6708,
      "cool": 6709,
      "way.</w>": 6710,
      ")\n    {\n      ": 6711,
      "May": 6712,
      "k::": 6713,
      "leading ": 6714,
      "Commun": 6715,
      "safe ": 6716,
      "estimated ": 6717,
      "result of ": 6718,
      "offset ": 6719,
      "supply ": 6720,
      "TOD": 6721,
      "\\0": 6722,
      "POS": 6723,
      "mosph": 6724,
      "may": 6725,
      "s and other ": 6726,
      "genetic ": 6727,
      "effectiv": 6728,
      "stro": 6729,
      "instance": 6730,
      "hand ": 6731,
      "bf": 6732,
      "{{ ": 6733,
      "04": 6734,
      "HIV": 6735,
      "but": 6736,
      "ed as a ": 6737,
      "compare": 6738,
      "Idx": 6739,
      "Stand": 6740,
      "work.</w>": 6741,
      ");\n}\n\n// ": 6742,
      "AGE_": 6743,
      "isn't ": 6744,
      "ures.</w>": 6745,
      "true, ": 6746,
      "quickly ": 6747,
      "SS": 6748,
      "\t\t\t\t\t\t\t\t": 6749,
      "fel": 6750,
      "tum": 6751,
      "liber": 6752,
      "illustr": 6753,
      "High": 6754,
      "sent ": 6755,
      "** ": 6756,
      "search ": 6757,
      "you're ": 6758,
      "Test ": 6759,
      "entry ": 6760,
      "ender ": 6761,
      "\");\n": 6762,
      "NV": 6763,
      "agg": 6764,
      "Ter": 6765,
      "revol": 6766,
      "ase(": 6767,
      "ogen": 6768,
      "older ": 6769,
      "attempt": 6770,
      "Ali": 6771,
      "inary ": 6772,
      "World": 6773,
      "= \"": 6774,
      "Egy": 6775,
      "->set_": 6776,
      "{ return ": 6777,
      "elebr": 6778,
      "utiliz": 6779,
      "ing::": 6780,
      "e.g": 6781,
      "Async": 6782,
      "this is ": 6783,
      "string_": 6784,
      ");\r\n        ": 6785,
      "B_": 6786,
      "effort ": 6787,
      "end of ": 6788,
      "society ": 6789,
      "Sl": 6790,
      "Ital": 6791,
      "ve, ": 6792,
      "wait": 6793,
      "warm": 6794,
      "Western ": 6795,
      ", so ": 6796,
      "name_": 6797,
      "fab": 6798,
      ":\n    case ": 6799,
      "nav": 6800,
      "what is ": 6801,
      "Handle ": 6802,
      "tell ": 6803,
      "; ++i": 6804,
      "Sr": 6805,
      "limited ": 6806,
      "barri": 6807,
      "m::": 6808,
      "native ": 6809,
      "ed, and ": 6810,
      "verb": 6811,
      "store ": 6812,
      "America ": 6813,
      "commercial ": 6814,
      "callback": 6815,
      "immune ": 6816,
      "Dir": 6817,
      "ju": 6818,
      "porter": 6819,
      "industrial ": 6820,
      "Query": 6821,
      "Pow": 6822,
      "wrap": 6823,
      "using a ": 6824,
      " = 0; ": 6825,
      "history of ": 6826,
      "Stmt": 6827,
      "merg": 6828,
      "years of ": 6829,
      "struct": 6830,
      "ability of ": 6831,
      "awaren": 6832,
      "Health": 6833,
      "mill": 6834,
      "ance to ": 6835,
      "\";\n        ": 6836,
      "ening ": 6837,
      "contain ": 6838,
      "doctor ": 6839,
      "\");\n\n    ": 6840,
      "Size = ": 6841,
      "2cpp": 6842,
      "pindex": 6843,
      "um.</w>": 6844,
      "ral ": 6845,
      "CF": 6846,
      "tribu": 6847,
      "destin": 6848,
      "_r": 6849,
      "bile ": 6850,
      "Why ": 6851,
      "es and the ": 6852,
      "found that ": 6853,
      "2.0": 6854,
      "tif": 6855,
      "] == ": 6856,
      "Post": 6857,
      "da": 6858,
      "bring ": 6859,
      "process.</w>": 6860,
      "slow": 6861,
      "as they ": 6862,
      "THOD": 6863,
      "il2cpp": 6864,
      "quite ": 6865,
      "related to ": 6866,
      "transf": 6867,
      "final ": 6868,
      "questions ": 6869,
      "Il2CppType": 6870,
      "state_": 6871,
      "s & ": 6872,
      "March ": 6873,
      "after": 6874,
      "side the ": 6875,
      "accid": 6876,
      "erve ": 6877,
      "In a ": 6878,
      "teaching ": 6879,
      "fact": 6880,
      "OUT ": 6881,
      "ed an ": 6882,
      "Int32": 6883,
      "electric ": 6884,
      "wind ": 6885,
      "perspec": 6886,
      "rock": 6887,
      "43": 6888,
      "Rem": 6889,
      "u, ": 6890,
      "confirm": 6891,
      "signal": 6892,
      "there is a ": 6893,
      "TS": 6894,
      "7f": 6895,
      "preven": 6896,
      "German ": 6897,
      "eded": 6898,
      "connection ": 6899,
      "itive ": 6900,
      "ert ": 6901,
      "a::": 6902,
      "ABILIT": 6903,
      "Tot": 6904,
      "\r\n\r\n": 6905,
      "therefore ": 6906,
      "HS": 6907,
      "HX": 6908,
      "statistic": 6909,
      "prepar": 6910,
      "integ": 6911,
      "2(": 6912,
      "divers": 6913,
      "aries ": 6914,
      "ation.": 6915,
      "diag": 6916,
      "\\\\": 6917,
      "comfor": 6918,
      ");\r\n\t": 6919,
      "ectively ": 6920,
      "(\"-": 6921,
      "out, ": 6922,
      "connect ": 6923,
      "TURN": 6924,
      "60 ": 6925,
      "week ": 6926,
      "eb": 6927,
      "Span": 6928,
      ") { return ": 6929,
      "reading ": 6930,
      "East ": 6931,
      "induc": 6932,
      "CB": 6933,
      "domain": 6934,
      "ficial ": 6935,
      "correct ": 6936,
      "Brow": 6937,
      "(this": 6938,
      "California ": 6939,
      " * v_[": 6940,
      "VT": 6941,
      "forest": 6942,
      "variabl": 6943,
      "philosoph": 6944,
      "Service": 6945,
      "ram": 6946,
      "oxid": 6947,
      "M_S": 6948,
      "uk": 6949,
      "()), ": 6950,
      "announc": 6951,
      "Desc": 6952,
      "Ano": 6953,
      "ency": 6954,
      "Org": 6955,
      "prevent": 6956,
      "deliver": 6957,
      "he was ": 6958,
      "id = ": 6959,
      "fam": 6960,
      "formul": 6961,
      "treated ": 6962,
      "constant": 6963,
      "ism.</w>": 6964,
      "team ": 6965,
      "Down": 6966,
      "exhib": 6967,
      "an's ": 6968,
      "> &": 6969,
      "QT_": 6970,
      "messag": 6971,
      ", to ": 6972,
      "\n//\n//": 6973,
      "appear ": 6974,
      "batt": 6975,
      "pto": 6976,
      "Key ": 6977,
      "strength": 6978,
      "igen": 6979,
      "what": 6980,
      "Council ": 6981,
      "for(": 6982,
      "assem": 6983,
      "icon": 6984,
      "agu": 6985,
      ".\n *": 6986,
      "Muslim": 6987,
      "Ur": 6988,
      "itor ": 6989,
      "insurance ": 6990,
      "Christian ": 6991,
      "de.</w>": 6992,
      "engag": 6993,
      "landscap": 6994,
      "node ": 6995,
      "CE": 6996,
      "uff": 6997,
      "consci": 6998,
      "Education ": 6999,
      "implic": 7000,
      "Type = ": 7001,
      "continue to ": 7002,
      "arter": 7003,
      "mac": 7004,
      "GEN": 7005,
      "TIM": 7006,
      "Cr": 7007,
      "ations in ": 7008,
      "perhap": 7009,
      "circ": 7010,
      "Sig": 7011,
      "inn": 7012,
      "debu": 7013,
      "correct": 7014,
      "Byte": 7015,
      "mesh": 7016,
      "ances ": 7017,
      "ans, ": 7018,
      "Report": 7019,
      "workers ": 7020,
      "relatively ": 7021,
      "aware ": 7022,
      "simul": 7023,
      "country.</w>": 7024,
      "based on the ": 7025,
      "demand": 7026,
      "OM": 7027,
      "celebr": 7028,
      "internal__": 7029,
      "___internal__": 7030,
      ") / ": 7031,
      "need for ": 7032,
      "Government ": 7033,
      "_info": 7034,
      "Sum": 7035,
      "mass ": 7036,
      "ed = ": 7037,
      "; and ": 7038,
      "content ": 7039,
      "staff ": 7040,
      "parall": 7041,
      "Active": 7042,
      "tro": 7043,
      "Author": 7044,
      "eler": 7045,
      "one-": 7046,
      "partner": 7047,
      ");\n        if (": 7048,
      "!= nullptr": 7049,
      "cular ": 7050,
      "scholar": 7051,
      "unique_ptr<": 7052,
      "FD": 7053,
      "May ": 7054,
      "through a ": 7055,
      "for (size_t ": 7056,
      "state.": 7057,
      "Hy": 7058,
      "_list": 7059,
      "isc": 7060,
      "dition": 7061,
      "ether": 7062,
      "cells ": 7063,
      "s, such as ": 7064,
      "Islam": 7065,
      "\\\n    ": 7066,
      ", 0, ": 7067,
      "ally.</w>": 7068,
      "whit": 7069,
      "commonly ": 7070,
      "effects of ": 7071,
      "expression": 7072,
      "Double": 7073,
      "tend": 7074,
      "Form": 7075,
      "isolate": 7076,
      "simple": 7077,
      "Interface": 7078,
      "s,\n        ": 7079,
      "server ": 7080,
      "Of ": 7081,
      "may not ": 7082,
      "antic": 7083,
      "ive": 7084,
      "sound": 7085,
      "() + ": 7086,
      "owner": 7087,
      "Sequ": 7088,
      "c0": 7089,
      ";\n}\n": 7090,
      "hundred": 7091,
      "vas": 7092,
      "age and ": 7093,
      "runtime_": 7094,
      "doing ": 7095,
      "four": 7096,
      "curricul": 7097,
      "in and ": 7098,
      "tion is ": 7099,
      "ergy ": 7100,
      "Another ": 7101,
      "Red": 7102,
      "dar": 7103,
      "1,  ": 7104,
      "domestic ": 7105,
      "focused ": 7106,
      "adjust": 7107,
      "changes ": 7108,
      "remain ": 7109,
      "prag": 7110,
      "software": 7111,
      "parse_": 7112,
      "heat": 7113,
      "One": 7114,
      "Align": 7115,
      "among the ": 7116,
      "PU": 7117,
      "_SU": 7118,
      "protein": 7119,
      "session": 7120,
      "map ": 7121,
      ");\r\n  ": 7122,
      "UNC": 7123,
      "to_string": 7124,
      "Engine": 7125,
      "stre": 7126,
      "they can ": 7127,
      "s, including ": 7128,
      "\n\n#include <": 7129,
      "Import": 7130,
      "DIS": 7131,
      "c7": 7132,
      "ession ": 7133,
      "Zero": 7134,
      "gf": 7135,
      "join": 7136,
      "RN": 7137,
      "style ": 7138,
      ";\n\n            ": 7139,
      "act of ": 7140,
      "L\"": 7141,
      "Sa": 7142,
      " = NULL": 7143,
      "mobile ": 7144,
      "feet ": 7145,
      "sign ": 7146,
      "sound ": 7147,
      "1-": 7148,
      "53": 7149,
      "BUFF": 7150,
      "adequ": 7151,
      "</": 7152,
      "m.": 7153,
      "prob": 7154,
      "f, 0.0": 7155,
      "Dy": 7156,
      "ed to a ": 7157,
      "ished ": 7158,
      "beginning ": 7159,
      "Pi": 7160,
      "rupt": 7161,
      " = (": 7162,
      "time to ": 7163,
      "ut ": 7164,
      "ugin": 7165,
      "uint16": 7166,
      "find(": 7167,
      "AY": 7168,
      "ess of ": 7169,
      "module": 7170,
      "ana ": 7171,
      "ffff": 7172,
      "Mask": 7173,
      "independent ": 7174,
      "sin(q": 7175,
      "Ow": 7176,
      "s[0]": 7177,
      "me ": 7178,
      "iction": 7179,
      "}\n\n            ": 7180,
      "core ": 7181,
      "argu": 7182,
      "west ": 7183,
      "severe ": 7184,
      "Host": 7185,
      "es::": 7186,
      "for example, ": 7187,
      ";\n\n\t\t": 7188,
      "Invalid": 7189,
      ",\"": 7190,
      "Order": 7191,
      "successful ": 7192,
      "ratic ": 7193,
      "sector": 7194,
      "decreas": 7195,
      "group of ": 7196,
      "common": 7197,
      "LogPrint": 7198,
      "source of ": 7199,
      "Word": 7200,
      "vill": 7201,
      "};\n    ": 7202,
      "s - ": 7203,
      "restor": 7204,
      "s for the ": 7205,
      "which are ": 7206,
      "wel": 7207,
      "substanti": 7208,
      "sample": 7209,
      "1b": 7210,
      "ystem": 7211,
      "infection": 7212,
      "1/": 7213,
      "A_": 7214,
      "enable ": 7215,
      "fire ": 7216,
      "Applic": 7217,
      "cos(q": 7218,
      "uple": 7219,
      "Their ": 7220,
      "Version ": 7221,
      "g_F": 7222,
      "review ": 7223,
      ".data": 7224,
      "<std::": 7225,
      "Its ": 7226,
      "cm": 7227,
      "car ": 7228,
      "Handle<": 7229,
      "e's ": 7230,
      "socket": 7231,
      "platform": 7232,
      "auti": 7233,
      "[i] = ": 7234,
      ".begin": 7235,
      "writing ": 7236,
      "capit": 7237,
      "campa": 7238,
      "that, ": 7239,
      "New York ": 7240,
      "enforc": 7241,
      "achieve ": 7242,
      "Famil": 7243,
      "mark ": 7244,
      "transaction ": 7245,
      "DEBUG": 7246,
      "6,": 7247,
      "dens": 7248,
      "camp": 7249,
      "clang": 7250,
      "batter": 7251,
      "Begin": 7252,
      "send ": 7253,
      "::Set": 7254,
      "Shape": 7255,
[...]
